<unk>	0
<s>	0
</s>	0
,	-2.91009
.	-3.22465
▁ja	-3.67158
▁on	-3.88873
n	-4.06694
▁	-4.09542
▁että	-4.37955
a	-4.66562
t	-5.11395
-	-5.16019
▁Euroopan	-5.25349
▁ei	-5.30968
en	-5.40472
:	-5.46011
sta	-5.52156
in	-5.62293
▁myös	-5.62661
▁ovat	-5.70308
mme	-5.74424
▁se	-5.7687
ssa	-5.79346
ta	-5.80313
▁ole	-5.80838
ä	-5.81843
▁-	-5.83539
an	-5.83607
▁joka	-5.98074
▁sen	-5.9909
▁Arvoisa	-5.9979
lle	-6.018
▁puhemies	-6.04496
▁jotka	-6.07072
▁(	-6.08713
▁komission	-6.09695
)	-6.09997
▁EU	-6.1166
▁siitä	-6.14825
▁mutta	-6.30068
▁sitä	-6.3036
▁parlamentin	-6.30817
▁tai	-6.33278
kin	-6.34763
lla	-6.35903
▁sekä	-6.36149
▁olisi	-6.38374
▁kuin	-6.40138
▁unionin	-6.42086
▁voi	-6.43984
i	-6.44846
▁jäsen	-6.48296
▁tämän	-6.5147
▁kanssa	-6.54306
▁kuitenkin	-6.554
▁meidän	-6.57465
stä	-6.60505
▁kun	-6.62439
ksi	-6.62774
ja	-6.6561
▁tämä	-6.66217
▁Tämä	-6.674
▁jo	-6.68594
▁hyvin	-6.68787
s	-6.69721
▁koska	-6.69816
?	-6.70851
ko	-6.71685
vat	-6.73337
▁nyt	-6.75535
▁vain	-6.76535
e	-6.76804
na	-6.77979
▁niin	-6.78473
▁ne	-6.7889
tä	-6.79743
ista	-6.80218
▁jonka	-6.81415
▁oli	-6.82927
▁kuten	-6.8506
ssä	-6.86103
▁sillä	-6.88023
▁komissio	-6.89818
ni	-6.91595
jen	-6.9197
▁eivät	-6.92436
▁Se	-6.9271
sti	-6.93153
ten	-6.94777
▁On	-6.95176
u	-6.95473
▁jotta	-6.97563
▁kaikki	-6.97837
▁tässä	-6.98469
▁jos	-7.00102
▁olla	-7.01471
▁voidaan	-7.01695
▁erittäin	-7.02292
▁vielä	-7.02848
▁niiden	-7.0294
sa	-7.03114
▁tätä	-7.038
▁olemme	-7.0382
▁siihen	-7.04579
minen	-7.04782
▁jossa	-7.0544
▁saa	-7.06257
▁puolesta	-7.06621
▁neuvoston	-7.06684
▁vuoksi	-7.06737
on	-7.08152
et	-7.08414
▁puheenjohtaja	-7.08436
▁mitä	-7.09443
maan	-7.09939
▁erityisesti	-7.11221
▁pitäisi	-7.12488
▁me	-7.12571
ia	-7.13411
▁Meidän	-7.15867
llä	-7.17272
▁joita	-7.17598
▁mukaan	-7.17879
▁tärkeää	-7.18592
ille	-7.19062
▁jäsenvaltioiden	-7.21079
▁Olen	-7.2366
nne	-7.24757
den	-7.25863
▁vaan	-7.26016
▁mieltä	-7.262
▁parlamentti	-7.27152
▁vuoden	-7.27492
▁eikä	-7.28071
▁paljon	-7.29951
misen	-7.30585
▁huomioon	-7.30673
▁"	-7.30886
▁jota	-7.31085
än	-7.31255
▁arvoisa	-7.32079
o	-7.32269
tta	-7.33193
▁ollut	-7.33556
▁olen	-7.33722
▁–	-7.33811
▁eri	-7.34787
▁koko	-7.34898
▁tähän	-7.36106
▁tällä	-7.36306
▁tehdä	-7.36393
▁ennen	-7.37377
neet	-7.38062
ihin	-7.3883
▁osalta	-7.3927
▁yhteisön	-7.39793
▁he	-7.4025
▁tästä	-7.40485
▁ettei	-7.40541
te	-7.41223
▁jälkeen	-7.41616
mista	-7.41751
▁haluan	-7.42528
▁niitä	-7.45202
tu	-7.45211
▁asia	-7.46765
▁täysin	-7.47314
▁mielestäni	-7.47813
▁itse	-7.48013
lta	-7.48339
▁osa	-7.48437
▁vastaan	-7.48982
ne	-7.49808
▁mikä	-7.49986
tte	-7.50082
▁viime	-7.50274
ke	-7.51016
▁Jos	-7.5114
si	-7.51781
nsa	-7.5221
▁näin	-7.52562
h	-7.52586
issa	-7.53373
miseen	-7.53955
y	-7.55894
▁Eurooppa	-7.55961
is	-7.5651
▁vuonna	-7.56826
▁hän	-7.57068
iden	-7.57197
isi	-7.5763
nut	-7.57668
▁enemmän	-7.58362
nä	-7.58442
▁emme	-7.58525
▁jolla	-7.59639
▁joiden	-7.60056
▁koskevan	-7.61135
▁joilla	-7.61897
▁asiassa	-7.61982
▁edelleen	-7.62316
▁Tämän	-7.62427
▁voimme	-7.62661
▁toimia	-7.62719
▁yksi	-7.62739
▁yhteydessä	-7.62947
▁sitten	-7.63174
▁heidän	-7.63175
▁antaa	-7.63745
us	-7.63834
"	-7.64057
▁miten	-7.64203
▁hänen	-7.64428
▁siis	-7.64748
▁tärkeä	-7.65059
▁aikana	-7.66221
▁unioni	-7.66454
▁Haluan	-7.66576
▁pitää	-7.66782
r	-7.67166
▁mietinnön	-7.68323
▁hyvät	-7.68756
▁vaikka	-7.68848
▁jäsenet	-7.68965
va	-7.6923
▁Olemme	-7.69332
▁tulee	-7.6977
▁siinä	-7.69815
▁työ	-7.69864
kseen	-7.70505
▁haluaisin	-7.70674
▁ympäristö	-7.71549
un	-7.71706
vät	-7.71875
▁tehtävä	-7.721
▁nämä	-7.7217
▁lisäksi	-7.73024
▁avulla	-7.73196
▁esimerkiksi	-7.73434
▁voivat	-7.73844
▁aivan	-7.75236
ttä	-7.75272
istä	-7.75517
▁juuri	-7.75552
miseksi	-7.75555
▁neuvosto	-7.76186
;	-7.76781
illa	-7.76852
▁tänään	-7.77048
inen	-7.7724
▁kaikkien	-7.77395
▁yli	-7.77445
▁Komissio	-7.77898
▁kansalaisten	-7.78266
▁koskevat	-7.7843
▁oltava	-7.78609
ka	-7.7884
▁saada	-7.78874
▁kannalta	-7.80186
politiikan	-7.80318
▁siksi	-7.80872
l	-7.80955
▁näiden	-7.81357
▁Sen	-7.81457
▁koskee	-7.81938
ita	-7.8327
▁meillä	-7.8336
▁alalla	-7.8343
▁oikeus	-7.83749
▁hyvä	-7.84088
pa	-7.84121
▁samaa	-7.84528
▁maiden	-7.84627
▁aikaan	-7.85731
een	-7.85787
van	-7.85904
ma	-7.86235
ty	-7.86282
▁Haluaisin	-7.86296
▁todella	-7.8666
ki	-7.86816
▁kyse	-7.87184
▁Me	-7.87383
▁eli	-7.87447
▁tukea	-7.88177
▁sanoa	-7.88703
▁sopimuksen	-7.88944
▁toiminta	-7.88991
▁kiittää	-7.89609
▁kuitenkaan	-7.90059
▁toimi	-7.90301
▁te	-7.90451
▁kaksi	-7.90763
▁aina	-7.90783
▁mitään	-7.90799
▁uudelleen	-7.90897
▁ottaa	-7.91598
▁ainoastaan	-7.92086
ti	-7.92346
▁meille	-7.9277
▁tapauksessa	-7.93112
▁koskeva	-7.93224
taan	-7.933
la	-7.93315
▁täällä	-7.94527
▁kaikkia	-7.94795
▁Mielestäni	-7.95461
▁mietintö	-7.9592
▁Lisäksi	-7.96032
nen	-7.96064
EN	-7.96219
▁ilman	-7.96422
▁määrä	-7.96835
▁prosenttia	-7.96999
▁Siksi	-7.97257
ri	-7.97294
▁talous	-7.97606
▁En	-7.98412
▁tavalla	-7.98599
jä	-7.98777
▁joissa	-7.99816
▁jäsenvaltiot	-7.99893
▁välillä	-8.00284
re	-8.00522
to	-8.00594
▁hyväksyä	-8.01217
▁Tässä	-8.01312
▁energia	-8.01325
▁mietinnössä	-8.01533
▁parlamentissa	-8.01593
▁asiasta	-8.01658
▁hetkellä	-8.01974
▁yhtä	-8.02078
▁muiden	-8.02371
▁Näin	-8.02397
▁mahdollista	-8.0276
▁turvallisuus	-8.02884
▁käyttöön	-8.0347
mis	-8.03643
misesta	-8.03658
▁käyttää	-8.03829
▁siten	-8.03861
▁ollen	-8.04433
▁yhä	-8.04456
iin	-8.04622
malla	-8.05402
ttu	-8.0553
▁suuri	-8.0566
▁varten	-8.05679
ttava	-8.06132
▁mukaisesti	-8.06363
▁kaikkea	-8.06699
sen	-8.07392
▁Kuten	-8.07509
valtio	-8.08586
▁rahoitus	-8.08665
▁Euroopassa	-8.09632
▁esittelijä	-8.10136
▁asiaa	-8.10183
▁pää	-8.10309
▁voida	-8.10651
▁maailman	-8.10711
▁olevan	-8.10774
▁kollegat	-8.11004
▁päätöslauselma	-8.11567
▁esittää	-8.11669
▁kysymys	-8.11802
▁niistä	-8.13168
sä	-8.13475
▁maatalous	-8.13486
▁A	-8.13578
▁voisi	-8.13645
▁yhteistyötä	-8.13777
li	-8.14044
vien	-8.14093
k	-8.14244
▁pidä	-8.14733
▁näitä	-8.15053
▁samalla	-8.15253
▁yhdessä	-8.1534
▁asian	-8.15418
▁kerran	-8.15425
kaan	-8.15631
▁jopa	-8.16056
▁Emme	-8.16215
▁liian	-8.16363
▁mahdollisimma	-8.17384
▁kansalais	-8.17719
▁unionissa	-8.17882
ryhmän	-8.179
▁jälleen	-8.18371
▁vasta	-8.18444
elle	-8.18483
▁otetaan	-8.18654
▁enää	-8.18655
5	-8.19028
▁olemassa	-8.19485
▁perusteella	-8.19575
kö	-8.19695
▁josta	-8.19794
▁ajan	-8.20968
essä	-8.21016
▁teille	-8.21442
isten	-8.21733
▁uuden	-8.21741
▁Tästä	-8.22239
esti	-8.22575
▁teitä	-8.22579
▁minun	-8.22813
▁Kun	-8.22844
sten	-8.2285
ku	-8.23015
▁ka	-8.23633
▁tuo	-8.23727
▁usein	-8.2384
▁muut	-8.24187
m	-8.24543
▁kuinka	-8.24677
▁johon	-8.24687
▁haluamme	-8.2496
/	-8.25024
▁T	-8.25365
▁syystä	-8.25445
▁esiin	-8.25456
▁Lopuksi	-8.25684
▁vuotta	-8.2591
▁maan	-8.26326
ttävä	-8.26465
▁uusia	-8.265
▁tietenkin	-8.266
▁tarvitaan	-8.26835
▁selvästi	-8.27072
▁aika	-8.27648
▁ongelma	-8.27715
isiin	-8.27978
▁korostaa	-8.27998
▁tasolla	-8.28232
▁täytyy	-8.2833
▁tilanne	-8.28737
le	-8.28775
▁yhteisen	-8.28867
▁luo	-8.28923
iä	-8.29155
ksemme	-8.29731
▁uusi	-8.29926
▁Lissabonin	-8.30102
esta	-8.30885
▁voitaisiin	-8.30924
▁valiokunnan	-8.31135
▁perus	-8.31388
▁S	-8.31423
nyt	-8.3143
▁erityis	-8.3149
lo	-8.31494
▁huomiota	-8.31976
▁alueella	-8.32028
▁Komission	-8.32223
▁työtä	-8.32606
vi	-8.32819
▁erityisen	-8.33101
▁naisten	-8.33521
▁tavoin	-8.34337
▁huolimatta	-8.34433
ro	-8.34587
▁osoittaa	-8.34655
▁todellakin	-8.34705
▁lisää	-8.348
▁keskustelu	-8.34843
▁mennessä	-8.34865
▁lisä	-8.34941
▁en	-8.35031
▁sopimus	-8.35275
tti	-8.35569
▁ehdotuksen	-8.35934
▁jäsenvaltioissa	-8.36516
▁lainsäädäntö	-8.36609
▁Toivon	-8.36786
4	-8.36892
▁mietintöä	-8.37187
▁selvää	-8.37343
▁joista	-8.37681
▁Ne	-8.3793
▁kirjallinen	-8.38109
▁muun	-8.3837
▁komissiota	-8.38469
isen	-8.38916
essa	-8.38959
alan	-8.39106
▁tuki	-8.39382
▁ongelmia	-8.39792
▁kehitys	-8.39876
A	-8.39931
▁yhteistyö	-8.40213
▁miljoonaa	-8.40687
llinen	-8.40843
▁etenkin	-8.41082
▁ihmisten	-8.41236
▁otettava	-8.41326
▁koskevia	-8.41471
▁edistää	-8.41553
▁liittyvät	-8.41709
politiikkaa	-8.41752
▁ihmisoikeus	-8.41905
estä	-8.42385
mään	-8.42787
▁alueen	-8.42859
▁E	-8.42997
▁direktiivin	-8.43461
▁valtion	-8.43582
isia	-8.43758
via	-8.43791
▁vaikuttaa	-8.44016
▁käy	-8.44288
mistä	-8.44438
▁kohtaan	-8.44551
tö	-8.44689
▁Nyt	-8.44945
ltä	-8.4527
▁sosiaali	-8.45439
▁liittyy	-8.45712
▁vai	-8.45801
▁maa	-8.45929
▁tasa	-8.46096
▁valvonta	-8.46414
ilta	-8.46508
▁muita	-8.46514
pe	-8.4656
pu	-8.47207
▁koskevien	-8.4745
d	-8.47468
▁tulevaisuudessa	-8.47485
▁entistä	-8.47509
▁Vaikka	-8.4757
▁meitä	-8.47675
▁halua	-8.47911
DE	-8.48361
▁monet	-8.48473
valiokunnan	-8.48535
▁kolme	-8.48602
ra	-8.48699
▁epä	-8.49234
8	-8.49295
▁Nämä	-8.49386
▁koskevaa	-8.49558
emme	-8.49672
▁nimittäin	-8.5007
sin	-8.50137
sopimuksen	-8.50184
▁kuuluu	-8.50184
▁asioita	-8.50344
▁nopeasti	-8.50462
▁talouden	-8.5047
7	-8.51036
▁Mitä	-8.51152
he	-8.52071
▁mahdollisuus	-8.52815
▁la	-8.53354
▁varmistaa	-8.53617
▁Ei	-8.53893
▁kulttuuri	-8.54745
▁merkittävä	-8.54877
▁tyytyväinen	-8.54886
▁parlamentille	-8.55105
▁ehdotus	-8.55229
▁aikaa	-8.55315
▁Yhdysvaltojen	-8.55472
▁YK	-8.55725
▁G	-8.55888
6	-8.56002
lu	-8.5612
▁silloin	-8.56167
▁He	-8.56367
▁kaikille	-8.56558
▁pyritään	-8.56592
▁herra	-8.56635
▁tarkoittaa	-8.56656
2	-8.56794
ve	-8.57033
▁kansalaiset	-8.57273
da	-8.57274
▁olivat	-8.57385
▁sijaan	-8.57408
▁minkä	-8.57477
neen	-8.57709
seen	-8.57717
▁muuta	-8.58336
er	-8.58341
▁jäsenten	-8.58413
neuvoston	-8.58457
▁joten	-8.58569
▁maissa	-8.58582
▁tänä	-8.58677
mpi	-8.58771
jo	-8.58936
vä	-8.58969
▁kalastus	-8.59156
▁Tällä	-8.59159
▁vastuu	-8.59198
▁varmasti	-8.59224
▁monia	-8.59475
▁syytä	-8.59651
▁vaikea	-8.59653
▁toimielinten	-8.59763
kään	-8.60025
▁takia	-8.60041
▁ehkä	-8.60157
▁ihmisoikeuksien	-8.60215
mi	-8.60296
▁oikein	-8.60321
▁tavoitteena	-8.60384
▁toimiin	-8.60418
han	-8.60542
▁näistä	-8.60597
▁valmis	-8.6075
▁vero	-8.60764
▁tutkimus	-8.60798
▁yritysten	-8.60865
▁korkea	-8.6095
▁paremmin	-8.61049
▁ansiosta	-8.61082
▁kahden	-8.61082
▁ha	-8.61125
▁Toiseksi	-8.61153
kk	-8.61237
▁valtioiden	-8.61276
3	-8.61404
ttiin	-8.61561
▁ku	-8.6172
kka	-8.61727
no	-8.6192
▁kansainvälisen	-8.61951
▁keskustelun	-8.62092
▁artiklan	-8.62105
▁joihin	-8.62154
▁talousarvio	-8.62277
▁tehnyt	-8.62344
▁toivon	-8.62488
▁täytäntöön	-8.62624
▁yhteis	-8.62668
▁eurooppalaisen	-8.62685
▁hallituksen	-8.62706
▁euroa	-8.62835
▁raha	-8.62851
▁ehdotuksia	-8.62871
▁pelkästään	-8.63021
eksi	-8.63031
▁000	-8.63113
järjestelmän	-8.63159
▁lopuksi	-8.63212
kaa	-8.63556
▁joitakin	-8.63594
▁auttaa	-8.63819
▁mietinnöstä	-8.64006
▁20	-8.64081
▁maailmanlaajuis	-8.64177
▁Venäjän	-8.64272
▁raja	-8.64466
imme	-8.65257
▁myöskään	-8.65275
se	-8.65339
▁tieto	-8.6539
▁Koska	-8.65416
▁kautta	-8.6545
▁teidän	-8.65542
▁ehdotusta	-8.65574
▁hallitus	-8.65696
▁toteuttaa	-8.65802
▁ulko	-8.65877
1	-8.65933
▁tärkeitä	-8.661
▁johtaa	-8.6613
▁va	-8.66148
▁pian	-8.66303
▁yhden	-8.66354
▁usko	-8.66435
issä	-8.66443
▁ratkaisu	-8.66635
b	-8.6666
▁niihin	-8.66692
▁Turkin	-8.66791
▁todeta	-8.66918
▁vastaa	-8.67383
arvo	-8.67512
▁La	-8.67574
▁C	-8.67757
▁asiaan	-8.67845
iset	-8.67883
tava	-8.68153
politiikka	-8.6915
▁ihmiset	-8.69268
▁kilpailu	-8.69492
▁uutta	-8.69581
▁Myös	-8.69652
▁perustamis	-8.69865
▁ase	-8.69931
uksia	-8.70022
de	-8.70102
▁tekee	-8.70125
9	-8.70213
▁talousarvion	-8.70395
▁hyväksi	-8.70567
el	-8.70574
▁uusien	-8.70839
nsä	-8.70945
▁lisätä	-8.7113
sia	-8.71181
▁täytäntöönpano	-8.71508
▁valitettavasti	-8.71703
iksi	-8.72064
z	-8.72084
▁yhteen	-8.72105
▁kertaa	-8.72305
isesti	-8.7236
▁tekemään	-8.72365
▁välttämätöntä	-8.72405
▁koskaan	-8.7249
▁kansalaisille	-8.72493
▁Toinen	-8.72508
▁sanoi	-8.72529
▁syy	-8.72649
▁sanoen	-8.72746
▁saattaa	-8.7278
▁direktiivi	-8.72781
▁päästä	-8.72901
▁tarkoituksena	-8.73253
c	-8.73516
▁keskustelua	-8.73736
▁tarkistuksia	-8.73791
▁paitsi	-8.73825
▁muassa	-8.73941
▁kehityksen	-8.74011
▁useita	-8.74064
mien	-8.7418
matta	-8.74399
▁lainsäädännön	-8.74589
▁kohti	-8.74602
▁10	-8.74613
uus	-8.74747
▁jolloin	-8.74864
massa	-8.74871
▁Hän	-8.75229
▁tapahtuu	-8.75317
ina	-8.7547
▁tehdään	-8.75564
▁yhteisö	-8.7567
▁k	-8.75729
▁edellyttää	-8.75978
▁alueiden	-8.76029
▁tehty	-8.76105
▁haluaa	-8.76124
▁poliittinen	-8.76164
▁osin	-8.76245
▁5	-8.76248
▁jää	-8.76358
▁vara	-8.76532
itä	-8.76755
▁edes	-8.76783
▁poliittisen	-8.76862
maa	-8.77248
ste	-8.77682
▁politiikan	-8.77699
▁vahvistaa	-8.77917
▁pois	-8.77921
▁parantaa	-8.77955
▁taas	-8.78012
▁O	-8.78134
▁liikenne	-8.78168
▁haluavat	-8.78261
▁työntekijöiden	-8.784
▁komissiolle	-8.78692
▁Ja	-8.78709
▁olevien	-8.78777
▁väli	-8.79012
▁kysymyksen	-8.79093
▁esille	-8.7911
tus	-8.7921
▁Meillä	-8.79451
▁tarkoitus	-8.79524
▁aihe	-8.79527
ö	-8.79636
▁Tätä	-8.79906
mia	-8.79985
▁vuosi	-8.80007
ellä	-8.80085
▁onko	-8.80086
hin	-8.80174
hi	-8.80225
▁jatkaa	-8.80225
▁valtio	-8.80279
it	-8.80288
▁miksi	-8.80338
mä	-8.80356
▁merkitsee	-8.80379
▁totesi	-8.80422
▁sille	-8.80452
▁aloilla	-8.80453
▁olleet	-8.80578
▁kansallisten	-8.80598
määrä	-8.80701
kseni	-8.80761
▁budjetti	-8.80799
▁19	-8.81013
▁luoda	-8.81044
▁ma	-8.81091
▁kysymyksiä	-8.81117
▁tilannetta	-8.81292
▁kaiken	-8.81322
▁ainoa	-8.8133
me	-8.81348
mo	-8.81356
▁tuen	-8.81476
▁B	-8.81531
po	-8.81606
▁toiminnan	-8.81872
▁toisin	-8.81874
taa	-8.8192
▁toimintaa	-8.81944
▁noin	-8.82
▁olette	-8.82064
▁luonnollisesti	-8.8212
pä	-8.82153
illä	-8.82187
so	-8.82203
misessa	-8.82249
▁ra	-8.82324
▁niille	-8.82424
▁vie	-8.82446
▁P	-8.82654
do	-8.82762
▁Siinä	-8.82776
llis	-8.8285
▁turvallisuuden	-8.82965
▁toinen	-8.83016
▁Uskon	-8.83104
▁ala	-8.83156
▁lainsäädäntöä	-8.83243
isin	-8.8325
▁kehitystä	-8.83269
vaa	-8.83407
▁käsitellä	-8.83428
▁kanta	-8.83587
▁kaikissa	-8.8359
▁ainakin	-8.83617
tin	-8.83817
▁Kaikki	-8.83907
uuden	-8.84004
▁ministeri	-8.84116
tty	-8.8418
▁hieman	-8.84203
▁Kyse	-8.84215
▁1	-8.84276
▁oikeuksia	-8.84406
▁saadaan	-8.84533
▁6	-8.84675
▁perusta	-8.84747
al	-8.84771
▁Jo	-8.84783
amme	-8.85181
▁poliittista	-8.85212
▁yleis	-8.85253
aan	-8.85341
▁huono	-8.85345
▁hallitusten	-8.85351
▁liittyviä	-8.85388
▁askel	-8.85688
misestä	-8.8578
tele	-8.85811
▁toimet	-8.85845
▁iloinen	-8.85901
yn	-8.85928
▁maat	-8.85992
▁kysymykseen	-8.86048
▁koskevasta	-8.86115
▁välisen	-8.86168
▁annettava	-8.86223
▁tarpeen	-8.86239
▁tietää	-8.86514
▁2	-8.86876
▁tilanteen	-8.87002
▁henkilö	-8.87046
▁jatkuvasti	-8.87319
▁oma	-8.87363
▁varoja	-8.87462
▁15	-8.87582
▁kauppa	-8.87589
▁käsitellään	-8.87607
▁unioniin	-8.87669
▁suhteen	-8.87682
▁klo	-8.87935
▁yhteinen	-8.8798
▁jäsenen	-8.88128
▁käytetään	-8.88234
g	-8.88237
ha	-8.88314
▁aikoo	-8.88431
▁mielessä	-8.88495
▁Ensinnäkin	-8.88635
▁toisen	-8.88638
neuvosto	-8.88689
▁ensi	-8.8869
▁pi	-8.88752
▁maailmassa	-8.89079
▁aluksi	-8.89181
▁huomattavasti	-8.89191
▁demokratian	-8.89337
00	-8.89718
▁perustuu	-8.89761
v	-8.89958
▁laatima	-8.901
ön	-8.90129
▁saavuttaa	-8.90262
▁tiedämme	-8.90413
FR	-8.90461
▁Ka	-8.90525
▁vähän	-8.90554
▁järjestelmä	-8.90567
▁tietoa	-8.90859
▁kiinni	-8.90922
▁Ma	-8.90977
▁tulisi	-8.90994
▁oleva	-8.91058
▁toimenpiteitä	-8.91096
llista	-8.91105
▁aiemmin	-8.91244
▁komissaari	-8.91287
▁ihmisiä	-8.91321
▁etu	-8.91349
▁hallinto	-8.91398
tettiin	-8.91432
▁oikea	-8.91466
▁Keskustelu	-8.91498
man	-8.91499
▁heitä	-8.91539
siin	-8.91615
pi	-8.91635
▁arvo	-8.91639
ho	-8.91652
▁tavoite	-8.91792
▁Minun	-8.91875
▁laaja	-8.91986
▁presidentti	-8.92025
▁oman	-8.92055
▁turva	-8.9206
lin	-8.92102
▁kantaa	-8.92126
▁mahdollisuuksia	-8.92289
▁minä	-8.92339
▁myönteisesti	-8.92419
▁jäsenvaltion	-8.92449
▁lähes	-8.92527
▁annetaan	-8.9256
▁To	-8.92624
▁samoin	-8.92664
änestin	-8.92736
▁työn	-8.92852
▁huomenna	-8.92891
▁tarvitsemme	-8.92908
▁eurooppalaisten	-8.92915
▁missä	-8.93108
▁hyväksy	-8.9311
▁vuosina	-8.93377
▁työstä	-8.93377
▁vuoteen	-8.93383
▁eteenpäin	-8.93411
▁valiokunta	-8.93486
▁toisaalta	-8.93549
▁tasapaino	-8.93559
▁saavat	-8.93647
▁kuulu	-8.93706
▁ensimmäinen	-8.9378
▁euron	-8.93851
▁saatava	-8.93869
▁selväksi	-8.9388
usta	-8.93976
▁alan	-8.94011
▁siltä	-8.94049
▁jäsenvaltioita	-8.94076
▁työllisyys	-8.94308
▁pidettävä	-8.94382
tetaan	-8.94398
kä	-8.94432
▁yhteistyön	-8.9451
▁tehneet	-8.94511
▁Jäsen	-8.94519
▁kansalaisia	-8.94594
▁toimien	-8.94628
▁mahdollisuuden	-8.94947
teen	-8.95236
ella	-8.95322
▁Lu	-8.95367
▁o	-8.95427
mm	-8.95428
▁suoraan	-8.95671
▁rauhan	-8.95729
▁asti	-8.95837
▁oikeuksien	-8.95847
▁yhteistä	-8.95943
▁F	-8.95956
▁vähemmän	-8.96006
neiden	-8.96067
▁oikeutta	-8.96094
▁uskon	-8.96147
▁puhua	-8.96178
ys	-8.96189
▁Te	-8.96194
▁tietoja	-8.96246
▁oikeuden	-8.96274
▁alue	-8.96447
▁sääntöjä	-8.96451
▁pysty	-8.96553
mmin	-8.96687
▁sopimukseen	-8.96709
▁päätös	-8.96738
▁hyväksyi	-8.96743
olo	-8.96786
ttaa	-8.96823
▁kaupan	-8.96852
kuu	-8.96862
miin	-8.9687
▁8	-8.96939
▁puoli	-8.96987
du	-8.97098
▁selkeästi	-8.97621
▁myötä	-8.97691
masta	-8.97698
tään	-8.97886
▁vastata	-8.97916
▁7	-8.98112
järjestelmä	-8.98189
▁saanut	-8.98391
▁mene	-8.98422
▁ottaen	-8.98604
nti	-8.9864
vän	-8.98643
▁varsin	-8.99116
mu	-8.99374
▁mielestämme	-8.99434
▁tarkistuksen	-8.99545
▁Yksi	-8.99747
▁yhtenäis	-8.99834
▁politiikkaa	-8.99902
▁toivo	-8.99953
▁aiheuttaa	-9.00087
▁loppu	-9.00132
▁seuraavana	-9.00304
P	-9.0036
▁Neuvosto	-9.00449
▁tehokkaasti	-9.00809
▁minulle	-9.00891
▁kasvu	-9.00915
ks	-9.00932
▁aja	-9.01024
▁ympäristön	-9.01148
▁käyttö	-9.01239
▁Mutta	-9.01245
▁tarkistusta	-9.01278
▁alueilla	-9.01352
▁kaikkein	-9.01487
▁jäseniä	-9.01594
▁I	-9.01771
▁puhu	-9.01804
asioiden	-9.01892
▁terrorismin	-9.02003
▁estää	-9.02061
▁ryhmä	-9.02065
▁asiat	-9.02132
▁siellä	-9.0229
▁apua	-9.02337
▁vakava	-9.02398
itte	-9.02404
▁tietysti	-9.02463
▁totta	-9.02732
▁tapa	-9.02735
p	-9.02878
▁vaiheessa	-9.03074
▁teollisuus	-9.03169
".	-9.03276
▁muu	-9.03364
▁koulutus	-9.03364
tettava	-9.03516
▁ero	-9.0356
▁puitteissa	-9.03927
ot	-9.04119
▁esittelijää	-9.04198
▁2000	-9.04201
▁päätöslauselman	-9.04286
▁näyttää	-9.04308
▁esi	-9.04352
▁syistä	-9.04388
▁markkina	-9.04391
▁pöytäkirja	-9.04539
▁tavoitteet	-9.04639
▁lasten	-9.04644
▁suurin	-9.04729
▁tullut	-9.04784
▁sellaisen	-9.04832
▁väline	-9.04858
▁kulu	-9.04879
▁Kiinan	-9.04929
▁Esityslistalla	-9.04955
▁varma	-9.04986
ut	-9.05025
ur	-9.05164
ien	-9.05341
▁kyllä	-9.05348
jien	-9.05367
▁onnitella	-9.05421
▁kompromissi	-9.05566
▁naiset	-9.05593
▁ki	-9.05613
▁tietojen	-9.05851
▁onnistu	-9.05892
or	-9.0605
▁parempi	-9.06263
▁Ranskan	-9.06326
▁sellaisten	-9.06343
ryhmä	-9.06467
▁asioista	-9.06648
▁kansan	-9.06748
▁K	-9.06832
▁sosiaalisen	-9.07026
▁kuluttajien	-9.07077
▁koskevassa	-9.07149
▁keskustelussa	-9.07197
▁selvä	-9.07207
▁tarvitse	-9.07452
tiin	-9.07509
▁moni	-9.07555
▁käytännössä	-9.07605
TO	-9.0766
▁kuningaskunnan	-9.07821
▁vakavasti	-9.07834
▁markkinoiden	-9.0784
▁päättää	-9.08041
▁suosi	-9.08072
uksen	-9.08234
▁varojen	-9.08276
▁asetuksen	-9.08343
▁äänestää	-9.08443
▁salli	-9.0846
▁mukana	-9.08509
▁muistuttaa	-9.08512
▁päätöksen	-9.08551
lainen	-9.08659
viin	-9.08693
▁mistä	-9.08772
▁mainita	-9.08774
▁keino	-9.0884
▁lähtien	-9.0885
▁Viime	-9.08974
▁parlamenttia	-9.09002
E	-9.09023
▁Tähän	-9.09029
▁Hyvät	-9.09065
▁parhaillaan	-9.0921
▁meri	-9.09241
▁olevat	-9.09315
▁taloudellisen	-9.09409
▁esittelijän	-9.09421
▁minusta	-9.09461
▁tapahtunut	-9.09544
▁rouva	-9.09623
▁välinen	-9.09627
▁neljä	-9.09651
▁kauan	-9.09844
▁30	-9.09882
lä	-9.09958
miselle	-9.10008
▁osallistua	-9.10164
▁päättynyt	-9.10183
▁elintarvike	-9.1023
▁25	-9.10289
▁Minusta	-9.10311
▁tavoitteita	-9.10346
di	-9.10391
▁saaneet	-9.10481
▁vapaa	-9.10492
aika	-9.10515
▁tukee	-9.10568
▁ensinnäkin	-9.10601
▁kannattaa	-9.10667
S	-9.10796
▁pyytää	-9.10833
utta	-9.1087
▁tuotanto	-9.1096
▁12	-9.11126
▁toimii	-9.1129
▁suuria	-9.11294
kohta	-9.11304
▁merkitystä	-9.11311
▁poliittisten	-9.11843
▁onkin	-9.11915
▁näihin	-9.12166
I	-9.1227
▁val	-9.12327
▁Yhdistyneen	-9.12361
kas	-9.12428
▁maassa	-9.12433
▁rooli	-9.12547
▁ryhmän	-9.12566
▁suuntaan	-9.12594
▁hyvää	-9.12654
hän	-9.12734
▁Mietinnössä	-9.13072
ala	-9.13173
▁määrin	-9.13202
mpia	-9.13273
▁tarkistukset	-9.13296
mpaa	-9.13311
il	-9.13511
▁ratkaista	-9.13774
▁tie	-9.13815
▁ilmaista	-9.1389
▁kuuluvat	-9.13908
▁edustaja	-9.13974
▁Sitä	-9.1398
▁3	-9.14178
▁pieni	-9.14218
▁olevia	-9.14376
▁eurooppalaista	-9.14399
▁tavoitteiden	-9.14414
▁merkitys	-9.14503
M	-9.14519
▁jäsenvaltioille	-9.1455
▁kyseessä	-9.1456
T	-9.14704
asia	-9.14786
▁perustuslaki	-9.14824
▁kysymystä	-9.14851
▁vastusta	-9.14901
▁tilanteessa	-9.14902
viä	-9.15001
▁eurooppalainen	-9.1505
▁välistä	-9.15194
▁neuvottelu	-9.15218
▁Itä	-9.1524
C	-9.15347
▁niillä	-9.15358
▁asioiden	-9.15417
▁muista	-9.1548
tuksen	-9.15522
staan	-9.15526
rin	-9.15548
▁taloudellista	-9.15576
▁päätökseen	-9.15624
▁keskustella	-9.1568
▁ihmisoikeuksia	-9.15717
▁pääministeri	-9.15761
tto	-9.15798
▁euro	-9.15986
▁kokonais	-9.16052
▁voimakkaasti	-9.16053
▁koskevaan	-9.16066
tamme	-9.16112
llisesti	-9.16232
▁päivä	-9.16237
▁varmistettava	-9.16354
▁yleisesti	-9.16487
su	-9.16689
▁menettely	-9.16736
▁olisivat	-9.16754
▁asema	-9.16763
▁nimi	-9.16785
▁ehdottomasti	-9.16862
je	-9.16875
▁terveys	-9.16911
▁eivätkä	-9.16962
▁kohdan	-9.17194
▁laske	-9.17265
os	-9.17323
set	-9.1736
▁viranomaisten	-9.17427
▁ongelmat	-9.17527
▁pe	-9.17559
▁muuttaa	-9.17697
▁tahansa	-9.1785
▁pa	-9.17944
▁tutkimuksen	-9.17957
▁heille	-9.18046
ar	-9.1806
▁pu	-9.18091
ttää	-9.18159
▁Parlamentti	-9.18209
▁sopimusta	-9.1823
▁saman	-9.18318
▁M	-9.1849
▁hyötyä	-9.18525
▁vesi	-9.18553
änestys	-9.18553
▁tu	-9.18687
▁Mi	-9.18842
▁asianmukaisesti	-9.18864
essaan	-9.18945
▁varsinkin	-9.18989
▁pohjalta	-9.18989
▁rajat	-9.19259
▁ehdo	-9.19347
markkinoiden	-9.19366
▁puhe	-9.19416
▁kollegani	-9.19524
▁ryhmäni	-9.19528
ssi	-9.1958
▁selkeä	-9.1978
▁perhe	-9.19795
▁nimenomaan	-9.19848
▁kaikilla	-9.19908
▁minulla	-9.19908
▁taata	-9.19948
▁maatalouden	-9.19957
uksista	-9.19967
▁tulevaisuuden	-9.1999
▁puolusta	-9.20041
valiokunta	-9.2012
▁riittävästi	-9.20148
▁tilanteesta	-9.20213
▁strategian	-9.20224
▁demokratia	-9.20257
▁osallistu	-9.20259
▁kohtaa	-9.20414
▁enemmistö	-9.20478
▁julkis	-9.20566
▁Israelin	-9.20571
▁jäsentä	-9.20571
▁annettu	-9.20572
▁vaikutus	-9.2066
maiden	-9.20698
▁tiedätte	-9.2071
▁pidetään	-9.20797
▁ihmis	-9.20849
laisten	-9.21009
▁Eurooppaa	-9.21035
▁voimassa	-9.21187
B	-9.21273
per	-9.21387
▁myöhemmin	-9.21457
▁voin	-9.21514
▁kaikkialla	-9.21683
▁tutki	-9.21716
▁aloittaa	-9.21816
▁voisivat	-9.21831
▁Ko	-9.21837
ile	-9.21843
▁re	-9.21851
▁esitetään	-9.21901
▁tekevät	-9.21926
▁äärimmäisen	-9.2199
▁koskevista	-9.22075
▁kohta	-9.22093
▁toimitetaan	-9.22139
▁to	-9.22268
▁kaikkiin	-9.22315
▁kiitän	-9.22316
▁puolustus	-9.22453
▁väärin	-9.22456
ske	-9.22458
▁suuren	-9.22519
kset	-9.22532
lais	-9.22592
isiä	-9.2275
▁vaikutuksia	-9.22765
▁saatu	-9.22843
▁tarkistus	-9.22978
▁etuja	-9.23111
▁yritykset	-9.23166
▁asemassa	-9.23237
▁koulu	-9.23255
▁määrää	-9.23287
yksinkertaisesti	-9.23398
▁tarjoa	-9.2351
llisten	-9.23565
voi	-9.23573
▁poliittisia	-9.23601
▁sama	-9.23639
▁sanottava	-9.23754
▁lii	-9.23762
▁kiinnittää	-9.23773
▁4	-9.23825
▁valiokunnassa	-9.23846
▁etteivät	-9.23893
▁kaikista	-9.24049
▁keskeinen	-9.24195
mättä	-9.2437
▁vastuussa	-9.24466
▁totean	-9.24509
▁si	-9.24511
▁muka	-9.24585
▁Kiitän	-9.24635
▁mikäli	-9.24656
▁sovelletaan	-9.24684
▁viikolla	-9.25001
▁mielestä	-9.25036
▁ilmi	-9.25176
▁pk	-9.25202
eseen	-9.25279
▁etujen	-9.25345
▁Parlamentin	-9.2537
▁paikallis	-9.25379
▁2004	-9.2542
mman	-9.25437
▁14	-9.25457
▁palvelu	-9.2547
▁vuosien	-9.25557
im	-9.2558
▁käytännön	-9.25606
▁Onko	-9.25675
▁tapauksissa	-9.25797
ksen	-9.25797
▁strategia	-9.25813
ise	-9.25818
uutta	-9.25821
toimi	-9.25873
▁voisimme	-9.25887
▁suur	-9.25916
▁tuloksia	-9.25969
▁mietintöön	-9.25996
iseen	-9.25999
IT	-9.26041
▁kehittää	-9.2609
▁melko	-9.26091
▁ehdottaa	-9.2614
ver	-9.26195
▁kollega	-9.26252
▁läpi	-9.26291
▁ensimmäisen	-9.26305
ohjelman	-9.2631
▁turvallisuutta	-9.26325
▁lain	-9.26491
▁Pohjois	-9.26637
▁niissä	-9.26712
▁suhteessa	-9.26731
▁Afrikan	-9.26736
▁al	-9.26833
▁viesti	-9.26885
▁kuva	-9.2694
▁tuotteiden	-9.27109
▁palvelujen	-9.27162
▁kertoa	-9.27221
▁tiedot	-9.27304
▁merkille	-9.27375
▁sääntöjen	-9.27382
hti	-9.27397
▁Irlannin	-9.2741
▁asettaa	-9.27412
▁sellaisia	-9.27484
▁Euro	-9.27535
▁vähentää	-9.27553
PL	-9.27738
▁järjestelmän	-9.2782
sto	-9.27828
▁hu	-9.27838
▁kriisi	-9.27884
rahoi	-9.27896
▁Näiden	-9.27898
▁2009	-9.27919
▁arvioi	-9.27934
▁käsittelyssä	-9.27966
▁päätöksiä	-9.27995
työ	-9.28076
▁pyydän	-9.28101
▁kohdalla	-9.28109
▁lu	-9.2812
▁seuraa	-9.28126
▁takaisin	-9.28134
▁50	-9.28246
▁ymmärtää	-9.28291
▁yksityis	-9.28345
Euroopan	-9.28491
vo	-9.28627
▁Saksan	-9.28629
▁välittömästi	-9.28652
▁todetaan	-9.28681
▁ensin	-9.28898
llisen	-9.29107
▁sisältyy	-9.29134
▁neuvostolle	-9.29148
▁julkisen	-9.29372
▁ydin	-9.29417
▁tarjoaa	-9.29591
▁suoja	-9.29597
▁9	-9.29626
ude	-9.29812
▁energian	-9.29937
ir	-9.30177
▁sääntely	-9.30246
▁häntä	-9.30276
▁todellinen	-9.30347
sopimus	-9.30371
▁halu	-9.30393
▁Haluamme	-9.30395
mällä	-9.30428
▁loppuun	-9.30431
O	-9.30451
mat	-9.30469
ch	-9.3058
▁ryhtyä	-9.30616
▁mihin	-9.30621
▁monien	-9.30781
▁tavoitteen	-9.30802
▁saamme	-9.3083
tun	-9.30862
▁ehdotuksesta	-9.30931
▁muutoksia	-9.31017
▁su	-9.31034
▁mahdollisuutta	-9.31071
▁tulla	-9.31096
hun	-9.31114
▁käyttöä	-9.31155
aa	-9.31159
▁jättää	-9.31173
kauden	-9.31274
vasta	-9.31278
▁teemme	-9.31288
▁yhdenmukaista	-9.31403
▁tapaa	-9.31404
▁tilanteeseen	-9.31449
▁muihin	-9.3146
▁yksityiskohtais	-9.31483
▁tule	-9.31677
▁minua	-9.3171
▁Etelä	-9.31912
▁äänestä	-9.31967
kan	-9.31977
▁Välimeren	-9.3198
▁soveltaa	-9.32034
▁so	-9.32288
▁poliisi	-9.32297
▁vaaditaan	-9.32314
kau	-9.32415
▁esimerkki	-9.32422
▁päivän	-9.32448
▁koheesio	-9.32475
▁sellaista	-9.3253
▁2007	-9.32564
▁sisältää	-9.32602
▁ohjelma	-9.32607
▁näissä	-9.32638
▁pikemminkin	-9.32722
▁asu	-9.32905
▁de	-9.32993
▁Kannatan	-9.33092
▁hyödy	-9.33172
▁nähdä	-9.33186
▁avun	-9.33267
▁huippukokoukse	-9.33269
▁yhteiskunnallis	-9.3328
▁neuvottelujen	-9.33295
▁ongelman	-9.33403
jat	-9.33443
▁virhe	-9.33474
▁maita	-9.3351
tys	-9.33634
val	-9.33683
▁maahanmuutto	-9.33696
teiden	-9.33761
▁Yhdistynei	-9.33824
▁takaa	-9.33964
▁Olisi	-9.34047
▁Keski	-9.34103
▁työpaikkoja	-9.3413
▁rikos	-9.34256
▁emmekä	-9.34292
▁keski	-9.34417
▁kolmen	-9.34505
▁kysymyksiin	-9.34512
▁nojalla	-9.34584
▁rahoitusta	-9.34605
ville	-9.34684
▁aikavälillä	-9.3477
▁2010	-9.34822
▁vapautta	-9.34838
nnin	-9.34872
▁sellainen	-9.34889
▁1999	-9.34935
tel	-9.34938
▁tason	-9.34953
▁turvapaikka	-9.34985
▁Yhdysvallat	-9.35048
elintarvikkeiden	-9.35072
(	-9.35225
▁kovin	-9.35274
▁allekirjoitta	-9.35275
▁markkinoille	-9.35289
▁muuten	-9.35375
tetään	-9.354
▁tunnusta	-9.35464
▁kirja	-9.3548
▁2008	-9.35505
▁muutaman	-9.35659
▁mahdollisesti	-9.35664
go	-9.35711
▁Mar	-9.35805
▁kymmenen	-9.35826
▁johtuu	-9.3603
uuteen	-9.36039
▁meistä	-9.36128
▁väestö	-9.3619
▁tuoda	-9.36202
▁Sa	-9.36241
▁ilmasto	-9.36411
tusta	-9.36426
kaudella	-9.36453
ukset	-9.36458
▁muutama	-9.36478
▁2005	-9.3651
▁Asia	-9.36576
▁valvo	-9.36639
▁tarjota	-9.36711
▁otettu	-9.36821
▁sisällä	-9.36829
järjestelmää	-9.36852
at	-9.36945
▁2006	-9.36959
▁Voin	-9.36986
▁elin	-9.36987
▁missään	-9.36992
ju	-9.37026
▁lopulta	-9.3703
ime	-9.37045
▁kokouksessa	-9.37085
▁erilaisia	-9.37108
▁Toisaalta	-9.37211
▁tällaista	-9.37258
▁epäilemättä	-9.37332
▁pitkä	-9.37349
▁suori	-9.37446
▁N	-9.37451
▁merkittävästi	-9.37505
vu	-9.37508
▁kansa	-9.37693
▁matkailu	-9.37695
▁asemaa	-9.37707
▁J	-9.37721
▁aiheesta	-9.37732
▁suurta	-9.3777
laiset	-9.37842
▁Valko	-9.37863
▁kolmansien	-9.37944
▁yritys	-9.37956
▁puheenvuoro	-9.38038
▁päivänä	-9.38054
ru	-9.38115
▁esitetty	-9.3814
ton	-9.3817
ga	-9.38175
▁Siitä	-9.3837
▁odottaa	-9.38372
▁ohjelman	-9.38373
02	-9.38411
▁Samalla	-9.38457
▁nykyistä	-9.38495
ES	-9.38503
▁valmistelu	-9.38546
▁unionia	-9.38649
alalla	-9.38655
▁paino	-9.38692
▁Pyydän	-9.38791
▁Pa	-9.38818
▁uudet	-9.38821
▁sosiaalista	-9.38864
▁seurauksena	-9.38864
▁vir	-9.38891
▁alle	-9.38893
▁hyväksytty	-9.38972
▁pitänyt	-9.39009
▁lainkaan	-9.39091
▁säännöt	-9.39103
▁äänestin	-9.39108
▁äänestys	-9.39164
▁suojelu	-9.39221
▁toiseen	-9.39253
valta	-9.39271
▁näkökulmasta	-9.39388
▁Lähi	-9.39397
▁kannan	-9.39426
▁Espanjan	-9.39434
▁ehdotukset	-9.39484
▁1.	-9.39523
▁maaseudun	-9.39543
▁maksu	-9.39549
tettu	-9.39649
▁valta	-9.39657
▁valvontaa	-9.39768
▁käsi	-9.3978
▁eläinten	-9.39815
▁teki	-9.39819
▁Juuri	-9.39836
▁heti	-9.39843
▁poliittiset	-9.39848
▁PPE	-9.39983
▁vaatii	-9.40138
▁auto	-9.40194
▁kuluttaja	-9.40215
▁eurooppalaiset	-9.40308
▁Vi	-9.4034
▁tiedon	-9.40407
▁muissa	-9.40438
iltä	-9.40462
▁Valitettavasti	-9.40471
isuus	-9.40562
uksiin	-9.40605
▁kestävä	-9.4064
▁riitä	-9.40643
▁jotkut	-9.40766
▁hä	-9.40816
▁tulevat	-9.40829
▁voimaan	-9.40852
▁neuvostossa	-9.4091
▁toteutettava	-9.40939
▁liittyvien	-9.40973
▁sisä	-9.41017
20	-9.41076
▁laatia	-9.4108
taso	-9.41128
▁toimivat	-9.41157
▁yhteisöjen	-9.41195
▁rahaa	-9.4121
▁2003	-9.41337
▁keskusteluun	-9.41346
alue	-9.4138
D	-9.41493
nee	-9.41516
▁liittymis	-9.41538
▁16	-9.41609
▁sala	-9.4163
▁nykyisen	-9.41679
▁työpaikkojen	-9.41688
▁tällainen	-9.41706
▁tekijä	-9.41725
▁osaa	-9.41851
uudesta	-9.41857
▁Ra	-9.41943
▁osoittavat	-9.41959
▁antamaan	-9.41967
▁Al	-9.41988
▁mahdollisuudet	-9.4209
▁ottamaan	-9.42192
▁viranomaiset	-9.42199
▁ilmastonmuutoks	-9.42229
▁sana	-9.42262
▁politiikka	-9.42266
▁tälle	-9.42305
ika	-9.4248
▁osuus	-9.42578
▁2002	-9.42611
▁ryhmien	-9.42713
isesta	-9.42723
▁pitkän	-9.42797
vel	-9.42898
PT	-9.42973
▁e	-9.43012
▁tehtävää	-9.43019
▁H	-9.43078
▁jonkin	-9.43082
▁11	-9.43084
ssaan	-9.43096
▁prosentin	-9.43209
▁neuvottelut	-9.43268
▁le	-9.43317
▁13	-9.43337
▁uhka	-9.43377
▁ro	-9.43597
▁rakenne	-9.43604
▁katson	-9.43673
▁esittänyt	-9.43697
▁noudattaa	-9.43721
mp	-9.43747
▁nyky	-9.43844
lis	-9.4388
llisia	-9.43894
▁kriisin	-9.43901
▁Voimme	-9.43943
▁vähimmäis	-9.43977
▁valtiot	-9.44049
ura	-9.44073
▁ikään	-9.44075
ol	-9.4412
▁oikeudet	-9.44166
▁Ro	-9.4419
▁Itse	-9.44304
ttaisiin	-9.44314
▁kannatan	-9.44317
laisen	-9.44388
▁U	-9.44436
ee	-9.4452
▁infrastruktuuri	-9.44543
▁vaatimuksia	-9.44557
▁arviointi	-9.44563
hde	-9.44619
tämme	-9.44971
tom	-9.45
▁ulkopuolelle	-9.45016
rk	-9.45146
▁tote	-9.45203
vista	-9.45328
▁yrit	-9.4534
▁käytön	-9.45521
▁Ensimmäinen	-9.45531
▁tosiasia	-9.45575
ään	-9.45581
▁pidän	-9.45663
▁taloudellinen	-9.45712
▁toista	-9.45834
▁tila	-9.45837
▁Kolmanneksi	-9.45852
▁taloudellisia	-9.4588
▁siviili	-9.46006
▁kestävän	-9.46175
uta	-9.46198
▁Yhdysvaltain	-9.46205
▁kesken	-9.46303
▁Ta	-9.46333
▁tulli	-9.46358
▁aikavälin	-9.46365
▁miljardia	-9.46423
▁anta	-9.46583
Suosionosoituksi	-9.46726
▁vaikeaa	-9.46747
▁voima	-9.46859
elta	-9.46928
▁aihetta	-9.47042
toja	-9.47136
▁vakautta	-9.47139
▁Miksi	-9.47158
yritysten	-9.47289
▁käytettävä	-9.47292
f	-9.47295
jia	-9.47331
▁löytää	-9.47342
R	-9.47351
▁eilen	-9.47368
▁tuli	-9.47377
toimia	-9.47402
▁tarvitsee	-9.47476
▁vaali	-9.47494
▁käytettävissä	-9.47589
▁unohtaa	-9.4772
▁b	-9.47737
▁yhteistyöstä	-9.47756
▁lähestymistapa	-9.47785
isivat	-9.47809
ly	-9.47822
▁tärkeänä	-9.47823
oi	-9.47918
▁aikataulu	-9.47941
▁pitkään	-9.47964
menettely	-9.48004
▁riittävän	-9.48025
▁oikeastaan	-9.48195
▁alkaen	-9.48232
▁käsittelevän	-9.4824
▁vuoropuhelua	-9.48337
▁painopiste	-9.48536
▁Tiedämme	-9.48599
▁tuho	-9.48604
▁ettemme	-9.48618
▁prosessi	-9.48639
▁mitta	-9.48652
▁lähestymistapaa	-9.48686
▁joukko	-9.48698
▁palestiinalais	-9.48733
udu	-9.48741
▁tarkastella	-9.48743
▁joidenkin	-9.48747
▁säilyttää	-9.48823
▁artikla	-9.48854
mer	-9.48859
▁ulkopuolella	-9.48896
▁Italian	-9.48948
▁olemaan	-9.49034
▁Esittelijä	-9.49041
oma	-9.49075
▁jotain	-9.49114
▁puheenvuoron	-9.49134
▁lyhyesti	-9.49168
▁elämän	-9.492
▁toimittava	-9.49201
▁Kreikan	-9.49267
▁laati	-9.49311
sisämarkkinoiden	-9.49503
▁yleensä	-9.49589
▁jotakin	-9.49654
ttavat	-9.49739
▁Ha	-9.49787
▁säily	-9.49789
▁vuodesta	-9.49833
▁kansainvälistä	-9.49859
▁omaa	-9.49917
▁oikeassa	-9.4992
▁nykyään	-9.49975
K	-9.50021
▁27	-9.50222
▁muodossa	-9.50337
▁vakuuttunut	-9.50348
▁maihin	-9.50397
▁2020	-9.50477
oista	-9.50502
▁Tarvitsemme	-9.50616
ed	-9.5064
▁Hyvä	-9.50644
▁äänestyksessä	-9.50672
tua	-9.507
▁matka	-9.50746
▁vaihtoehto	-9.50753
▁todellista	-9.50943
▁lento	-9.50959
▁tilaisuus	-9.51034
tulo	-9.51061
▁kukaan	-9.51065
▁osittain	-9.5108
palvelu	-9.51129
ttaisi	-9.51153
▁viiden	-9.51232
▁sähkö	-9.51291
▁panna	-9.51329
▁kansalliset	-9.51349
hdi	-9.51502
▁avoimuutta	-9.51627
▁selvi	-9.51658
▁mainittu	-9.51665
▁Länsi	-9.51764
▁Ennen	-9.51865
▁koskeviin	-9.5194
▁alussa	-9.51957
nes	-9.51985
▁mukaista	-9.51992
▁kaasu	-9.52076
laa	-9.52354
▁ajatus	-9.52383
▁kyseisen	-9.52498
▁teksti	-9.52517
▁tiedä	-9.52543
▁osan	-9.52599
▁viisumi	-9.52629
▁oppi	-9.52664
min	-9.52678
▁kansainvälinen	-9.52703
▁pane	-9.5283
tetty	-9.52857
▁tarkasti	-9.52892
▁pyrittävä	-9.52908
▁nime	-9.53041
▁koske	-9.53074
▁henkilöiden	-9.5308
vää	-9.53137
▁merkittäviä	-9.53187
▁ratkaiseva	-9.53217
tila	-9.53393
▁asioissa	-9.53423
menettelyn	-9.53479
▁yllä	-9.53589
▁taso	-9.53591
▁varmistetaan	-9.53623
▁luonnon	-9.53677
▁varmista	-9.53709
▁vastuun	-9.53767
mässä	-9.53929
▁perustaa	-9.53983
▁varat	-9.53984
tuksia	-9.54089
▁yhteiskunnan	-9.54101
0	-9.54171
kehitysyhteistyö	-9.54223
▁demokratiaa	-9.54228
▁uudistus	-9.54272
▁antoi	-9.54305
▁Sillä	-9.54332
▁voitava	-9.54361
▁Monet	-9.54411
▁osoittanut	-9.54412
▁maista	-9.54423
▁myönteinen	-9.54466
vin	-9.54489
▁myöntää	-9.54495
ansa	-9.54499
▁käytössä	-9.54535
▁vii	-9.54548
vara	-9.54556
valtion	-9.54561
▁unionille	-9.54652
▁tyytyväisiä	-9.54669
ttua	-9.54671
▁ehdot	-9.54716
▁antanut	-9.54721
▁kysyä	-9.54843
etaan	-9.54882
▁lähe	-9.54889
▁Tu	-9.54918
käy	-9.54932
▁Miten	-9.54976
▁tee	-9.54991
▁kansainvälisten	-9.55033
▁Irakin	-9.55065
▁hyväksyttävä	-9.55074
yksi	-9.55266
▁hyviä	-9.55306
▁muutamia	-9.55329
ivat	-9.55333
▁Katson	-9.55376
pää	-9.55436
ter	-9.55436
▁arvio	-9.55468
▁joutuvat	-9.55556
▁yrityksiä	-9.55588
▁innovaatio	-9.5559
▁tärkein	-9.55592
▁kuulla	-9.55616
▁Yhdistynee	-9.55694
▁18	-9.55738
▁köyhyyden	-9.55745
▁lähi	-9.55793
▁tuomioistuimen	-9.55814
▁tarkasteltava	-9.55831
▁äskettäin	-9.55831
▁myönteisenä	-9.55913
▁ratkaisun	-9.55924
▁seikka	-9.55943
▁Va	-9.55949
▁sitoutu	-9.55957
▁maahan	-9.55969
▁synty	-9.56029
mielis	-9.56046
ttäisi	-9.5605
▁korostetaan	-9.56062
▁aikoina	-9.56158
▁jatku	-9.56203
▁maksa	-9.56263
▁vakaus	-9.563
▁Puheenjohtaja	-9.56329
▁käsittelevä	-9.5635
tuomioistuimen	-9.5636
▁suojella	-9.56384
▁rahoituksen	-9.56405
▁kala	-9.56424
▁po	-9.56454
▁käydä	-9.56522
▁miljoonan	-9.56567
▁vastauksen	-9.56598
▁tunne	-9.56613
▁sivu	-9.56643
▁erinomaisesta	-9.56664
▁tällaisen	-9.56665
▁kysymykset	-9.56691
▁kumppani	-9.56694
▁viisi	-9.56719
tavan	-9.56723
▁keskustelemme	-9.56724
▁tulo	-9.56732
▁kokonaan	-9.5675
▁erityistä	-9.56772
▁40	-9.56789
▁pien	-9.56812
▁saamaan	-9.56924
▁ensimmäisessä	-9.56925
▁läsnä	-9.57055
▁tilintarkastus	-9.57069
▁suostu	-9.571
▁mahdotonta	-9.57104
▁hyvän	-9.57132
▁Hu	-9.5717
▁edistystä	-9.57205
▁osaksi	-9.57211
▁Amsterdamin	-9.57331
▁direktiiviä	-9.57542
▁sosiaaliturva	-9.57543
▁tarvetta	-9.57587
▁hinta	-9.57598
▁hyväksyttiin	-9.57627
▁omia	-9.57668
▁eniten	-9.57682
▁jäsenvaltio	-9.57716
▁suojelua	-9.57745
H	-9.57839
▁rautatie	-9.57884
▁mainitsi	-9.58087
▁ratkaisuja	-9.58089
▁koti	-9.58202
iko	-9.5821
▁koulutuksen	-9.58368
▁sanan	-9.5837
▁neuvostoa	-9.58486
▁pysy	-9.5849
▁varmistamiseksi	-9.58515
▁valvonnan	-9.58566
▁väestön	-9.58579
aste	-9.58589
▁seuraavan	-9.58622
▁Po	-9.58674
N	-9.58675
▁toimista	-9.58693
▁alku	-9.58829
▁sovellettava	-9.58883
▁sovi	-9.58889
▁kansallisen	-9.58891
isimme	-9.5898
▁saavutettu	-9.59072
▁tuomio	-9.59073
ik	-9.59079
▁rauha	-9.59084
▁epäonnistu	-9.59174
▁aine	-9.59181
▁meidät	-9.59208
ike	-9.59332
▁sanottu	-9.5935
▁tehtävänä	-9.59353
▁puolue	-9.59361
ge	-9.59428
▁hyväksytään	-9.5947
▁yksinkertaista	-9.59505
▁katso	-9.59515
ettu	-9.59517
▁pääasiassa	-9.59534
järjestelmien	-9.59569
nnista	-9.59581
▁mikään	-9.59651
▁linja	-9.59685
ran	-9.59737
▁kehittämistä	-9.59746
▁odot	-9.59778
▁kutsu	-9.59784
▁parissa	-9.59817
▁Kiitos	-9.59831
▁V	-9.59875
▁vastoin	-9.59921
tuotteiden	-9.59927
teli	-9.59983
tettaisiin	-9.6002
▁tiettyjä	-9.6005
mmat	-9.60107
toista	-9.60114
ohjelma	-9.60155
▁teollisuuden	-9.60186
▁pyrkii	-9.602
järjestöjen	-9.6024
▁arvioida	-9.603
▁tuettava	-9.60349
▁noudatettava	-9.60402
teet	-9.60419
▁saisi	-9.60666
▁Pidän	-9.60741
▁van	-9.60751
▁kuukauden	-9.6079
▁kahta	-9.60798
▁neuvotteluissa	-9.60799
don	-9.60834
▁täyden	-9.60956
▁järkevä	-9.60977
▁tulokset	-9.61046
ili	-9.6107
▁varmistamaan	-9.61119
ellinen	-9.61175
▁peri	-9.61181
▁vaara	-9.61183
▁L	-9.61203
▁Ri	-9.61346
▁välineitä	-9.61367
▁aikaisemmin	-9.61376
▁kohdassa	-9.61407
▁estä	-9.61444
▁vastaava	-9.61452
▁pakko	-9.61462
▁asioihin	-9.61489
▁esittämään	-9.61497
▁esitti	-9.61511
▁Turkki	-9.6155
▁nais	-9.61561
L	-9.61574
▁hyödyntää	-9.6161
sel	-9.61613
▁täyttä	-9.61709
ojen	-9.61764
▁edistetään	-9.61791
▁yleisen	-9.61847
▁hi	-9.61926
▁ehdottama	-9.61974
▁monta	-9.61978
▁työllisyyden	-9.62
▁verrattuna	-9.6203
▁Co	-9.62074
▁suojaa	-9.62161
▁ihmistä	-9.62172
▁hallinnon	-9.62173
▁torjumiseksi	-9.62222
▁rikollis	-9.62226
▁toimintaan	-9.62292
▁varo	-9.62353
▁työjärjestyksen	-9.62441
▁käsiteltävä	-9.62446
▁kehittämisen	-9.62456
▁edisty	-9.62467
▁taloudellisten	-9.62513
▁alueelle	-9.62513
▁Kysymys	-9.62519
liikenteen	-9.62574
▁ehdotetaan	-9.62608
▁väkivallan	-9.62648
▁puuttua	-9.62708
▁eurooppalaisia	-9.62743
▁öljy	-9.62778
▁ratifioi	-9.62796
yys	-9.62852
▁kenties	-9.62856
▁pohja	-9.6302
▁AKT	-9.63071
▁Kansakuntien	-9.63072
▁tietä	-9.63081
j	-9.63241
▁Kosovon	-9.63251
▁jäsenvaltiossa	-9.63372
▁Bo	-9.63457
rahasto	-9.63527
tuu	-9.63571
▁hiljattain	-9.63596
yksiä	-9.636
▁aktiivisesti	-9.63676
politiikasta	-9.63737
ba	-9.63831
kaamme	-9.63839
ji	-9.6384
▁monissa	-9.63883
▁ju	-9.63892
▁naisia	-9.63903
▁halutaan	-9.63926
▁vähemmistö	-9.63989
▁yhteistyössä	-9.64022
▁ilo	-9.64076
▁sai	-9.64094
io	-9.64241
▁rii	-9.64333
▁poistaa	-9.64356
eli	-9.64359
▁ääne	-9.64484
▁toimenpiteet	-9.64527
▁sopimusten	-9.64598
empi	-9.64608
▁käytöstä	-9.64612
tyy	-9.64678
▁joskus	-9.64716
osa	-9.64737
▁Venäjä	-9.64744
▁riski	-9.64756
politiikkaan	-9.64799
inä	-9.64802
suunnitelma	-9.64809
▁kauppaa	-9.64837
din	-9.64856
▁joko	-9.64865
▁sanotaan	-9.64869
▁Ku	-9.64909
▁seurauksia	-9.64918
tapa	-9.64919
▁vastaus	-9.64922
▁hoita	-9.64959
kki	-9.65035
▁laki	-9.65077
▁laajentumisen	-9.65086
▁samaan	-9.6511
▁vaihe	-9.65135
▁sotilaallis	-9.65193
▁strategiaa	-9.65193
▁Ranska	-9.65254
▁tasavallan	-9.65329
ng	-9.65331
▁välttää	-9.65353
maat	-9.6537
aine	-9.65381
▁todennäköisesti	-9.65411
▁saavuttamiseksi	-9.65438
osi	-9.65482
es	-9.6558
jille	-9.65584
▁vaatimukset	-9.65675
▁maksaa	-9.65689
▁Esimerkiksi	-9.65785
▁Niiden	-9.65885
ky	-9.65889
▁sää	-9.65905
▁Si	-9.6593
▁päätöslauselmaa	-9.65953
▁tältä	-9.6596
▁työmarkkina	-9.66042
▁riippumatta	-9.66045
▁julkilausuma	-9.66092
F	-9.66226
istu	-9.66266
mpää	-9.66274
▁ammatti	-9.66322
▁torjunta	-9.66406
▁korvaa	-9.66513
▁saatavilla	-9.66611
▁nuorten	-9.66611
▁ongelmaa	-9.66633
▁ehdotuksessa	-9.66642
▁vuoropuhelu	-9.66673
▁sopimuksessa	-9.66698
▁itsenäis	-9.66727
▁huomio	-9.66781
sivat	-9.66795
▁kuoleman	-9.66849
ksia	-9.66912
▁kasvaa	-9.66954
▁perustuva	-9.66961
▁uhkaa	-9.67013
▁2001	-9.67123
▁sopimuksia	-9.67123
puoli	-9.67152
▁tehokas	-9.67167
sopimusta	-9.67251
▁kasvua	-9.67329
▁poliittisesti	-9.67331
var	-9.67379
▁valmiita	-9.67386
▁suhteita	-9.67432
▁valtava	-9.67433
▁pakolais	-9.67433
▁Eurooppaan	-9.67462
▁maille	-9.67495
▁De	-9.67547
▁kii	-9.67576
▁kansallis	-9.67591
▁Maailman	-9.67596
▁tulevaisuutta	-9.67608
▁kilpailun	-9.67626
▁tarpeeksi	-9.677
▁täyttää	-9.67725
▁millä	-9.67729
▁edusta	-9.67867
▁vastaamaan	-9.67897
▁hallitukset	-9.67932
▁hänelle	-9.67935
▁omien	-9.6795
▁omista	-9.67975
▁ensimmäistä	-9.67991
▁tietoisia	-9.68021
keskustelu	-9.68069
▁vaikuttavat	-9.68108
▁Ke	-9.68165
▁sota	-9.68189
▁miesten	-9.68254
▁yrityksille	-9.68269
väli	-9.68299
▁So	-9.68598
▁tarkoitukse	-9.68612
▁har	-9.68628
▁Neuvoston	-9.68629
▁henkilökohtaise	-9.6868
▁peräisin	-9.68814
▁julkisten	-9.68845
▁myönnettävä	-9.68868
▁1998	-9.6889
▁antama	-9.68968
llisiä	-9.69001
▁toi	-9.69046
▁ks	-9.69056
▁käsiteltäväksi	-9.69172
▁saastu	-9.69198
▁tietenkään	-9.6926
vero	-9.69275
ää	-9.69308
▁kieli	-9.69313
▁tutkimusta	-9.69396
▁haaste	-9.69398
säännö	-9.69418
ajan	-9.69453
▁hiilidioksidi	-9.69489
isto	-9.69553
simme	-9.69683
llo	-9.69686
▁vaike	-9.6972
▁vastuuta	-9.69724
▁vakuuttaa	-9.69762
▁puolestaan	-9.69862
▁vastaavan	-9.69907
▁vaikutukset	-9.69914
▁konferenssi	-9.69927
▁aloite	-9.69935
▁kunnia	-9.69944
nneet	-9.69959
▁täytäntöönpanoa	-9.69978
▁huomion	-9.70018
▁toimimaan	-9.70051
oikeus	-9.70101
▁kansallista	-9.70108
misessä	-9.70109
▁vaatia	-9.70158
sty	-9.7016
▁aiomme	-9.70195
▁kuluttajansuoja	-9.70248
▁toivomme	-9.70265
▁maata	-9.70269
▁vahvistetaan	-9.70313
▁torju	-9.70335
asti	-9.70345
▁ongelmien	-9.70359
alueen	-9.70429
▁malli	-9.70445
▁Tiedän	-9.70445
▁ette	-9.70497
▁Minulla	-9.70512
▁periaatteita	-9.70532
▁institutionaali	-9.70578
▁heikko	-9.70588
▁aloitteita	-9.70614
▁terveyden	-9.70616
▁koskevissa	-9.70617
▁vuoropuhelun	-9.70624
▁Kiina	-9.70631
ul	-9.70636
▁lausunnon	-9.70644
▁tällaisia	-9.70655
▁omat	-9.70703
sesti	-9.70711
▁muoto	-9.70735
kat	-9.70748
▁rajoitta	-9.70774
▁kieltä	-9.70786
▁syyt	-9.70858
▁tekemistä	-9.70887
▁käytävä	-9.70937
lliset	-9.70998
▁tietoinen	-9.71002
▁oikeudenmukais	-9.71012
▁periaatetta	-9.71064
▁prosessin	-9.71089
▁mu	-9.71169
▁tiettyjen	-9.7121
ttäisiin	-9.7124
▁tarvitsevat	-9.71268
▁paras	-9.71349
▁saavu	-9.71359
▁toisessa	-9.7139
▁yhteisiä	-9.71486
jan	-9.71518
▁tuotteita	-9.71548
01	-9.71558
▁koh	-9.71573
▁ehdotettu	-9.71627
▁jatkossakin	-9.71694
▁huomattava	-9.71717
▁vakavia	-9.71782
▁liittyvä	-9.71844
▁suurempi	-9.7196
yyteen	-9.72041
▁tiedotusvälinei	-9.72144
V	-9.72184
▁kansallisia	-9.72245
▁tarkoita	-9.7227
▁väi	-9.72383
▁puheenjohtajan	-9.72411
▁saira	-9.72433
lan	-9.72436
▁nimissä	-9.72448
▁voinut	-9.7245
ämme	-9.72458
▁vapauden	-9.72464
▁liittyvistä	-9.72488
▁ympäristöä	-9.72503
▁nykyinen	-9.72511
varapuheenjohtaj	-9.72561
▁metsä	-9.72591
▁ottanut	-9.72601
▁vienti	-9.72711
▁muille	-9.72802
▁entisestään	-9.72895
▁nosta	-9.7294
▁pienten	-9.72978
timme	-9.72997
▁torjua	-9.73038
ukseen	-9.73074
▁etelä	-9.73148
▁olevaa	-9.73197
tää	-9.73204
▁edessä	-9.73225
▁alusta	-9.73235
voima	-9.73253
▁toteutetaan	-9.73302
▁näillä	-9.73304
suunnitelman	-9.73461
periaatteen	-9.73487
▁silti	-9.7356
▁Toisin	-9.73584
▁Pi	-9.73588
tut	-9.73633
▁siirto	-9.73712
tar	-9.73715
▁pitkälle	-9.73719
▁pitkällä	-9.73753
▁asiakirja	-9.73797
▁li	-9.73819
temme	-9.73883
virasto	-9.73935
▁alkuperä	-9.7395
neuvostossa	-9.74042
▁enkä	-9.74125
vuo	-9.74135
▁nykyisin	-9.74144
▁tilasto	-9.74173
▁markkinoilla	-9.74199
▁väl	-9.74221
▁sanottuna	-9.74274
politiikassa	-9.74295
▁määrän	-9.74328
ttelu	-9.74387
▁perin	-9.74398
▁kuulemis	-9.74413
▁välille	-9.74443
▁pääse	-9.74617
▁päätökset	-9.74675
▁periaate	-9.74679
▁suuresti	-9.74718
ministeri	-9.74732
▁muutos	-9.74749
mpiä	-9.74794
laista	-9.74871
tark	-9.74906
my	-9.74935
▁huomauttaa	-9.74944
▁kumppanuus	-9.74961
ei	-9.74963
▁ilmoittaa	-9.74968
väline	-9.74969
▁päätöstä	-9.75038
direktiivi	-9.75047
▁hyväksymään	-9.75256
demokraatit	-9.75264
▁päinvastoin	-9.75299
as	-9.75299
fi	-9.75372
▁ehdottoman	-9.75475
▁Ba	-9.75484
▁Mo	-9.75493
▁konflikti	-9.75517
▁sy	-9.75612
▁17	-9.75616
▁toisi	-9.7564
▁keinoja	-9.75717
▁mahdollinen	-9.75787
▁sovittelu	-9.75827
▁toimielin	-9.75851
▁ehdotukseen	-9.75871
eltä	-9.75883
oikeuden	-9.7612
▁merkittävää	-9.76369
ele	-9.76395
▁ensiksi	-9.7642
▁maailmaa	-9.7646
▁ongelmiin	-9.76495
▁yhteisymmärryks	-9.76523
▁joissakin	-9.76568
▁kuluessa	-9.76641
▁ihmisille	-9.76656
mus	-9.7669
▁lisättävä	-9.76736
▁pienen	-9.76779
▁toiseksi	-9.7682
▁omaksu	-9.76841
▁taistelu	-9.76852
▁korosta	-9.76961
▁näy	-9.76973
▁ongelmista	-9.77003
▁yhteisestä	-9.77016
▁valvoa	-9.77038
▁edun	-9.77085
ettava	-9.77127
▁taloudelliset	-9.77142
yö	-9.77188
▁edistämiseksi	-9.77194
EY	-9.77346
▁seuraavaa	-9.77427
▁saakka	-9.77433
uksesta	-9.77496
▁käsiteltävänä	-9.77518
▁toive	-9.77531
▁tulevan	-9.77562
▁kuluttua	-9.77565
dy	-9.77612
▁valitettavaa	-9.77679
▁kysymyksistä	-9.77703
▁kysy	-9.77759
▁viestintä	-9.77794
yydestä	-9.77801
ttanut	-9.77826
▁Le	-9.7792
asema	-9.77925
▁sosiaalinen	-9.77929
▁tarvittavat	-9.7797
▁sijasta	-9.77988
▁käytetty	-9.78005
lke	-9.78032
▁luettelo	-9.78041
▁pääsy	-9.78063
▁suojelun	-9.78114
▁järjestelmää	-9.78119
▁koe	-9.78181
▁osoit	-9.78238
▁Työ	-9.78272
▁edustajat	-9.78338
kunta	-9.78339
▁avoimuuden	-9.78407
▁parantamiseksi	-9.7848
▁verkko	-9.78518
▁todellakaan	-9.7857
▁vakaa	-9.78575
▁kehitykseen	-9.78603
▁pyrki	-9.78633
isuuden	-9.7865
▁tammikuuta	-9.78667
gen	-9.78671
uu	-9.78707
▁tiuk	-9.78713
▁toissijaisuus	-9.78806
▁asetus	-9.78826
malli	-9.7888
▁Maa	-9.78896
▁neuvotteluja	-9.78909
▁yrittää	-9.78919
▁kasvun	-9.7902
▁liittyvää	-9.79118
▁Israel	-9.79124
laitosten	-9.79171
▁periaatteessa	-9.792
▁työhön	-9.79214
▁laatu	-9.79238
▁toimielimet	-9.79277
▁jokaisen	-9.79363
▁herrat	-9.79387
ilu	-9.79419
▁hyväksyy	-9.79503
NL	-9.79506
▁ratkaisua	-9.7951
▁eläin	-9.79581
rajoi	-9.79585
▁periaatteen	-9.79635
▁Sama	-9.79648
▁vapaaehtois	-9.79676
▁aloitteen	-9.79682
▁monimutkais	-9.79698
▁mainitse	-9.79703
▁demokraattisen	-9.79776
▁vastaavat	-9.79849
▁todettava	-9.79852
llaan	-9.79878
▁suuret	-9.79962
▁Mietintö	-9.79967
▁päätöksenteko	-9.79992
▁vuosittain	-9.8
stus	-9.80018
▁vanh	-9.80023
▁pidämme	-9.80028
järjestö	-9.80045
▁tukemaan	-9.80128
suunta	-9.80164
▁Jott	-9.80217
▁tehdyn	-9.80239
▁ajattele	-9.80398
▁sodan	-9.80515
▁seura	-9.80544
ttänyt	-9.80561
▁perustu	-9.80621
▁hyöty	-9.80626
▁vahva	-9.80634
▁tulos	-9.80676
▁yleistä	-9.80693
▁Mu	-9.80801
▁Pu	-9.80815
▁Iranin	-9.80838
▁pari	-9.80846
▁kerta	-9.80901
▁kasva	-9.80951
▁puhumme	-9.80994
▁onnistunut	-9.81028
mahdollisuuksien	-9.8105
▁käyttävät	-9.81098
▁kuluttajille	-9.81134
▁myönteistä	-9.81135
tuo	-9.81157
▁varaa	-9.81168
ttamaan	-9.81176
järjestely	-9.8127
▁konkreettisia	-9.81306
ratkaisu	-9.81318
▁seuraava	-9.81325
▁alkaa	-9.81351
lleen	-9.81402
",	-9.81405
▁laatua	-9.81417
▁julkista	-9.81466
▁heidät	-9.81467
ci	-9.81494
▁kestävää	-9.8154
▁aseman	-9.81557
▁katsoo	-9.81586
yyttä	-9.81592
▁toimiva	-9.81682
▁tar	-9.81698
▁arvosta	-9.81722
▁inhimillis	-9.81726
▁kustannukset	-9.81753
▁hyväksynyt	-9.81785
▁neuvo	-9.81791
▁Kyseessä	-9.81798
men	-9.81823
▁kattava	-9.81879
▁ryhdyttävä	-9.81889
▁Minä	-9.81891
▁Portugalin	-9.81894
▁täysistunnossa	-9.81911
▁liikaa	-9.81924
▁valmista	-9.81925
▁no	-9.81938
▁elä	-9.81986
alueiden	-9.82018
▁kiitollinen	-9.8203
▁talousarviosta	-9.82083
▁mahdollistaa	-9.82097
▁muilla	-9.82109
tettävä	-9.82174
▁sanoin	-9.8218
oikeutta	-9.82221
ce	-9.82326
▁järkevää	-9.82328
nnan	-9.82425
llistä	-9.82434
▁liike	-9.82443
▁sotilas	-9.82461
▁kar	-9.82464
ito	-9.82476
ttäminen	-9.8248
idän	-9.82489
kausi	-9.82581
▁kilpailua	-9.82607
päivä	-9.82735
▁kävi	-9.82736
▁tilaisuuden	-9.8274
▁suo	-9.82778
ettiin	-9.82799
▁kehitysmaiden	-9.82812
▁ellei	-9.82814
▁ilma	-9.82878
asioita	-9.82948
▁puhui	-9.82969
▁Tällainen	-9.83032
viranomaisten	-9.83061
▁markkinat	-9.8317
▁kykene	-9.8317
▁Su	-9.8318
▁minäkin	-9.83242
▁tuote	-9.83332
▁viivästy	-9.83371
▁valita	-9.83391
▁Ruotsin	-9.83465
▁vakavi	-9.8348
▁täytäntöönpanon	-9.83484
▁tuetaan	-9.83498
▁väkivalta	-9.83499
▁D	-9.835
▁osallistumista	-9.83564
▁toimintaohjelma	-9.83592
▁komissiolta	-9.83605
▁unionilla	-9.8364
▁alueita	-9.8371
▁tarve	-9.8374
▁tuonti	-9.83741
▁Esi	-9.83793
▁nro	-9.83799
▁keskus	-9.83843
▁antavat	-9.83854
▁rajojen	-9.83915
gi	-9.83929
▁Tuo	-9.84033
▁Kehotan	-9.8409
▁aio	-9.84127
▁edellä	-9.84128
▁perustuslain	-9.8428
kku	-9.84315
▁reagoi	-9.84316
▁ollaan	-9.84347
▁valtaa	-9.84454
▁tuhoa	-9.84469
▁neljän	-9.84506
▁jokainen	-9.84529
▁Barroso	-9.84561
prosessin	-9.84574
▁luomaan	-9.84629
▁joulukuuta	-9.84699
▁lait	-9.84708
▁omasta	-9.84751
▁este	-9.84777
▁edetä	-9.84792
▁loukkaa	-9.84854
▁Herra	-9.84867
▁jatka	-9.84881
maton	-9.84912
ongelma	-9.84925
▁johdosta	-9.8493
tukset	-9.84986
▁hoitaa	-9.84999
▁aiempaa	-9.85017
▁korkean	-9.85051
▁yksimielisesti	-9.85147
valla	-9.85192
▁aloitta	-9.85217
laisia	-9.85239
▁Romanian	-9.85246
▁kysymyksestä	-9.85267
▁muodostaa	-9.85272
▁toimenpiteisiin	-9.85273
▁näkökohtia	-9.85276
isivät	-9.8529
co	-9.85315
▁taloudellisesti	-9.85331
ppa	-9.85348
kunnan	-9.85412
▁El	-9.85421
▁osana	-9.85435
▁Ukrainan	-9.85456
▁paikalla	-9.85465
▁järjestä	-9.85507
palvelujen	-9.8551
kko	-9.85527
▁noudatetaan	-9.8554
▁tuotannon	-9.85556
▁laajentumis	-9.8556
▁erään	-9.85571
▁ristiriidassa	-9.85698
▁osoitus	-9.85753
▁unionista	-9.85767
▁pyrkiä	-9.85823
▁terve	-9.85833
ltaan	-9.85838
▁elää	-9.85852
▁edut	-9.85921
▁edustajien	-9.85982
▁kilpailukykyä	-9.85993
▁Ki	-9.86042
ker	-9.86052
dä	-9.86102
isuutta	-9.86104
teollisuuden	-9.8618
iseksi	-9.86208
▁Saksa	-9.86288
vuus	-9.86366
▁toiminnasta	-9.86462
▁seitsemän	-9.86513
vapauksien	-9.86528
▁maasta	-9.86537
▁tapahtui	-9.86541
▁taataan	-9.86609
▁kannat	-9.86629
▁muualla	-9.86632
▁suunnitelma	-9.86671
▁Toimi	-9.86701
vallan	-9.86708
telu	-9.8678
ssamme	-9.8684
yttä	-9.86859
▁annetun	-9.86862
▁oikeudenmukaise	-9.86932
▁II	-9.86934
▁vuosia	-9.8694
EL	-9.86966
▁puolustaa	-9.87012
▁toki	-9.87015
▁istu	-9.8704
ryhmi	-9.87044
▁toimenpiteiden	-9.87076
▁turvallisuuteen	-9.87107
tuki	-9.87119
▁koulutusta	-9.87135
▁Direktiivi	-9.87136
▁myönteisiä	-9.87147
maksu	-9.87189
▁teollis	-9.87248
ttaneet	-9.87329
▁millään	-9.8742
▁ohjelmien	-9.87444
▁perustamista	-9.87462
▁tärkeän	-9.87546
▁liberaali	-9.87618
vuotis	-9.8763
▁talousarviota	-9.87634
▁hallitusta	-9.87656
vissa	-9.87679
▁edistysaskel	-9.87721
▁ali	-9.8778
▁terveydenhuolto	-9.87807
▁luodaan	-9.87809
▁suojele	-9.87875
▁siirtymä	-9.87882
sesta	-9.87932
▁Re	-9.87942
▁jatkossa	-9.87996
▁pitävät	-9.88009
▁Kyproksen	-9.8804
▁mitkä	-9.88063
▁pan	-9.88107
▁sopimuksesta	-9.88174
▁kiitoksia	-9.8824
▁kansojen	-9.88277
▁tiedotus	-9.88292
▁Tänään	-9.88309
▁kiinnitettävä	-9.88331
▁käydään	-9.88338
▁perusoikeuskirj	-9.8839
▁rikko	-9.88428
▁ilme	-9.8843
▁ar	-9.88436
ttaminen	-9.88471
▁kaupunki	-9.88491
▁minkäänlaista	-9.88558
▁asetetaan	-9.88558
▁osapuolten	-9.88666
▁luji	-9.88716
▁todellisen	-9.88757
sy	-9.88796
▁liikenteen	-9.88847
▁kuka	-9.88884
piste	-9.88916
arvon	-9.88929
▁virasto	-9.8894
dis	-9.88951
▁aloi	-9.88993
▁tulevien	-9.89005
▁vallan	-9.89084
gu	-9.89109
▁yleinen	-9.89192
ttämään	-9.89212
▁edistämään	-9.89212
uko	-9.89261
mpien	-9.8927
▁äänestystä	-9.89282
▁nope	-9.89282
▁tavoitetta	-9.89285
▁f	-9.89299
▁merkittävi	-9.89309
▁esittämä	-9.89333
▁apu	-9.89371
ven	-9.8938
tunut	-9.89454
▁kärsi	-9.89486
▁säännöksiä	-9.89489
▁Jäsenvaltioiden	-9.89523
▁kehotetaan	-9.89564
sopimusten	-9.89564
▁Voi	-9.89609
▁kansanterveyden	-9.89648
▁pako	-9.89652
ulo	-9.89668
ras	-9.89725
▁riippuu	-9.89728
uh	-9.89735
▁ratkaisevan	-9.89742
▁työllisyyttä	-9.89769
▁vaativat	-9.89795
▁Brysselissä	-9.89798
▁velvollisuus	-9.89804
▁viestin	-9.89812
▁lapsi	-9.89833
▁kansanäänestyks	-9.89846
▁jäsenille	-9.89846
▁vaikutusta	-9.8988
▁sano	-9.89903
▁avusta	-9.89906
▁yhteistyöhön	-9.89943
det	-9.89982
▁60	-9.89982
▁huomaa	-9.90005
▁jäsenenä	-9.90014
▁äänestyksen	-9.90014
▁yleissopimuksen	-9.90071
▁seikkaa	-9.9012
ali	-9.90145
hu	-9.90232
▁kulje	-9.90245
▁Niin	-9.9027
▁avoimesti	-9.90318
▁poikkeus	-9.90339
▁suurten	-9.90466
▁ymmärrä	-9.9048
▁Mielestämme	-9.9052
▁saattavat	-9.9053
▁peruste	-9.90538
usten	-9.90579
▁uuteen	-9.90599
assa	-9.90649
▁kehottaa	-9.90658
▁pyrimme	-9.90663
▁luku	-9.90676
tie	-9.90697
▁siirty	-9.90708
▁käsittely	-9.90728
▁kuuden	-9.90752
▁alueille	-9.90769
▁yksin	-9.90781
um	-9.90788
täysimääräisesti	-9.90799
▁liittymistä	-9.90813
ry	-9.90912
▁hylkää	-9.9093
▁valtioissa	-9.90946
▁ennalta	-9.90966
▁1997	-9.90966
▁pyysi	-9.91019
▁valinta	-9.9102
▁rauhaa	-9.91036
▁kansanpuolueen	-9.91099
mille	-9.91167
alueilla	-9.91187
▁yhteiskunta	-9.91199
▁Pää	-9.91209
▁toukokuuta	-9.91211
▁täysi	-9.91245
villa	-9.91356
▁komitea	-9.91417
▁tietävät	-9.9144
▁hieno	-9.91474
▁tarkistusten	-9.91534
ken	-9.91543
hallinnon	-9.91552
▁suhteiden	-9.91674
▁laadittu	-9.91772
▁sanon	-9.91775
lm	-9.91796
▁katastrofi	-9.91805
▁kehittämiseen	-9.91919
▁sisällyttää	-9.92039
▁periaatteiden	-9.9204
▁maanviljelijöi	-9.92052
ud	-9.92061
▁suunnittelu	-9.92173
▁vaikeuksia	-9.92174
▁perustelu	-9.9228
▁Paljon	-9.924
▁artiklassa	-9.92423
▁Joka	-9.92453
tuomioistuin	-9.92517
▁kysymyksessä	-9.92539
▁parlamentilla	-9.92565
▁liittyvän	-9.92587
valiokunnassa	-9.92671
▁uudistuksia	-9.92696
vuutta	-9.92722
tavat	-9.92765
▁Euroopasta	-9.92765
▁eräs	-9.92821
strategian	-9.92836
▁jäsenvaltiota	-9.92858
kää	-9.92861
▁lähtö	-9.92889
luvun	-9.92901
▁erot	-9.92922
▁ri	-9.92964
▁vastustaa	-9.92979
▁rikollisuuden	-9.93085
▁hyödyn	-9.93087
▁vakauden	-9.931
▁Kuitenkin	-9.93104
▁yhteispäätös	-9.93112
▁hy	-9.93122
▁tapaus	-9.93126
▁tuemme	-9.93151
▁tarkistuksista	-9.93152
▁suhteet	-9.93167
▁syö	-9.93252
▁kokouksen	-9.93268
▁Van	-9.93277
▁suu	-9.93286
▁verran	-9.93312
▁jatko	-9.93335
▁vanha	-9.93373
▁Palestiinan	-9.934
ment	-9.93431
teta	-9.93436
▁kustannuksia	-9.93446
▁aikaansaa	-9.93494
itse	-9.93514
▁piti	-9.93578
▁vähä	-9.93653
▁työntekijöitä	-9.9367
▁hyväksyminen	-9.93674
▁avoin	-9.93679
▁vaati	-9.93698
▁parempaa	-9.93701
▁julkisia	-9.93741
▁teko	-9.93754
▁tuesta	-9.93787
toimien	-9.93788
▁ihmisen	-9.93805
▁heillä	-9.93836
teihin	-9.93852
▁milloin	-9.93855
▁asianmukaista	-9.93856
▁puuttuu	-9.93897
▁toimivalta	-9.93919
▁22	-9.93983
▁lisätään	-9.93998
▁jatkettava	-9.94022
▁huolta	-9.94032
▁joulukuussa	-9.94064
▁yksittäisten	-9.94148
vansa	-9.94175
▁ratkaise	-9.94185
▁toteutettu	-9.94195
▁huippukokouksen	-9.94207
▁huolenaihe	-9.94209
▁mo	-9.94212
▁toistaa	-9.94231
tteli	-9.94404
▁toistaiseksi	-9.94409
▁investointeja	-9.94421
prosessi	-9.94422
▁aiheuttavat	-9.94444
▁ottamatta	-9.94468
▁jotkin	-9.9447
▁toteuttamaan	-9.94494
▁perä	-9.94524
▁inno	-9.94529
▁ymmärrettävä	-9.94531
▁johta	-9.9458
uden	-9.946
▁talo	-9.94746
▁purka	-9.94784
▁yhteisvastuu	-9.94788
▁urheilu	-9.94812
▁pankki	-9.94814
isista	-9.9483
▁kannatamme	-9.94837
▁tekstin	-9.94852
▁ensisijaisesti	-9.94853
▁yhdistä	-9.94885
▁samat	-9.94896
▁aamuna	-9.94955
▁järjestää	-9.95041
järjestön	-9.9506
▁100	-9.95077
ase	-9.95111
▁Vain	-9.95161
vasti	-9.95247
▁saataisiin	-9.95262
puolue	-9.95271
▁Näitä	-9.95306
ero	-9.95324
vuuden	-9.95369
osta	-9.95374
▁edellytykset	-9.95454
▁kehotan	-9.95507
▁Uusi	-9.95548
▁käynnissä	-9.95586
▁etsi	-9.95641
▁Saa	-9.95642
▁vaalien	-9.95698
▁vapaan	-9.95703
▁tavoitteista	-9.95737
▁samanaikaisesti	-9.95757
▁edellis	-9.95801
▁alueet	-9.95805
▁jäsenelle	-9.95819
▁yhdenmukais	-9.95826
▁Aihe	-9.95851
isti	-9.95886
olle	-9.95932
▁No	-9.95937
▁murha	-9.9595
▁kokonaisuudessa	-9.95981
▁24	-9.96006
▁palveluja	-9.96042
▁sijoitta	-9.9608
▁painottaa	-9.96166
▁keskusteluja	-9.96187
▁kuljetus	-9.96241
laatu	-9.96301
▁todiste	-9.96362
tävä	-9.96424
▁valitu	-9.96465
▁lapsia	-9.96619
yhteiskunnan	-9.96716
▁muistettava	-9.96786
▁rakennerahasto	-9.96861
laise	-9.96926
▁kieltäyty	-9.96926
jät	-9.96947
▁alueellis	-9.96962
▁koski	-9.96972
▁helppo	-9.96974
▁vaikutusten	-9.96982
▁tapahtumat	-9.97019
▁päätösten	-9.97019
ivi	-9.97028
▁tahtoa	-9.97078
▁tehtiin	-9.97089
▁omi	-9.97122
▁vuodessa	-9.97132
▁kor	-9.97135
lve	-9.97211
▁pöytäkirjan	-9.9722
▁kilpailukyvyn	-9.97225
toa	-9.97239
▁parlamenttiin	-9.97327
▁käynyt	-9.97332
▁tehokasta	-9.97334
▁nopea	-9.97402
▁tehtäviä	-9.97429
▁luottamusta	-9.97456
ntia	-9.97458
▁para	-9.97528
uksi	-9.97546
puolueen	-9.97592
▁vakuut	-9.97636
▁huolellisesti	-9.9766
▁nähden	-9.97668
▁vähintään	-9.97694
▁kaikkiaan	-9.97702
▁puhutaan	-9.97705
▁Toivomme	-9.97705
▁syrjinnän	-9.97722
▁pystyy	-9.97746
▁perustuvan	-9.97746
▁sitoutunut	-9.97818
▁lopussa	-9.97883
▁Tilanne	-9.97913
▁seurata	-9.97933
▁henki	-9.97941
▁itsestään	-9.98004
ale	-9.98014
hda	-9.9802
▁viikon	-9.98021
ologi	-9.98022
▁vahvistettava	-9.98044
▁pala	-9.98044
▁Schengenin	-9.98061
op	-9.98068
▁edistä	-9.9807
▁kyseisi	-9.98099
▁uusiin	-9.9813
ava	-9.98181
▁pyyntö	-9.98195
▁ongelmaan	-9.98216
▁Na	-9.98244
▁voineet	-9.98276
▁Siihen	-9.98307
mie	-9.98314
▁pääoma	-9.98316
▁viittasi	-9.98396
▁käyttöönotto	-9.98463
▁kyseisten	-9.98487
▁Erityisesti	-9.98489
ek	-9.98496
▁merkki	-9.98514
▁Ni	-9.98524
mät	-9.98541
▁sopi	-9.98553
▁keskittyä	-9.98575
oita	-9.98582
▁nykyisten	-9.98617
▁talousarvioon	-9.98641
talo	-9.98669
ksiin	-9.98739
▁raska	-9.98759
▁avaa	-9.98762
ole	-9.98823
▁useiden	-9.98833
▁aluetta	-9.98883
rahaston	-9.98975
▁esityslista	-9.98985
▁haasteisiin	-9.99
kehi	-9.99031
▁Amerikan	-9.99041
▁eläke	-9.99059
▁luotava	-9.99096
vir	-9.99116
▁välttämätön	-9.99117
▁demokraattise	-9.99161
id	-9.99172
▁tul	-9.99179
▁vahvista	-9.99197
▁yhteiseen	-9.99208
▁ilmiö	-9.99242
tystä	-9.99242
tojen	-9.99254
▁kaikesta	-9.99275
ll	-9.99316
▁äänestämme	-9.99327
▁tärkeimmistä	-9.99334
▁vapaasti	-9.99342
mekanismi	-9.99424
▁voitu	-9.99489
▁kovasti	-9.9949
▁perustuvat	-9.99496
▁rakenta	-9.99506
▁tarkastellaan	-9.99522
▁muodostavat	-9.99566
▁hetki	-9.99592
periaatte	-9.99635
▁myönnetään	-9.99682
▁kerto	-9.99689
tämistä	-9.99693
strategia	-9.99703
▁viimeinen	-9.99757
▁keskusteluissa	-9.99785
▁komissiossa	-9.99929
▁jolle	-9.99936
▁mur	-9.99983
▁parantamaan	-9.99984
▁suhtautu	-10
▁ääni	-10.0002
▁kansainvälisiä	-10.0015
▁sosiaalisia	-10.0015
▁helpotta	-10.0017
03	-10.0021
▁pelo	-10.0021
▁huoli	-10.0022
▁investoi	-10.0023
▁näille	-10.0027
oja	-10.0027
▁Par	-10.0029
lia	-10.0038
▁oikeudellisten	-10.004
▁valmistelukunna	-10.0044
▁teiltä	-10.0046
aineiden	-10.0047
▁keskuudessa	-10.0047
▁ajatusta	-10.0048
▁sanonut	-10.005
▁kannustaa	-10.0052
▁työstään	-10.0055
▁esittäneet	-10.0057
▁laatimaan	-10.0059
tuista	-10.0064
▁Var	-10.0066
▁heiko	-10.0073
jemme	-10.0077
▁tarkoitettu	-10.0085
▁tyydyttävä	-10.0085
▁vallitseva	-10.0088
talouden	-10.0089
ryhmien	-10.0091
▁tuleva	-10.0096
▁molemmat	-10.0097
rakentee	-10.0098
▁suora	-10.0099
▁sisälly	-10.01
▁olennaisen	-10.01
▁jatkuva	-10.011
▁kattaa	-10.0114
▁vähemmistöjen	-10.0116
erin	-10.0117
▁seuranta	-10.0117
kur	-10.0122
miä	-10.0123
▁lähestymistavan	-10.0132
▁kahteen	-10.0133
etu	-10.0136
▁ydinvoima	-10.0141
▁liha	-10.0143
▁Ukraina	-10.0143
▁menetelmä	-10.0146
▁enempää	-10.0157
uksissa	-10.0159
seksi	-10.0165
▁alenta	-10.0167
▁yhdisty	-10.0168
▁pieniä	-10.0172
▁maaliskuuta	-10.0174
▁monen	-10.0177
▁edistettävä	-10.0178
▁nuoriso	-10.0179
jäsen	-10.0185
▁osoittaneet	-10.0187
▁sovelta	-10.0189
▁Espanja	-10.019
oksi	-10.0191
▁yksinomaan	-10.0192
periaatetta	-10.0202
▁terrori	-10.0204
▁kuukautta	-10.0205
▁toivoa	-10.0207
isessa	-10.0208
▁kuluttajat	-10.021
▁harjoit	-10.021
▁Kuu	-10.021
▁globalisaatio	-10.0217
▁liittyä	-10.022
▁vapa	-10.0222
▁raaka	-10.0229
▁Internet	-10.0231
▁turvaa	-10.0232
▁oikeaan	-10.0235
▁tilaisuutta	-10.0238
▁laadun	-10.024
▁piiriin	-10.0242
uksella	-10.0249
▁palata	-10.0251
▁energiatehokkuu	-10.0252
▁ilmeisesti	-10.0256
direktiivin	-10.0257
▁11.	-10.0257
▁henkilöstö	-10.0257
puole	-10.026
▁keskenään	-10.0261
▁käsittelyn	-10.0264
kriisi	-10.0265
tason	-10.0267
▁tuomitse	-10.0276
▁Ca	-10.0283
▁tiedän	-10.0285
▁seuraavat	-10.0286
sse	-10.0288
▁löytä	-10.0288
▁Itävallan	-10.0289
▁käyttämään	-10.0294
itti	-10.0296
▁Oli	-10.0304
▁mitenkään	-10.0308
ekin	-10.0313
▁kärsivät	-10.0313
ikka	-10.0314
paikka	-10.0317
▁muodosta	-10.0318
▁Niinpä	-10.0321
▁ponnistelu	-10.0326
▁tietyn	-10.033
▁sija	-10.033
▁onnistuneet	-10.033
▁mainitsema	-10.0334
▁vapaakauppa	-10.0334
missa	-10.0334
▁kymmen	-10.0339
▁lehdistö	-10.034
▁luovutta	-10.0354
▁Mikäli	-10.0355
▁Vasta	-10.0355
RO	-10.0355
▁seuraukset	-10.0357
▁kohdistu	-10.0358
▁selvittää	-10.0358
▁rahasto	-10.036
▁Da	-10.0361
▁puu	-10.0371
llemme	-10.0377
▁teho	-10.0386
▁käsittelyyn	-10.0386
▁siirtä	-10.0386
▁Päätöslauselma	-10.0389
ski	-10.0394
▁ehdotusten	-10.0394
Venäjän	-10.0395
▁ryhmämme	-10.04
▁kuusi	-10.0403
yyden	-10.0403
ria	-10.0409
menettelyä	-10.0413
▁Italia	-10.0414
sessa	-10.0425
▁rakennerahastoj	-10.0428
▁hintojen	-10.0438
▁kädessä	-10.044
ohjelmi	-10.0444
▁vihreä	-10.0445
▁lopettaa	-10.0451
▁syntyy	-10.0455
stö	-10.0455
▁joudu	-10.0467
▁välttämättä	-10.0468
ajat	-10.0468
▁keskustellaan	-10.0469
▁R	-10.0479
▁Yhdysvalloissa	-10.0486
▁työssä	-10.049
▁mieli	-10.0492
▁Vuonna	-10.05
▁pahoillani	-10.0505
▁keho	-10.051
▁tuntuu	-10.051
▁tietyt	-10.0512
▁tuottaa	-10.0513
▁taka	-10.0522
▁kunnianhimoise	-10.0528
▁osaltaan	-10.0531
▁verkosto	-10.0532
▁konferenssin	-10.0534
▁kyseise	-10.0534
▁edustaa	-10.0536
muut	-10.0541
tuksesta	-10.0542
▁laajentuminen	-10.0548
kasta	-10.0548
▁rajoittaa	-10.0558
▁lähettä	-10.056
▁määrärahoja	-10.0562
elämä	-10.0564
emmin	-10.0565
be	-10.0569
▁järjestö	-10.057
▁Puolan	-10.057
▁assosiaatio	-10.0571
▁iltana	-10.0577
▁yhdentymis	-10.058
ite	-10.0586
mon	-10.0587
▁kolmannen	-10.059
▁solidaarisuus	-10.0594
▁uhrien	-10.0598
tonta	-10.0602
▁haittaa	-10.0606
▁odotamme	-10.0607
–	-10.0613
▁Olette	-10.0614
kuva	-10.0616
▁kuningaskunta	-10.0619
▁1,	-10.0621
▁oikeusvaltion	-10.063
eja	-10.0631
▁sopiva	-10.0641
▁kohdista	-10.0642
▁löydettävä	-10.0642
▁analyysi	-10.0648
kulu	-10.0649
▁maahanmuuton	-10.0651
▁sukupuolten	-10.0656
▁enemmistön	-10.0657
▁käsite	-10.0659
▁laaje	-10.066
▁parlamenttien	-10.067
▁määrit	-10.0672
jana	-10.0676
viranomais	-10.0678
vahv	-10.0681
▁80	-10.0685
▁hankkeiden	-10.0689
▁epäily	-10.0689
▁muutokset	-10.0689
▁aiheuttama	-10.0697
▁määräyksiä	-10.07
ca	-10.0701
▁vetoomus	-10.0704
▁ohella	-10.0704
olla	-10.0707
▁lailla	-10.0707
▁taloutta	-10.0708
▁1996	-10.0709
▁päättänyt	-10.0717
▁vastausta	-10.072
▁näe	-10.072
▁kunkin	-10.0726
▁toisistaan	-10.0729
mmän	-10.0734
▁ihmisarvo	-10.0735
▁vaadi	-10.0736
▁kahdesta	-10.0737
▁avoimuus	-10.0743
▁selviä	-10.0743
▁huume	-10.0747
▁vallitsee	-10.0752
▁kulttuurin	-10.0754
▁puheenjohtajana	-10.0756
▁hätä	-10.077
▁aineiden	-10.0771
hallinto	-10.0773
▁todellisuudessa	-10.0775
▁lähesty	-10.0777
esityksen	-10.0777
▁ota	-10.0778
auto	-10.0788
▁Eikö	-10.0789
valtioiden	-10.079
aktiivi	-10.0792
alisti	-10.0792
mästä	-10.0792
▁tuomioistuin	-10.0795
▁pikaisesti	-10.0796
▁500	-10.0797
▁oikeutetusti	-10.0802
▁lukuisia	-10.0804
standardi	-10.0809
▁koulutukseen	-10.081
▁mukainen	-10.0811
enne	-10.0811
▁laadittava	-10.0811
▁Romania	-10.0818
▁riittävä	-10.082
▁tutkimukseen	-10.0821
turvallisuus	-10.0832
▁matkusta	-10.0833
perusteellisesti	-10.0834
tajien	-10.0836
▁kokous	-10.0839
▁sopimukset	-10.084
▁tehosta	-10.0842
▁vahingoi	-10.0842
llisuuden	-10.0845
▁parlamentaarise	-10.0848
▁työjärjestys	-10.0849
▁euroalueen	-10.085
neita	-10.0851
▁kehitettävä	-10.0853
▁valtioita	-10.0856
▁yhtiö	-10.0856
▁tiivistä	-10.0857
ssään	-10.086
joita	-10.0863
▁huolissaan	-10.0864
työn	-10.0864
▁tosin	-10.0868
▁ajo	-10.0869
▁hallitustenväli	-10.087
▁toiminut	-10.0872
▁toimivaltaan	-10.0874
▁lähellä	-10.0874
▁arvoja	-10.0876
▁sitova	-10.0877
▁istunto	-10.0878
oikeuksien	-10.0879
▁todellisia	-10.0886
▁mietinnöstään	-10.0894
▁hankkeita	-10.0899
▁solmi	-10.0902
valtaa	-10.0904
asioissa	-10.0906
▁Moni	-10.0909
▁teillä	-10.0916
▁EKP	-10.0916
▁helpottaa	-10.0921
▁kustannuksella	-10.0926
ttavia	-10.0928
▁Mikä	-10.093
▁puheenvuoroni	-10.0931
▁osoitettava	-10.0932
▁vaalit	-10.0932
▁yhteenkuuluvuu	-10.0933
▁BKT	-10.0936
▁anteeksi	-10.0941
▁kon	-10.0943
▁johtava	-10.0944
py	-10.0947
▁vaadimme	-10.0949
▁satama	-10.0951
tuksessa	-10.0956
▁päätti	-10.0958
▁Ar	-10.096
▁ymmärtä	-10.0964
em	-10.0965
yhteisö	-10.0968
▁asianmukainen	-10.0971
▁toisinaan	-10.0972
▁viittaa	-10.0974
▁Bulgaria	-10.0976
▁valittu	-10.0977
▁asetettava	-10.098
▁istunnon	-10.098
▁mekanismi	-10.0983
▁tiede	-10.0986
▁Lii	-10.1002
tukseen	-10.1003
▁asetettu	-10.1003
▁koordinoi	-10.1006
▁johtanut	-10.101
▁syrji	-10.1012
▁osallistuvat	-10.1018
▁määrätään	-10.1021
▁summa	-10.1023
▁yhteys	-10.1032
▁yhteisten	-10.1033
▁palauttaa	-10.1041
▁kannusta	-10.1047
kuningaskunnassa	-10.1052
▁ratkaisemaan	-10.1058
▁komissiolla	-10.106
▁tiukasti	-10.1065
ttomia	-10.1065
▁pitki	-10.1065
toimet	-10.1068
pp	-10.1069
▁käytä	-10.1073
▁itseään	-10.1075
U	-10.1076
▁asiantuntija	-10.1081
▁terrorismi	-10.1086
▁tehokkaammin	-10.1088
▁naisiin	-10.109
▁elämään	-10.109
▁harjoittama	-10.1091
▁direktiivissä	-10.1092
▁korva	-10.1094
▁Y	-10.1094
▁vahvasti	-10.1097
▁sijoit	-10.11
▁laajentaa	-10.1101
▁sor	-10.1105
isille	-10.1105
▁eteen	-10.1108
G	-10.1111
▁laittoman	-10.1112
ou	-10.1114
▁yhteiset	-10.1116
▁oikeusvaltio	-10.1123
▁tarkemmin	-10.1123
▁alun	-10.1124
▁haasteita	-10.1129
keino	-10.113
▁välisiä	-10.1131
▁korosti	-10.1131
▁vieläkin	-10.1133
lki	-10.1142
▁keskuspankin	-10.1143
▁sallia	-10.1149
▁jäsenvaltioista	-10.1152
▁joku	-10.1153
▁menettelyn	-10.1153
yy	-10.1155
ehdot	-10.116
järjestelmään	-10.1161
▁televisio	-10.1163
▁viljely	-10.1164
▁uudista	-10.1168
▁jokin	-10.1171
▁kasvava	-10.1171
▁väärä	-10.1171
▁keinoin	-10.1173
▁olennainen	-10.1174
uuksia	-10.1177
▁hyökkä	-10.1179
▁bio	-10.1181
lly	-10.1186
▁ulkoministeri	-10.1187
▁itsensä	-10.1192
▁tulevaa	-10.1193
▁tehokkaita	-10.1196
▁synny	-10.1204
▁tiedonanto	-10.1206
pid	-10.1206
▁parannettava	-10.1213
▁olisimme	-10.1214
▁puute	-10.1216
▁kuule	-10.1217
▁etusijalle	-10.1221
vai	-10.1224
▁todennut	-10.1225
▁Ho	-10.1228
▁Kuinka	-10.1228
▁korostettava	-10.1229
▁syrjintää	-10.1229
▁takana	-10.123
▁tuon	-10.1234
▁laina	-10.1236
▁kysymyksissä	-10.124
▁pal	-10.124
ehdotuksen	-10.1247
pit	-10.1249
▁voitte	-10.125
eh	-10.1252
ute	-10.1254
▁alaa	-10.1262
▁ajoneuvo	-10.1263
▁liikkuvuuden	-10.1264
▁puhun	-10.1264
▁ylittävä	-10.1264
▁harjoittaa	-10.1266
▁lisäämistä	-10.1266
mpaan	-10.1268
▁tutkia	-10.1268
▁tällaisten	-10.1269
▁vastuuvapauden	-10.127
vaihe	-10.1273
▁lisäämään	-10.1277
▁lukien	-10.1278
▁Unkarin	-10.128
▁poliittiseen	-10.1283
▁Euroopalle	-10.1284
len	-10.1288
▁oikeudellisen	-10.129
▁vakuutus	-10.129
▁monista	-10.1293
▁välisten	-10.1293
▁tulevaisuudesta	-10.1294
▁tapahtuma	-10.1296
järjestelmiä	-10.1302
tteko	-10.1307
▁viedä	-10.1309
▁Val	-10.1315
▁omassa	-10.1315
▁kesäkuuta	-10.1319
▁palkka	-10.1321
▁vaihto	-10.1329
ystä	-10.1331
▁käytän	-10.1334
99	-10.1336
▁tapaan	-10.1336
SV	-10.1337
▁tien	-10.1338
▁mahdollisia	-10.1341
▁osoitettu	-10.1341
ohjelmien	-10.1341
▁terroristi	-10.1346
▁noudattamaan	-10.135
tyyppi	-10.1355
▁uudesta	-10.1355
▁ratkaisemiseksi	-10.1355
▁luopu	-10.1358
▁naapuruus	-10.136
laadu	-10.136
▁kyseinen	-10.1361
llään	-10.1364
▁käsitelty	-10.1365
▁anna	-10.1366
markkinat	-10.1367
huo	-10.1369
▁korjata	-10.1371
▁kertomuksen	-10.1371
▁prosenttiin	-10.1376
viraston	-10.1378
▁solidaarisuutta	-10.1381
▁rauhanprosessi	-10.1382
▁asemaan	-10.1382
▁valmistautu	-10.1386
▁kasvatta	-10.1389
▁menettelyä	-10.1391
▁turvallise	-10.1395
▁ilmastonmuutos	-10.1397
▁Per	-10.1401
▁Bosnia	-10.1401
▁vaaran	-10.1401
▁ympäristöön	-10.1402
▁ääri	-10.1405
▁järjestely	-10.1405
▁yhdistää	-10.1406
▁tavara	-10.1408
nnasta	-10.1412
▁useat	-10.1419
▁tarkkaan	-10.1423
▁hyväksymistä	-10.1426
▁tarvittaessa	-10.1427
otto	-10.1432
st	-10.1434
▁vaka	-10.1435
▁asiakirjan	-10.144
vapaus	-10.144
rm	-10.1441
▁hoito	-10.1446
▁Bulgarian	-10.1446
toimintaa	-10.1447
▁siirtää	-10.1449
▁liikkuvuutta	-10.1458
▁tiiviisti	-10.1459
▁erinomainen	-10.146
ikä	-10.1461
▁rakentaa	-10.1463
▁kohden	-10.1463
▁soveltamista	-10.1464
kehys	-10.1464
▁lähettää	-10.1465
▁tili	-10.1465
▁osallistuu	-10.1465
▁taustalla	-10.1466
▁näkö	-10.1466
▁itselleen	-10.1467
sista	-10.1468
▁olosuhteissa	-10.1473
▁Alankomaiden	-10.1478
▁Kansainvälisen	-10.1482
▁levittä	-10.1484
▁valuutta	-10.1485
▁tuolloin	-10.1489
▁tehokkaan	-10.1489
▁vaarassa	-10.1489
▁työntekijät	-10.1494
ejä	-10.1495
▁esteitä	-10.1496
▁tuloksena	-10.1498
▁lyhyt	-10.1499
▁ho	-10.15
uuksien	-10.1503
der	-10.1503
▁esiintyy	-10.1503
▁haluaisi	-10.1503
▁koordinointi	-10.1503
▁pystymme	-10.1505
▁lasku	-10.1506
▁olemassaolo	-10.1508
▁vaadittava	-10.151
▁pyrkivät	-10.151
▁puolueen	-10.1511
ved	-10.1512
▁liitto	-10.1514
▁yliopisto	-10.1514
mahdollisuuksia	-10.1517
mmista	-10.152
▁Ber	-10.1524
▁määritellä	-10.1529
▁kaikin	-10.1533
▁luottamuksen	-10.1536
▁syitä	-10.1538
▁äsken	-10.154
30	-10.154
▁olevansa	-10.1542
▁maailmanlaajui	-10.1542
▁mennä	-10.1545
▁erilaiset	-10.1546
▁toteuttamista	-10.1548
▁ehdotuksista	-10.1548
▁hanke	-10.1548
▁luominen	-10.1549
▁vaatimusten	-10.1549
pito	-10.1549
esitystä	-10.1551
▁harkita	-10.1556
▁lukuun	-10.1557
alaa	-10.1558
am	-10.1558
▁näkemyksiä	-10.1561
turvallisuudesta	-10.1562
▁voimaantulo	-10.1563
talous	-10.1564
tynyt	-10.157
▁heikentää	-10.1575
▁lähinnä	-10.1577
iste	-10.1581
▁joille	-10.1582
oiden	-10.1584
▁kohtia	-10.1584
▁verta	-10.1585
▁Tuen	-10.1585
▁tulevaisuuteen	-10.1588
▁otamme	-10.1589
▁luottaa	-10.1591
▁pannaan	-10.1594
▁kiista	-10.1596
▁tällaiset	-10.1598
50	-10.16
▁toimijoiden	-10.1601
menettelyssä	-10.1602
▁toimivaltaa	-10.1605
▁paikka	-10.1612
essani	-10.1613
▁puheen	-10.1613
▁parhaiten	-10.1614
matto	-10.1614
ensa	-10.1616
mpiin	-10.1617
▁kuukausi	-10.1618
utua	-10.1621
▁myönnetty	-10.1624
tuneet	-10.1624
▁ottaneet	-10.1626
▁hyvästä	-10.1626
▁tapahtua	-10.1627
▁Portugali	-10.1627
▁lyhyen	-10.1628
tyksen	-10.1632
▁par	-10.1633
▁nostaa	-10.1638
▁Ruotsi	-10.1638
▁opi	-10.1642
▁maailma	-10.1644
▁joutuneet	-10.1646
sopimuksessa	-10.1646
▁kehittäminen	-10.1651
▁pantava	-10.1653
▁Intian	-10.1657
▁saavuttamaan	-10.1658
▁suhte	-10.166
▁näky	-10.1663
▁poliittis	-10.1664
▁sisäasioiden	-10.1668
▁lausunto	-10.1669
etään	-10.1685
öi	-10.1687
▁Jugoslavian	-10.1688
ska	-10.1691
▁vuoro	-10.1695
▁ansaitsee	-10.1696
▁kieltää	-10.1696
▁käsittelee	-10.1701
rä	-10.1703
▁työskentely	-10.1703
▁kiitos	-10.1711
▁lokakuuta	-10.1712
ismi	-10.1713
▁rikka	-10.1713
▁tyhjää	-10.1716
ber	-10.1717
▁puolella	-10.1717
nnit	-10.1718
▁henkilöt	-10.1718
▁PSE	-10.1718
▁nykyisessä	-10.1718
▁perustan	-10.1718
raja	-10.1719
isku	-10.1719
▁vieläkään	-10.1719
käyttö	-10.1727
▁syvä	-10.1728
▁kotimaa	-10.1729
▁kunnioit	-10.173
▁monimuotoisuude	-10.1741
▁torjuntaa	-10.1745
▁ratkaistava	-10.1745
▁ristiriita	-10.1748
▁entisen	-10.1749
▁Kööpenhaminan	-10.1751
▁kohtalo	-10.1751
▁vastattava	-10.1752
▁todettu	-10.1756
▁toivottavasti	-10.1761
▁Ranskassa	-10.1764
uudet	-10.1765
▁yhtenä	-10.1766
▁merkitse	-10.1771
▁avustus	-10.1772
▁poliittisesta	-10.1774
▁luomista	-10.1775
▁pätee	-10.1777
▁suunniteltu	-10.1777
nnut	-10.1779
▁määritelmä	-10.1783
▁mainitaan	-10.1784
aatio	-10.1784
▁kanssanne	-10.1789
▁tekstiili	-10.1789
▁koo	-10.1791
▁Jotkut	-10.1793
▁avain	-10.1794
▁toimen	-10.1797
toiminnan	-10.1809
▁osapuolet	-10.1813
▁YMP	-10.1819
▁puutteita	-10.1819
▁kova	-10.1819
▁Tie	-10.182
oli	-10.1825
▁päämäärä	-10.1825
▁lisääminen	-10.1826
▁kalatalous	-10.1836
▁kappale	-10.1837
Puhemies	-10.1841
▁huomiotta	-10.1841
oitu	-10.1845
▁myy	-10.1846
suojelu	-10.1849
mmaksi	-10.1855
met	-10.1855
▁osallistuminen	-10.1858
▁Kaikkien	-10.1859
▁läsnäolo	-10.186
▁hankkeen	-10.186
▁erityinen	-10.1862
lähte	-10.1864
▁saattaisi	-10.1865
yd	-10.1867
kristillis	-10.1867
▁jakautu	-10.1868
ttamista	-10.1871
▁marraskuuta	-10.1873
▁toisiinsa	-10.1873
▁EY	-10.1874
ksesta	-10.1879
▁luottamus	-10.188
tumisen	-10.1881
nsuojelu	-10.1881
▁heistä	-10.1884
▁miljardi	-10.1885
▁tahto	-10.1887
▁tosiasiassa	-10.1888
▁lainsäädännölli	-10.1889
▁lämpimästi	-10.1889
▁tue	-10.1889
tunte	-10.1891
▁Tarkoitan	-10.1892
▁tarka	-10.1892
▁Kioton	-10.1894
▁historiallise	-10.1895
▁oikeudellinen	-10.19
▁ru	-10.1901
▁2011	-10.1901
▁pidemmälle	-10.191
▁tulevaisuus	-10.1912
KOM	-10.1916
▁lääke	-10.192
▁miehi	-10.1921
markkinoilla	-10.1924
▁26	-10.1924
▁luovu	-10.1927
▁kansallisella	-10.1929
▁säädetään	-10.1932
▁palaa	-10.1932
▁suurempaa	-10.1933
oihin	-10.1933
▁muodostu	-10.1935
joiden	-10.1938
uri	-10.1946
stään	-10.1947
▁olevista	-10.1947
▁nousu	-10.1948
▁tietosuoja	-10.195
▁antaneet	-10.195
▁ilmaise	-10.1951
▁helposti	-10.1965
▁tarkistuksesta	-10.1965
▁oikeusasiamiehe	-10.1965
essamme	-10.1966
▁hyväksymä	-10.1968
▁käyttöönottoa	-10.197
▁edellytys	-10.1978
▁y	-10.1981
▁tunnus	-10.1982
kaupan	-10.1984
rahoitus	-10.1985
▁ohjelmia	-10.1991
▁eroa	-10.1998
kor	-10.1999
▁merkittävän	-10.2005
▁käsittelemään	-10.201
▁liity	-10.2014
▁huomattavia	-10.2015
▁pro	-10.2018
▁moottori	-10.2019
▁hankki	-10.2024
▁kommunisti	-10.2024
▁välttämättömiä	-10.2025
ointi	-10.2027
▁katsomme	-10.2029
▁ope	-10.2032
▁esittelijänä	-10.2032
äänestys	-10.2037
▁edistäminen	-10.2041
▁hallitse	-10.2042
▁väkivaltaa	-10.2042
▁vahvistettu	-10.2046
▁käynnistää	-10.2046
▁Yhdistynyt	-10.2063
▁mielelläni	-10.2063
▁tehokkuutta	-10.2063
matonta	-10.2064
▁ajattelu	-10.2065
▁muistaa	-10.2068
▁seikkoja	-10.2068
▁suojelemiseksi	-10.2069
▁jäsenvaltioihin	-10.2069
▁tukevat	-10.207
▁valtuuskunta	-10.2076
▁peli	-10.208
▁ehdokasvaltio	-10.2081
▁ryhmät	-10.2084
▁väliset	-10.2086
▁esitettävä	-10.2086
▁viha	-10.2087
suhteiden	-10.209
▁esimerkkiä	-10.2091
▁veden	-10.2091
▁perustana	-10.2092
▁vammais	-10.2097
▁työttömyys	-10.2099
▁demokraattinen	-10.21
kokous	-10.2101
▁tulevina	-10.2102
▁tiellä	-10.2103
▁oikeuteen	-10.2107
▁sääntelyn	-10.2107
vy	-10.2107
yritykset	-10.2108
Parlamentti	-10.211
▁käsittelyä	-10.2112
yrityksiä	-10.2115
▁tapahtumien	-10.2119
tiivis	-10.2119
▁vaatimus	-10.212
valvonta	-10.212
iti	-10.212
osan	-10.2123
▁säännöllisesti	-10.2125
kierrokse	-10.2126
▁paine	-10.2127
▁Suhtaudun	-10.2129
▁huolestuttava	-10.2137
▁sisämarkkina	-10.2138
▁suhtautuu	-10.2138
▁laiminlyö	-10.2139
▁28	-10.2139
▁markkinoita	-10.2144
▁meno	-10.2145
▁pohjois	-10.2148
▁tehokkai	-10.2149
del	-10.2155
▁21	-10.2162
▁autta	-10.2162
▁pyytänyt	-10.2163
yl	-10.2166
▁alka	-10.2172
leh	-10.2174
▁Ch	-10.2175
▁menettelyjä	-10.2176
▁kesäkuussa	-10.2178
▁tunnustaa	-10.2182
▁laatinut	-10.2183
▁Sano	-10.2184
▁poikkea	-10.2184
▁päässeet	-10.2184
▁huolehti	-10.2187
▁yhtään	-10.2194
ad	-10.2197
konferenssi	-10.22
▁29	-10.2202
poli	-10.2204
▁suhteellisen	-10.2206
▁mielipide	-10.2209
▁rehu	-10.2209
▁järjestöjen	-10.221
stetaan	-10.2213
▁annamme	-10.2213
▁taloudellis	-10.2217
▁kannata	-10.2217
Britannian	-10.222
▁hyvi	-10.2222
▁esitän	-10.2223
▁kaukana	-10.2228
▁osta	-10.2229
kielto	-10.2235
▁Hänen	-10.2236
▁perustamisesta	-10.2236
tukea	-10.2237
▁Unionin	-10.224
▁uhreja	-10.2244
▁yhtenäistä	-10.2245
▁Sitten	-10.2245
▁tunnustetaan	-10.2252
jää	-10.2253
▁energiaa	-10.2253
▁vierailu	-10.226
▁kutsuttu	-10.2261
▁esimerkkinä	-10.2264
▁huo	-10.2283
▁viitataan	-10.2288
▁tänne	-10.2288
▁Belgian	-10.2291
▁tunnustettava	-10.2291
verkosto	-10.2291
▁pyydetään	-10.2295
res	-10.2298
▁korjaa	-10.23
▁ilmapiiri	-10.2301
▁Näistä	-10.2303
vesi	-10.2304
▁terveyttä	-10.2307
▁kahdeksan	-10.231
▁mukaisia	-10.2312
▁demokraattista	-10.2312
▁vapaus	-10.2313
▁eroja	-10.2315
▁ystävä	-10.2317
▁käytäntö	-10.2317
ide	-10.2321
▁mielipitee	-10.2322
▁joustava	-10.2322
▁Agenda	-10.2323
▁tukien	-10.2328
telle	-10.2331
▁laajenta	-10.2334
▁joukossa	-10.2335
▁työskennellä	-10.234
▁herä	-10.2343
kar	-10.2346
▁keskustelusta	-10.2347
▁tarkista	-10.235
▁johto	-10.2357
▁versio	-10.2357
tieto	-10.2359
bo	-10.2359
▁meiltä	-10.2359
ard	-10.2365
▁käyty	-10.2365
muoto	-10.2368
▁toimenpide	-10.237
▁tarjoavat	-10.2372
ppi	-10.2372
▁välisestä	-10.2375
▁Yhteis	-10.2377
▁maito	-10.2382
▁puiteohjelma	-10.2382
elli	-10.2388
▁Perus	-10.2388
▁Tältä	-10.2391
▁keskustelujen	-10.2394
▁oikeudellista	-10.2403
▁tuskin	-10.2404
▁tehtävän	-10.2405
▁rajoja	-10.2406
lainsäädännön	-10.2407
▁sokeri	-10.2408
▁laajentumista	-10.2409
▁vi	-10.2421
ttäneet	-10.2424
tajia	-10.2426
kokouksen	-10.243
ohjelmaa	-10.2433
teita	-10.2438
▁Tanska	-10.2438
▁teistä	-10.2438
▁itä	-10.2439
ehdotus	-10.2442
imbab	-10.2442
uksien	-10.2444
▁menesty	-10.2446
▁lopet	-10.2446
▁Hyväksy	-10.2448
▁vähiten	-10.245
hke	-10.2457
▁200	-10.2458
deksi	-10.2467
▁odottavat	-10.2471
▁edustajia	-10.2472
▁panos	-10.2479
▁erikois	-10.2481
▁Ensimmäise	-10.2482
toiminta	-10.2482
▁matkustaja	-10.2484
▁kehityksestä	-10.2487
▁taattava	-10.2488
▁edellyttävät	-10.2493
▁riko	-10.2494
▁Siten	-10.2494
▁organisaatio	-10.2502
▁toimielimen	-10.2506
pal	-10.2511
▁tekisi	-10.2513
▁sellaiset	-10.2516
liikenne	-10.2519
▁päättäväisesti	-10.252
ttavissa	-10.2521
▁keskeisiä	-10.2522
▁lopultakin	-10.2524
mmassa	-10.2525
kkaan	-10.2529
▁tyydy	-10.2531
▁rahoituskriisi	-10.2535
▁tarkistaa	-10.2537
▁pidetty	-10.2545
▁perustaminen	-10.2548
▁Li	-10.2548
▁parantaminen	-10.255
kulku	-10.2554
▁sovittu	-10.2554
utunut	-10.2555
kun	-10.2557
▁prosessia	-10.256
sk	-10.2569
▁varainhoitovuo	-10.2572
▁jätetty	-10.2575
mani	-10.2578
▁taho	-10.2581
vastuu	-10.2583
▁kannasta	-10.2587
▁Kolmas	-10.2596
▁tavoitteisiin	-10.2597
▁Irlanti	-10.2599
▁muutosta	-10.2599
▁aloja	-10.2602
▁oikeuksista	-10.2604
toimiin	-10.2606
udesta	-10.2608
▁erityisiä	-10.2609
▁tärkeämpää	-10.2611
▁jatkuu	-10.2611
ttuja	-10.2616
▁alueellisen	-10.2616
▁keinot	-10.2617
▁jäljellä	-10.262
▁suuntautu	-10.2624
▁BSE	-10.2625
▁kysymysten	-10.2628
▁työntekijöille	-10.2628
maailma	-10.2633
▁väittää	-10.2633
▁periaatteet	-10.2638
▁näkemys	-10.2641
▁määritelty	-10.2643
▁kyseiset	-10.2643
▁Heidän	-10.2646
▁Prodi	-10.2648
▁elinten	-10.2651
▁jär	-10.2652
▁suunta	-10.2654
▁etukäteen	-10.2654
▁keskusteltava	-10.2655
▁ajatuksia	-10.2657
tajat	-10.2659
ttamiseen	-10.2661
▁ryhty	-10.2662
▁sitoumuksia	-10.2669
▁sisältöä	-10.2673
▁poista	-10.2676
teitä	-10.2679
▁luotettava	-10.268
▁joutuu	-10.2681
ani	-10.2684
▁uudistuksen	-10.2688
▁jättä	-10.2688
▁huippukokous	-10.269
▁kohdat	-10.2691
▁tavaroiden	-10.2692
▁etenemis	-10.2693
▁rahoittaa	-10.2695
▁historia	-10.2703
▁kolmansi	-10.2705
▁tekemä	-10.2712
▁jäsenistä	-10.2716
▁sie	-10.2719
▁tarttu	-10.2721
▁kallii	-10.2724
▁torjunnassa	-10.273
▁sosiaaliset	-10.273
▁Pan	-10.2734
▁vaikutuksista	-10.2737
alueita	-10.274
▁toisiaan	-10.2745
▁maaperä	-10.2748
3/	-10.2749
järjestöt	-10.2751
▁työvoima	-10.2752
▁muitakin	-10.2755
▁valtuuskunnan	-10.2757
ttavien	-10.2758
▁päivi	-10.2758
yksistä	-10.2761
▁monilla	-10.2764
▁tärkeintä	-10.2765
ttaessa	-10.2769
aalis	-10.2773
▁vaihtoehtoja	-10.2776
kel	-10.2781
▁oleviin	-10.2783
▁aseiden	-10.2784
▁Vielä	-10.2789
▁yksinkertais	-10.2794
▁muuttamisesta	-10.2796
▁todenneet	-10.2797
▁suosituksia	-10.2803
kojen	-10.2805
▁Irlannissa	-10.281
▁jäsenvaltioilla	-10.2815
▁tärkeästä	-10.2818
par	-10.2818
asiakirja	-10.282
▁toiminnassa	-10.282
isella	-10.2821
▁lainsäädäntöön	-10.2822
vistä	-10.2822
suunnitelmaa	-10.2823
▁luke	-10.2826
▁aloitetta	-10.2831
▁kan	-10.2832
2/	-10.2835
▁perustuvaa	-10.2835
▁Nizzan	-10.2836
▁vapaata	-10.2841
▁tarkastelu	-10.2842
mb	-10.2845
▁syyskuuta	-10.2848
▁paikkansa	-10.2848
teko	-10.2852
▁Tul	-10.2859
▁tarkka	-10.286
▁demokraattien	-10.2865
▁arvostelu	-10.2866
▁sisältyvät	-10.2867
▁vapauttamista	-10.2869
▁mar	-10.287
▁palaut	-10.2872
▁töitä	-10.2872
▁koro	-10.2873
▁tarpeisiin	-10.2873
▁antaisi	-10.2874
▁noudattamista	-10.2878
▁puolet	-10.2885
▁nopeammin	-10.2885
▁kriisistä	-10.289
eetti	-10.2892
▁kilpail	-10.2896
▁ennakko	-10.2897
▁muutettava	-10.2898
▁70	-10.2899
▁Saksassa	-10.29
▁konfliktin	-10.2904
▁tekemi	-10.2909
▁Niitä	-10.2909
▁esteet	-10.291
▁jossain	-10.2911
titte	-10.2912
▁itsemääräämis	-10.2913
▁välityksellä	-10.2913
▁kuvaa	-10.2919
▁puolta	-10.2919
for	-10.2925
▁herättää	-10.2926
▁toistuvasti	-10.2928
ing	-10.2932
ck	-10.2936
▁Silloin	-10.2937
▁toistu	-10.2937
▁hallitu	-10.2938
▁etua	-10.2938
aivo	-10.2947
ttamisesta	-10.2948
▁sijaitseva	-10.2949
▁globaali	-10.2955
▁kuulleet	-10.2955
▁merkityksen	-10.2957
▁todista	-10.2957
▁osoitti	-10.2961
▁näkökohta	-10.2967
toi	-10.2969
▁kustannusten	-10.2971
isuuteen	-10.2974
▁Unkari	-10.2978
▁tarjottava	-10.2979
▁kerää	-10.2979
▁pohtia	-10.2986
▁tunnista	-10.2987
▁sisäise	-10.2987
▁pyynnön	-10.2993
elin	-10.2993
▁sosiaalisten	-10.2996
▁parannetaan	-10.2997
▁puhujan	-10.2998
▁sanoo	-10.3001
▁sosialisti	-10.3003
▁lisääntymis	-10.3005
▁pääosasto	-10.301
▁jakaa	-10.3012
▁ehdokasvaltioi	-10.3015
▁ulottu	-10.302
▁lei	-10.3021
▁etene	-10.3022
▁paremman	-10.3022
▁tarpeet	-10.3022
▁Fa	-10.3023
teltava	-10.3025
yhtiö	-10.3025
▁tasolle	-10.3029
▁arvonlisävero	-10.3033
▁päivää	-10.3034
komitea	-10.3037
suhteita	-10.3039
sopimukseen	-10.304
▁rakennus	-10.3041
▁ympäri	-10.3043
▁vilpittömästi	-10.3044
▁kunnioitettava	-10.3046
▁nähneet	-10.3047
▁operaatio	-10.305
▁oteta	-10.3052
▁sisältö	-10.3055
▁her	-10.3056
▁ajanjakso	-10.3059
▁selittää	-10.3061
järjestelmät	-10.3061
▁ilmoitta	-10.3068
▁samoja	-10.3072
▁yhteyttä	-10.3075
▁vuodeksi	-10.3076
▁Sch	-10.3079
▁pohdittava	-10.309
ttujen	-10.3097
▁kuuluva	-10.3099
▁Luo	-10.3099
▁Tar	-10.3105
▁Ympäristö	-10.3106
▁mielipiteen	-10.3108
▁jäädä	-10.3108
▁Ryhmäni	-10.3108
▁nykyiset	-10.311
▁vetoa	-10.311
▁tiedonannon	-10.3118
kal	-10.3123
elämän	-10.3123
▁neuvotella	-10.3123
port	-10.3124
idemme	-10.3127
▁investointi	-10.3138
Istunto	-10.3141
▁eroon	-10.3142
▁jäävät	-10.3145
maissa	-10.3148
▁uudessa	-10.3156
atte	-10.3158
tämään	-10.3159
▁osallistumaan	-10.3161
▁integroi	-10.3166
▁käyttäjä	-10.3167
koko	-10.3168
▁laajasti	-10.3169
▁jäte	-10.317
▁opetus	-10.3176
▁Iran	-10.3176
▁Balkanin	-10.3178
▁romani	-10.3179
▁saari	-10.318
ttömiä	-10.3182
▁tuota	-10.3182
▁lähentymis	-10.3183
▁johtavat	-10.3184
▁ilmoitti	-10.3185
▁tarkastus	-10.3186
▁ehtoja	-10.3186
▁arvioidaan	-10.3188
▁miljoona	-10.3189
▁suhtaudun	-10.319
▁varoista	-10.3195
▁Unioni	-10.3197
▁Ymmärrän	-10.3197
▁mahdollisuuksi	-10.3197
▁jätetään	-10.3199
▁23	-10.3199
nainen	-10.3206
ttely	-10.3207
▁yhdellä	-10.3209
▁esitety	-10.321
▁ilmaisu	-10.3211
▁Puola	-10.3211
▁Ga	-10.3213
▁konkreettise	-10.3213
▁poistamista	-10.3216
▁joutua	-10.3218
sivät	-10.3221
ida	-10.3223
▁lähestymistava	-10.3224
kielis	-10.3228
▁paikan	-10.3228
▁tilaa	-10.323
▁sektorin	-10.3235
▁teknologian	-10.3243
mmät	-10.3243
essään	-10.3244
▁siirtolais	-10.3245
tuotannon	-10.3245
▁menestykse	-10.3246
▁säännösten	-10.3246
▁maksettava	-10.3246
menetelmä	-10.3247
▁vastaista	-10.3249
▁aktiivise	-10.3251
liitto	-10.3251
▁korvata	-10.3253
▁patentti	-10.3255
▁näkökohdat	-10.3255
▁keskityttävä	-10.3255
▁uusista	-10.3256
▁täydellinen	-10.326
▁euroon	-10.3267
▁löytämään	-10.3268
päästöjen	-10.3268
▁eurooppalais	-10.327
▁Brysselin	-10.3275
eurooppalaisesta	-10.3275
tellut	-10.3276
pohja	-10.3278
▁esitetyt	-10.3301
▁henkilöitä	-10.3302
▁90	-10.3304
▁tuet	-10.3304
tinen	-10.3307
ok	-10.3308
▁luu	-10.3312
▁12.00.	-10.3314
▁Kaiken	-10.3314
▁rakentava	-10.3316
▁alusten	-10.3316
ympäristö	-10.3319
▁yhdenvertais	-10.3321
▁toisella	-10.3322
▁ponnisteluja	-10.3326
kyvy	-10.3326
raha	-10.3326
jiin	-10.3327
▁puolen	-10.3328
▁korvaus	-10.333
6/	-10.3334
▁huolehtia	-10.3338
▁alojen	-10.3343
▁tarkistuksessa	-10.3345
▁totesin	-10.3347
▁elämää	-10.3358
▁yhtenäisen	-10.3366
▁tehtävien	-10.337
▁toteuttaminen	-10.3371
▁lentoyhtiö	-10.3375
itta	-10.3378
▁vaarantaa	-10.3379
▁humanitaarisen	-10.3384
▁kompromissin	-10.3385
▁ohjaa	-10.3386
▁yhdentymisen	-10.3388
▁kyl	-10.3391
▁heikentä	-10.3392
▁kilpailukyky	-10.3394
misella	-10.3395
▁sanoitte	-10.3396
▁korkei	-10.3399
▁ylläpitä	-10.3403
▁pääsyä	-10.3407
▁tulosta	-10.3407
▁lainsäädännössä	-10.3409
ketju	-10.341
▁selkeitä	-10.3413
▁politiikassa	-10.3416
isyys	-10.3417
▁tietoon	-10.3419
▁tähden	-10.342
▁tiedonannossa	-10.342
▁toimielimiä	-10.342
▁yhteisössä	-10.3422
▁valtiota	-10.3422
▁miljardin	-10.3423
▁lakkautta	-10.3423
▁välineet	-10.3425
▁turvata	-10.3425
▁pol	-10.3427
▁hankala	-10.3427
▁polttoaine	-10.3428
▁kiire	-10.343
▁pääsihteeri	-10.3434
▁1995	-10.3437
▁pahe	-10.3438
▁käynnistämi	-10.344
kehyks	-10.3443
▁roolia	-10.3446
▁määritellään	-10.3448
▁pyydämme	-10.3448
▁puhujat	-10.3448
▁ensisijainen	-10.3452
▁luultavasti	-10.3458
▁viite	-10.3463
▁suuntaviivat	-10.3464
▁valtavia	-10.3466
▁pelkkä	-10.3469
▁erillis	-10.3471
eni	-10.3472
▁kasvi	-10.3477
▁päivittäin	-10.3477
▁määrärahojen	-10.3477
▁naapuri	-10.3478
▁yksittäisi	-10.348
uk	-10.348
teille	-10.348
mar	-10.3482
▁keskisuurten	-10.3483
▁ehdottanut	-10.3486
uudessa	-10.3487
▁toteutettavi	-10.3489
▁perusoikeuksien	-10.3495
▁alkoholi	-10.3502
▁kantansa	-10.3502
▁edustajan	-10.3503
▁virka	-10.3504
▁usea	-10.3507
▁vaikut	-10.351
▁päästö	-10.351
▁hyväkseen	-10.3513
▁kohde	-10.3514
▁pääty	-10.3517
kertomukse	-10.3518
▁Tarvitaan	-10.3521
eurooppalaisille	-10.3523
tro	-10.3523
▁loistava	-10.3524
toimenpiteitä	-10.3526
▁näkemystä	-10.353
oilla	-10.3531
▁tuoma	-10.3533
▁esimerkkejä	-10.3534
▁tarkoitetu	-10.3536
esi	-10.3538
▁Ihmis	-10.3541
muk	-10.3544
▁suhteissa	-10.3545
ikki	-10.3545
▁pelko	-10.3548
▁Ongelma	-10.3554
gel	-10.3555
▁teema	-10.3558
▁vähene	-10.3559
▁isku	-10.3562
▁edessämme	-10.3568
▁hallinnoi	-10.3568
▁sukupuoli	-10.3578
▁hyvinvointi	-10.3581
haa	-10.3584
▁keskeise	-10.3594
▁esitettiin	-10.3596
▁Gu	-10.36
▁uusiutu	-10.3602
▁kiintiö	-10.3602
kirjo	-10.3602
taisiin	-10.3603
▁puhemiehistö	-10.3604
▁lakeja	-10.3604
▁kehys	-10.3606
▁vääristy	-10.3611
▁selkeän	-10.3613
▁perheen	-10.3621
▁lisäarvoa	-10.3627
tetun	-10.3629
sopimuksia	-10.363
▁normaali	-10.3636
ttämisestä	-10.3637
▁maanosa	-10.3638
▁hilja	-10.3642
▁johtaja	-10.3645
▁tekstiä	-10.3646
▁resursseja	-10.3648
kerta	-10.3649
▁lääkkeiden	-10.365
▁perusteellise	-10.3652
selle	-10.3657
järjestys	-10.3657
▁turvallis	-10.366
▁Pe	-10.366
▁viraston	-10.3661
▁kuluttajia	-10.3661
peruste	-10.3663
ori	-10.3671
▁San	-10.3671
telleet	-10.3672
mattoman	-10.3672
▁kumma	-10.3673
▁mahdollisen	-10.3674
▁riippumaton	-10.3674
▁uskoakseni	-10.3675
▁aloitteesta	-10.3677
verkko	-10.368
teollisuus	-10.3683
▁Yrit	-10.3685
▁kiitokset	-10.3688
▁kannattava	-10.3691
▁kohdistuu	-10.3691
lje	-10.3699
▁kuuntele	-10.37
▁tiedo	-10.3702
▁ansio	-10.3702
▁politiikkojen	-10.3702
mit	-10.3703
▁käsittelemme	-10.3703
▁väliseen	-10.3705
▁kalastuksen	-10.3706
▁kehittämis	-10.3706
▁liikkuvuus	-10.3706
etty	-10.371
▁pelasta	-10.3715
▁sektori	-10.3717
▁ilmaisi	-10.3717
▁edustavat	-10.3717
rasit	-10.3718
▁Intia	-10.3719
▁Ve	-10.372
▁vihdoin	-10.3721
4/	-10.3726
teksti	-10.3729
menettelyyn	-10.3729
tekniikka	-10.373
▁johti	-10.3732
▁vahvistu	-10.3732
eillä	-10.3733
Välimeri	-10.3734
▁foorumi	-10.3734
▁puolueiden	-10.3737
▁ohjaus	-10.3741
▁menee	-10.3744
▁saavutetaan	-10.3751
▁helppoa	-10.3756
▁pienet	-10.3758
oille	-10.3762
▁nähdäkseni	-10.3762
arvio	-10.3763
eista	-10.3763
▁kielto	-10.3764
▁historian	-10.3769
▁ehdotti	-10.377
▁arvioitava	-10.377
▁asetukseksi	-10.3771
piir	-10.3779
▁huolehdittava	-10.3779
▁uudistukse	-10.3779
▁vastauksia	-10.378
energialähteiden	-10.3784
▁reaktio	-10.3785
▁Nyky	-10.3786
▁mahdollis	-10.3789
▁ehdotetu	-10.379
aj	-10.379
▁inflaatio	-10.3791
▁käydy	-10.3793
▁päättäneet	-10.3807
▁otti	-10.3809
▁Eri	-10.3812
not	-10.3813
▁tä	-10.3813
eri	-10.3815
empaa	-10.3819
▁Bar	-10.382
▁käsitte	-10.382
ttäviä	-10.3824
▁keskitytään	-10.3824
▁otettiin	-10.3829
▁kuullut	-10.383
▁noudat	-10.3833
hoito	-10.3834
▁huhtikuuta	-10.3839
tunno	-10.3843
▁määrätä	-10.3845
▁kollegamme	-10.385
▁viitata	-10.3851
▁terrorismia	-10.3852
▁torjunnan	-10.3857
▁pystyvät	-10.3861
▁mikro	-10.3862
▁kestä	-10.3865
▁säädös	-10.3865
▁hyväksymme	-10.3869
Y	-10.387
▁yhteensovitta	-10.3874
▁maksamaan	-10.3875
▁ruo	-10.3875
▁järjestetään	-10.3875
▁lisäämiseksi	-10.3876
▁parantamista	-10.3878
ff	-10.3881
▁Tanskan	-10.3887
▁muutoksen	-10.389
▁mahdolliset	-10.389
▁keskustelut	-10.3893
▁poliittisista	-10.3896
las	-10.3897
▁saama	-10.3897
▁hänet	-10.39
▁Vuoden	-10.3901
▁2,	-10.3904
▁yrityksen	-10.3906
▁paikallisten	-10.3906
▁ratifiointi	-10.3908
▁valo	-10.3908
▁35	-10.3909
maahanmuuttajien	-10.3909
▁peruu	-10.3914
▁tukemme	-10.3915
tuksista	-10.3918
▁Afganistanin	-10.3919
▁nuoret	-10.3921
▁häviä	-10.3921
toihin	-10.3921
▁rohkeutta	-10.3921
risti	-10.3923
alojen	-10.3928
▁lapset	-10.3928
▁lähde	-10.3932
7/	-10.3943
komitean	-10.3946
▁Serbian	-10.3946
▁kesä	-10.3947
▁kansallinen	-10.3947
▁Luulen	-10.3948
ETY	-10.3948
▁etten	-10.3949
▁kuukausina	-10.3951
▁konferenssissa	-10.3951
kauppa	-10.3953
▁0,	-10.3955
tunto	-10.3957
▁ajoi	-10.3959
▁parannuksia	-10.3961
▁myynti	-10.3965
vissä	-10.3965
asioista	-10.3967
▁lue	-10.3967
käsittely	-10.3974
tra	-10.3974
▁kokoonpano	-10.3974
▁ulkopuolisi	-10.3974
▁tutkinta	-10.3976
▁Italiassa	-10.3978
▁puhemiehen	-10.3982
▁kohtelu	-10.3983
▁laitonta	-10.3983
▁äänestimme	-10.3984
arviointi	-10.3984
▁vapautu	-10.3985
▁sanoja	-10.3989
kysymys	-10.399
▁ajatella	-10.3991
▁uudistusten	-10.3993
▁määrittele	-10.3994
▁Oma	-10.3994
▁vastainen	-10.3995
▁Alue	-10.3996
▁suunnattu	-10.3999
▁ryhdy	-10.4007
▁oppositio	-10.4008
▁kuvitella	-10.4008
▁radio	-10.4015
ivät	-10.4015
strategiaa	-10.4017
▁toimivan	-10.402
▁hengessä	-10.4021
▁tilan	-10.4025
▁Ed	-10.4027
viranomaisen	-10.4027
▁viini	-10.4028
▁seurauksista	-10.4029
sitte	-10.403
tävät	-10.4032
rit	-10.4034
▁tarjotaan	-10.4035
▁viimeksi	-10.4042
▁konservatiivi	-10.4043
▁alueellisten	-10.4044
▁kansainväliset	-10.4047
▁paljasta	-10.4048
ell	-10.4054
▁Barcelonan	-10.4054
▁ikä	-10.406
▁aiheutuvi	-10.4061
utetaan	-10.4066
▁pyrkimyksiä	-10.4066
▁Annan	-10.4069
▁Kansa	-10.4073
▁tarkasta	-10.4079
▁lupaa	-10.4079
▁lopu	-10.4081
▁minut	-10.4081
▁lupa	-10.4086
▁ilmoittanut	-10.4087
▁Tai	-10.4088
demokraattien	-10.4089
▁lausu	-10.409
yksimielisyyteen	-10.4094
▁kertomus	-10.4095
▁huoma	-10.4098
▁tasapainon	-10.4098
tettäisiin	-10.4099
▁tavoi	-10.4102
▁kerro	-10.4102
▁perustellusti	-10.4104
▁puheenvuoroa	-10.4118
asteen	-10.4121
▁oloissa	-10.4122
▁määräysten	-10.4123
."	-10.4123
▁selvitys	-10.4125
▁vähitellen	-10.4128
▁olennaista	-10.4128
tujen	-10.4129
str	-10.413
▁aidosti	-10.4132
järjestelmästä	-10.4133
▁tukemiseksi	-10.4135
hoido	-10.4136
sektori	-10.4136
▁myöntämistä	-10.4138
▁poistaminen	-10.414
▁nuori	-10.4146
alainen	-10.4147
▁poistetaan	-10.4148
▁kai	-10.4148
▁toimin	-10.4153
isena	-10.4159
ger	-10.4166
tor	-10.4168
▁laajaa	-10.417
vuudesta	-10.4172
▁yksityisen	-10.4174
▁sääntelyä	-10.4175
▁politiikkaan	-10.4176
▁asettama	-10.4181
meno	-10.4184
▁kriteerit	-10.419
▁vähentä	-10.419
▁halunnut	-10.419
piiri	-10.4192
-20	-10.4192
▁tukeni	-10.4195
▁kunnioittaa	-10.4198
rikkomuksi	-10.4199
▁hallintoa	-10.4199
tuomioistuime	-10.4199
▁osapuoli	-10.42
nnissa	-10.4205
▁Schengen	-10.4206
▁kulutus	-10.4208
▁syyllisty	-10.4212
▁havaita	-10.4216
sh	-10.4216
▁diplomaatti	-10.422
▁hyödyllistä	-10.4224
▁uudestaan	-10.4225
turva	-10.4236
▁verotus	-10.424
▁puh	-10.4242
▁aion	-10.4242
▁viranomaisia	-10.4243
▁kirjoitta	-10.4244
▁perusteet	-10.4245
▁kiinnosta	-10.4248
▁köy	-10.4249
lain	-10.425
▁yhtenäinen	-10.4255
▁teknisiä	-10.4255
▁toimisto	-10.4256
▁äänestämään	-10.4256
▁useissa	-10.4257
▁Ilman	-10.4258
▁kehittämään	-10.4259
▁Yhteisön	-10.426
vaihto	-10.426
▁valtavan	-10.4264
▁öljyn	-10.4267
▁näkökulma	-10.4268
▁Ju	-10.4269
arvoa	-10.427
▁yhteensä	-10.4273
▁edellisen	-10.4274
luokka	-10.4274
9/	-10.4274
▁kirjan	-10.4275
▁edelleenkin	-10.4287
▁laajan	-10.4288
▁olin	-10.4296
▁yhdestä	-10.4297
▁Slovenia	-10.4304
ikko	-10.4305
▁kolmea	-10.4306
▁Vuosi	-10.4311
▁tuodaan	-10.4315
▁sanoisin	-10.4319
HU	-10.4319
▁mukanaan	-10.4321
▁sääntö	-10.4322
▁Kosovo	-10.4323
henkilö	-10.4324
▁välisessä	-10.4327
alueella	-10.4329
politiikalla	-10.4329
▁torstaina	-10.433
Afrikan	-10.433
▁In	-10.433
▁johdanto	-10.4332
▁tämänpäiväis	-10.4334
▁ajatuksen	-10.4334
▁säännökset	-10.4337
▁hinnat	-10.4337
aikaa	-10.4338
▁molempien	-10.4339
▁toimivallan	-10.4339
▁noudata	-10.4346
▁kunnioitetaan	-10.4346
10	-10.4346
▁omalla	-10.4347
▁Kroatian	-10.4348
▁kansaa	-10.435
▁Käy	-10.4353
▁sanoneet	-10.4356
▁kyseistä	-10.4367
▁ohjelmaa	-10.4369
miehen	-10.4371
suhteisiin	-10.4374
apu	-10.4375
▁elpy	-10.4381
tusten	-10.4381
▁ajatukse	-10.4385
yhteistyö	-10.4386
▁säästö	-10.4386
▁kes	-10.4386
▁symboli	-10.4387
▁väestöstä	-10.4388
▁johtuvat	-10.4389
tse	-10.4392
▁vahvistamaan	-10.4393
▁parempia	-10.4398
▁huonosti	-10.44
▁ensimmäiseksi	-10.4401
▁vuo	-10.4403
markkinoita	-10.4407
▁yhtyä	-10.4408
▁alueellista	-10.4412
▁kaikilta	-10.4415
liikennettä	-10.4415
suunnitelmi	-10.4416
▁syynä	-10.4418
▁alustava	-10.4419
Korean	-10.442
▁tupakan	-10.4421
▁alla	-10.4422
▁maaseutu	-10.4422
▁julkinen	-10.4425
▁laittoma	-10.4435
tuksi	-10.4436
▁pakolaisten	-10.4438
eissa	-10.4441
▁järjestettävä	-10.4447
▁Tavoitteena	-10.4447
▁demokraattisten	-10.4449
▁i	-10.4453
▁puitteet	-10.4456
▁saavuttaneet	-10.4457
▁keskity	-10.4458
▁maahanmuuttoa	-10.446
▁solidaarisuuden	-10.4465
▁poikkeukse	-10.4467
▁hyväksyneet	-10.4471
▁maataloutta	-10.4471
ps	-10.4473
▁talouskriisi	-10.4473
uutensa	-10.4476
▁ura	-10.4477
▁terveydenhuollo	-10.4478
▁asetusta	-10.4483
▁uhra	-10.4484
▁uskottava	-10.4484
▁pidetyssä	-10.4488
tur	-10.4489
▁vastuulla	-10.449
vuuteen	-10.4494
▁yhteiskunnassa	-10.4494
▁toimenpiteistä	-10.4495
▁tukensa	-10.4498
▁lapsen	-10.4498
▁tasavalta	-10.4498
sille	-10.45
▁artiklaa	-10.45
▁tuotteet	-10.45
rangaistuksen	-10.4502
▁lupaukse	-10.4504
▁äiti	-10.4506
▁analysoi	-10.4508
▁heinäkuuta	-10.4509
uudella	-10.451
▁ajatellen	-10.4519
▁ohi	-10.4522
tietoja	-10.4523
▁kasvihuonekaasu	-10.4526
osapuolten	-10.4527
▁ehkäisy	-10.453
puheenvuoro	-10.4532
▁kumppanuuden	-10.4532
aikainen	-10.4537
ren	-10.454
▁monopoli	-10.454
▁työttömyyden	-10.4542
järjestöjä	-10.4542
▁Aivan	-10.4543
tia	-10.4544
▁rannikko	-10.4545
ensä	-10.4547
▁vuosikymmen	-10.4547
isuudesta	-10.4548
▁rahoittami	-10.455
▁uudistusta	-10.4552
▁arvojen	-10.4552
▁vil	-10.456
▁vaarallise	-10.4561
▁sisällytetään	-10.4562
▁paha	-10.4564
tilanne	-10.4568
pyrkimykse	-10.4569
missä	-10.457
▁Talous	-10.4574
▁jatkamaan	-10.4576
▁toteuttamisesta	-10.4579
▁ominais	-10.4581
▁Koko	-10.4582
▁instituutio	-10.4584
▁pysyvä	-10.4587
▁valkoise	-10.4587
za	-10.4587
▁investointien	-10.4587
emburgin	-10.4589
▁vähentämiseksi	-10.4594
▁marraskuussa	-10.4596
▁Odotamme	-10.4597
▁onnistui	-10.4599
prosessia	-10.4599
▁toteuttama	-10.46
▁takaamiseksi	-10.4602
▁suuntaviivoja	-10.4603
▁kunnolla	-10.4604
koon	-10.4606
▁direktiiviksi	-10.4608
▁valossa	-10.4615
pin	-10.4617
▁tieteellise	-10.462
▁pyri	-10.4621
▁edistävät	-10.4622
▁Olin	-10.4623
▁yleissopimukse	-10.4625
▁viranomaisille	-10.4631
▁sisällytetty	-10.4633
▁ihme	-10.4634
ehto	-10.4635
▁ollessa	-10.4635
▁naisille	-10.4635
LT	-10.4636
▁Sanon	-10.4637
▁teknologia	-10.4642
▁muuttamaan	-10.4642
▁saatetaan	-10.4643
▁erilaisten	-10.4647
▁katsoa	-10.4649
▁epätasapaino	-10.4653
▁varainhoito	-10.4654
▁tiety	-10.4657
▁kansakuntien	-10.466
ohjelmia	-10.4661
▁asianmukaisen	-10.4663
▁soveltaminen	-10.4666
▁nuoria	-10.4666
▁tavoitteemme	-10.4667
taminen	-10.4667
▁Ehdotus	-10.4673
▁menojen	-10.4677
▁Irak	-10.4679
▁ennakoi	-10.4684
oissa	-10.4687
▁harkitse	-10.4687
▁Kannatamme	-10.4689
▁panosta	-10.4689
odo	-10.469
▁Georgian	-10.469
isiksi	-10.4691
▁huomattavaa	-10.4691
teltu	-10.4691
▁tarkoitan	-10.4692
▁tapahtuva	-10.4695
▁pitämään	-10.4695
▁presidentin	-10.4702
▁näkemyksen	-10.4709
▁otteeseen	-10.471
▁päätöslauselmi	-10.471
▁menestys	-10.471
om	-10.4711
▁hävi	-10.4712
▁johdonmukaisuu	-10.4712
▁seuraavien	-10.4714
▁käsittele	-10.4715
▁puuttee	-10.4715
▁pakottaa	-10.4719
mere	-10.4722
▁hedelmä	-10.4722
▁palvelut	-10.4723
▁arabi	-10.4724
▁Do	-10.4724
sääntöjen	-10.4727
tamista	-10.4728
▁Mietinnön	-10.4731
▁ytime	-10.4731
▁varmoja	-10.4731
yri	-10.4733
hallin	-10.4735
▁puoleen	-10.4741
▁uhri	-10.4742
▁tutkittava	-10.4742
▁huomautuksen	-10.4743
iselle	-10.4743
▁jälki	-10.4745
▁viivy	-10.4746
▁välineiden	-10.4747
esityksessä	-10.4748
▁kunnianhimo	-10.4749
▁tehostaa	-10.475
▁keskuspankki	-10.4753
▁keskusteltu	-10.4753
▁aiheutuu	-10.4754
▁tekstissä	-10.4764
tuisi	-10.4766
▁täydentävä	-10.477
ittain	-10.4774
▁Meille	-10.4776
reita	-10.4776
▁suojellaan	-10.4779
▁äänesti	-10.4783
▁kokonaisvaltais	-10.4785
▁viljel	-10.4788
▁liittyi	-10.479
▁valtavasti	-10.479
▁mallin	-10.4792
tuminen	-10.4797
▁vankila	-10.4802
har	-10.4807
▁haluatte	-10.4808
edustus	-10.4808
▁Ehkä	-10.4808
huolto	-10.4809
▁esittelijöitä	-10.481
kuntaa	-10.4811
▁vastaisen	-10.4815
periaate	-10.4817
▁tarpeesta	-10.4817
▁kiinnitetään	-10.4821
▁asteittain	-10.4824
jakso	-10.4826
▁Teidän	-10.4827
▁eikö	-10.4828
▁ilmenee	-10.4835
▁ajoissa	-10.4836
▁Lisä	-10.4837
▁esimerkin	-10.4839
▁täsmä	-10.4842
▁tulosten	-10.4844
kokouksessa	-10.4845
J	-10.4846
▁Bu	-10.4848
▁kuuli	-10.4856
▁kutsutu	-10.4858
ttoman	-10.486
▁luomiseksi	-10.4862
▁vähentämään	-10.4863
ohja	-10.4864
▁ovatko	-10.4866
▁matkustajien	-10.4869
▁taloudelliseen	-10.4873
▁olevassa	-10.4879
▁toteuttamiseksi	-10.4879
tuja	-10.4883
▁määrärahat	-10.4884
▁avata	-10.4888
teista	-10.4889
▁taistele	-10.489
▁oleskelu	-10.4897
▁ravinto	-10.4904
▁vaaleja	-10.4905
▁peruskirja	-10.4906
▁mie	-10.4907
▁aito	-10.4908
siä	-10.4916
▁tehtävät	-10.4918
▁suhtautua	-10.4921
prosentti	-10.4923
▁ark	-10.4928
▁sosiaaliseen	-10.4929
▁toimilla	-10.4931
elinten	-10.4935
▁julista	-10.4935
mätön	-10.4936
▁huomioi	-10.494
▁olosuhteet	-10.494
▁huolissani	-10.4941
▁riippuvaisia	-10.4945
▁askeleen	-10.4946
ira	-10.4947
ttyä	-10.4949
▁suurelta	-10.4958
ettaisiin	-10.4958
neitä	-10.4959
▁menestystä	-10.4959
▁tulevia	-10.4962
▁luettuna	-10.4962
▁määräenemmistö	-10.4963
oikeudet	-10.4972
sääntöjä	-10.4976
▁Latinalaisen	-10.4977
▁määrittely	-10.4977
▁kulunut	-10.4977
▁oikeusperusta	-10.4977
▁sata	-10.4986
▁pika	-10.4987
siir	-10.4991
▁aiheen	-10.4992
▁aiheuttanut	-10.4992
▁kohteena	-10.4992
merkki	-10.4992
daan	-10.4997
▁saksalais	-10.4998
▁kuulijat	-10.5
▁vaihtoehdo	-10.5005
▁onnittelen	-10.5007
▁hinnan	-10.5008
▁kiitokseni	-10.5011
tuksiin	-10.5012
non	-10.5013
▁sanaa	-10.5014
▁Internetin	-10.5014
▁laji	-10.502
▁2013	-10.5021
▁ulottuvuus	-10.5022
meri	-10.5025
▁selkeää	-10.5027
8/	-10.5027
▁asialista	-10.5035
▁ennuste	-10.5037
▁moniin	-10.504
▁meneillään	-10.5043
▁välttämättömä	-10.5045
▁talousarviossa	-10.5045
ag	-10.5046
▁Jäsenvaltiot	-10.5049
koja	-10.5052
▁oikeudellis	-10.5054
▁pah	-10.5055
▁voitto	-10.5055
▁tuhla	-10.5058
gin	-10.5063
▁sanotu	-10.5067
▁direktiiviin	-10.5068
varojen	-10.5069
▁kalasta	-10.5069
stamme	-10.507
ilija	-10.5075
▁aiheena	-10.5076
▁laivasto	-10.5077
▁toivottaa	-10.5079
▁vakaasti	-10.5079
▁talouteen	-10.5079
▁nykyisiä	-10.5083
▁käsitteli	-10.5088
▁Ehdot	-10.5089
▁riippu	-10.509
vit	-10.5091
▁kol	-10.5092
▁esittämät	-10.5094
▁yhtäältä	-10.5095
▁Di	-10.5096
lti	-10.5097
▁17.	-10.5101
▁ratkaisuun	-10.5102
▁keskinäise	-10.5103
▁hyötyvät	-10.5104
▁reilu	-10.5105
▁oikeudellisesti	-10.5105
▁huolen	-10.511
▁kehitysmaissa	-10.5112
▁sisämarkkinat	-10.5114
▁toteaa	-10.5115
▁hylkäsi	-10.5117
▁kaltaisten	-10.5117
▁yksinkertaise	-10.5118
▁tuntee	-10.5118
ak	-10.5122
▁ystävi	-10.5122
▁Odotan	-10.5125
▁rajoituksia	-10.5125
▁lieventä	-10.5126
vani	-10.5131
▁helmikuuta	-10.5133
▁asianmukaisia	-10.5133
päästöjä	-10.5138
▁melu	-10.5139
▁annettiin	-10.5139
▁keskeytti	-10.514
▁ele	-10.5143
▁tarkoi	-10.5143
▁vapauttaminen	-10.5145
▁valtuudet	-10.5146
▁keskey	-10.5149
▁tehdyt	-10.515
▁juo	-10.515
▁tuhansia	-10.5153
koulu	-10.5155
▁neuvoa	-10.5158
aihe	-10.5159
▁joudumme	-10.5161
▁koi	-10.5162
▁prosentilla	-10.5162
▁johtama	-10.5163
▁sinne	-10.5168
▁perusteltua	-10.5168
▁komitean	-10.5175
▁vahvistaminen	-10.5176
▁eurooppalaiseen	-10.5181
▁kir	-10.5182
▁pyrkimyksi	-10.5182
▁suuntaviivojen	-10.5184
viksi	-10.5185
▁kehittä	-10.5186
▁varattu	-10.5188
▁valmistelija	-10.5192
▁suositus	-10.5193
kirja	-10.5195
▁leima	-10.5196
kriteeri	-10.5197
▁sinänsä	-10.5199
▁tehokkuuden	-10.5207
▁kohdistuva	-10.5209
muodost	-10.5217
▁muuttunut	-10.5219
▁oikean	-10.5221
▁erinomaista	-10.5222
▁esittämistä	-10.5223
▁seuraavaksi	-10.5226
▁artiklaan	-10.5228
▁Serbia	-10.5231
▁voimakkaa	-10.5235
▁saatiin	-10.5236
▁liittyvissä	-10.5243
▁kuuluvien	-10.5243
▁ulkoasiain	-10.5246
ss	-10.5248
▁kehittämiseksi	-10.5251
▁maaliskuussa	-10.5252
oikeudenmukainen	-10.5254
peli	-10.5254
ttomuus	-10.5256
▁kuukausien	-10.5256
ini	-10.5259
▁pitäen	-10.5259
desta	-10.5265
2003	-10.5266
▁parannus	-10.5267
▁vapauteen	-10.5267
br	-10.5269
▁puhuja	-10.5273
▁johda	-10.5273
▁hallinnollise	-10.5282
▁joustavuutta	-10.5282
▁vähe	-10.5287
teknologia	-10.5288
▁enemmistöllä	-10.5289
▁köyhyyttä	-10.5289
▁edistämiseen	-10.5291
▁joutunut	-10.5298
▁Naton	-10.5299
▁panokse	-10.5299
▁vähentäminen	-10.5299
kanta	-10.5302
▁Lo	-10.5303
▁erinomaisen	-10.5312
▁melkein	-10.5312
▁tuotantoa	-10.5314
▁Kukaan	-10.5321
04	-10.5323
▁puheenjohtajaa	-10.5324
▁jälleenrakenta	-10.5327
▁hengen	-10.5328
▁uskonto	-10.5328
▁juurikaan	-10.5329
▁varm	-10.533
▁suurimman	-10.5332
▁tuomi	-10.5335
kselle	-10.5339
▁haluaisimme	-10.5342
▁tekemästään	-10.5342
▁hakija	-10.5342
▁minuutin	-10.5345
▁luotto	-10.5349
▁tasapainoinen	-10.5349
▁torjuntaan	-10.5349
▁lopullinen	-10.5352
▁toimeenpano	-10.5352
dan	-10.5355
suoja	-10.5355
puu	-10.5356
▁henkeä	-10.5357
▁useimmat	-10.5358
luonnoksen	-10.5358
▁määrätty	-10.5358
▁sopimuksella	-10.5359
▁johtajat	-10.5363
logi	-10.5363
▁pysyy	-10.5364
▁todettiin	-10.5365
▁työntekijä	-10.5366
▁neuvotteluihin	-10.5367
▁julki	-10.5367
ippu	-10.5369
▁kertoi	-10.5372
▁useaan	-10.5372
▁GUE	-10.5373
ij	-10.5377
▁johdonmukaise	-10.5377
▁verotuksen	-10.5379
▁liittymisen	-10.538
▁uusiutuvien	-10.5384
▁Kroatia	-10.5385
▁tarkastelemme	-10.5388
operaatio	-10.5388
kansainvälisellä	-10.5389
▁veronmaksajien	-10.539
▁asettu	-10.5393
▁ankara	-10.5394
▁vähentämistä	-10.5395
▁syntynyt	-10.5396
mattomia	-10.5403
▁työryhmä	-10.5405
johdonmukaisesti	-10.5405
kkeet	-10.5405
▁työllistä	-10.5406
ttäessä	-10.5407
▁tekijöitä	-10.5417
▁mietinnössään	-10.5418
luku	-10.5418
▁ratkaistu	-10.5419
▁sanovat	-10.5425
viranomaiset	-10.5426
▁säilytettävä	-10.5428
▁Valtio	-10.5433
▁keskeistä	-10.5434
kri	-10.5434
ukselle	-10.5435
▁päästään	-10.5437
nos	-10.544
▁tuottajien	-10.5442
▁kiireellisesti	-10.5442
▁ihmisoikeudet	-10.5443
▁menettelyjen	-10.5443
▁laatija	-10.5445
pula	-10.5448
luvulla	-10.5449
dia	-10.5449
▁myönteisen	-10.5453
▁kuilu	-10.5453
▁hyväksymisen	-10.5454
kantojen	-10.5455
▁korruptio	-10.5456
▁raportti	-10.5456
▁varsinaise	-10.5456
▁ottavat	-10.5461
kra	-10.5462
▁siirry	-10.547
▁rangaista	-10.547
essämme	-10.5473
kaupungi	-10.5476
▁viikko	-10.5476
▁innovointi	-10.548
▁näkyvä	-10.548
▁Muista	-10.548
▁koordinointia	-10.5485
▁yksikkö	-10.5487
▁tavoitteeseen	-10.5488
▁taloudellisista	-10.5488
▁Totean	-10.5488
▁sellaisena	-10.5489
▁pääoman	-10.5495
▁köyhyys	-10.5495
▁runsaasti	-10.5496
▁erikseen	-10.5502
▁komissioon	-10.5503
▁mieluummin	-10.5503
▁sijoitus	-10.5503
▁seikat	-10.5504
tulevaisuudessa	-10.5504
▁toimivien	-10.5506
▁avointa	-10.5506
▁käsittelemä	-10.5507
▁asiakirjojen	-10.5515
▁hyväkseni	-10.5518
▁pitämi	-10.5519
▁sisäisen	-10.552
▁sulje	-10.5521
▁tiivii	-10.5523
▁yksimielisiä	-10.5526
▁Car	-10.5527
▁riskejä	-10.5527
▁tekijänoikeuksi	-10.553
▁terveyteen	-10.5534
▁istuntojakso	-10.5535
eihin	-10.554
▁selit	-10.5542
▁kerä	-10.5542
▁työskentele	-10.5545
▁tukia	-10.5546
▁kaikkensa	-10.555
▁naudanliha	-10.555
▁kanssaan	-10.5554
▁sanat	-10.5556
▁vastauksesta	-10.5556
▁kielletty	-10.5557
▁tuloksiin	-10.5559
▁tehtävänsä	-10.5559
▁Maastrichtin	-10.5563
▁silmällä	-10.5565
th	-10.5568
▁Itävalta	-10.5572
▁tulokse	-10.5572
▁jäsenyys	-10.5573
▁Näissä	-10.5576
▁osoittama	-10.5576
▁tukeminen	-10.5582
▁olekaan	-10.5583
sopimuksesta	-10.5586
vii	-10.5588
▁tervetulleeksi	-10.5588
▁kiinnostu	-10.5593
▁vihdoinkin	-10.5594
▁Kyseise	-10.5596
▁aiheita	-10.5596
▁entise	-10.5598
▁edu	-10.5599
utuu	-10.5602
▁tällöin	-10.5604
dessani	-10.5606
▁Kuuban	-10.561
▁ottamalla	-10.561
osien	-10.5611
▁tapahtumia	-10.5613
▁siirtyä	-10.5614
työtä	-10.5615
▁jatketaan	-10.562
▁suojeltava	-10.562
▁yleisten	-10.562
taessa	-10.5622
▁vahvistamista	-10.5623
CS	-10.5624
▁häpeä	-10.5627
uduttava	-10.5628
▁parantamiseen	-10.5636
utettu	-10.5638
▁tulokseen	-10.5638
▁viimeisten	-10.5638
▁tuomittava	-10.564
Venäjä	-10.5646
▁rahan	-10.5649
▁Martin	-10.565
▁muutosten	-10.565
▁tosiaan	-10.565
▁konfliktien	-10.5653
▁hyvinvointia	-10.5656
syy	-10.5657
▁arvioinnin	-10.5657
puhe	-10.5657
▁Slovakian	-10.5657
▁päästy	-10.5658
tanut	-10.5659
▁ponnistel	-10.5659
▁kehittynei	-10.5667
tumista	-10.5669
paketti	-10.5676
▁kollegoi	-10.5677
tri	-10.5678
▁uskoa	-10.5683
▁talouspolitiika	-10.5686
▁rinta	-10.5686
käytö	-10.569
NGL	-10.569
▁suinkaan	-10.569
▁olimme	-10.57
▁poistamaan	-10.5702
▁työnsä	-10.5704
▁kansalaistemme	-10.5705
▁toiset	-10.5707
paino	-10.5708
▁puhuu	-10.571
▁rajoitu	-10.571
tilanteen	-10.5711
lista	-10.572
▁vammaisten	-10.572
▁saadakseen	-10.5724
▁politiikasta	-10.5727
riski	-10.5729
▁jatkuvaa	-10.573
von	-10.573
▁kolmas	-10.5733
▁tarpeita	-10.5734
milla	-10.5734
▁keskustele	-10.5735
teeseen	-10.5736
ilmoi	-10.5737
aids	-10.574
▁ennaltaehkäisy	-10.5741
▁ilmatila	-10.5743
▁valitse	-10.5745
▁Suomen	-10.5745
▁keskustelemaan	-10.5746
▁kielteisiä	-10.5746
▁Strasbourgissa	-10.5746
los	-10.5747
▁vaatinut	-10.5747
▁päästävä	-10.5747
kkaiden	-10.5748
▁kolmeen	-10.5748
ykset	-10.5748
▁pääsyn	-10.5748
▁Osa	-10.5753
▁kunnioittaminen	-10.5754
▁virallisesti	-10.5754
▁investointipank	-10.5759
▁hal	-10.576
▁ALDE	-10.5761
kiintiö	-10.5761
▁keskustelleet	-10.5762
▁irtisano	-10.5762
▁tappa	-10.5762
▁päin	-10.5765
▁muuttamista	-10.5767
▁Kaiki	-10.577
▁sisällön	-10.5772
▁vapauttamisen	-10.5776
▁ensimmäisenä	-10.5777
▁sisällytettävä	-10.5778
▁erilainen	-10.5782
▁ihmiskaupan	-10.5786
muotoja	-10.5787
▁jona	-10.5788
▁enimmäis	-10.5792
▁käsityksen	-10.5795
▁takaamaan	-10.5798
▁käytäntöjä	-10.5798
▁kotoisin	-10.5801
▁rahoitusnäkymi	-10.5802
▁Espanjassa	-10.5807
▁vangit	-10.5811
▁tekemästä	-10.5812
▁takuu	-10.5813
▁johtaisi	-10.5815
▁tuloksista	-10.5817
▁asiakirjat	-10.5817
▁hallinta	-10.5818
aikojen	-10.5825
▁hallinnointi	-10.5826
▁yrittävät	-10.5826
▁loppua	-10.5827
vaatimuksia	-10.5828
▁päätettävä	-10.5831
▁yksiselitteise	-10.5833
että	-10.5835
▁kana	-10.5842
▁hallintaa	-10.5842
▁syrjäisi	-10.5845
▁sotaa	-10.5847
vyys	-10.5848
▁lisääntyy	-10.5849
▁USA	-10.5849
▁harkittava	-10.5857
▁sitoutuneet	-10.5858
▁pelkä	-10.586
▁laajempaa	-10.5861
▁yksimielisyys	-10.5865
▁2012	-10.5866
▁12.	-10.5867
maista	-10.5867
hy	-10.5869
otetta	-10.5876
▁kannattavat	-10.5877
suunnitelmien	-10.5878
alueet	-10.5885
▁kohtuu	-10.5887
▁kehitysapu	-10.5888
jö	-10.5888
▁Esitän	-10.5889
▁kertomuksessa	-10.589
▁toimittaa	-10.5892
▁kaltaise	-10.5902
▁pitkälti	-10.5906
▁Br	-10.5909
stanne	-10.5909
▁merkitä	-10.591
▁hämmästy	-10.591
▁ikävä	-10.591
▁perusoikeuksia	-10.5913
▁laillise	-10.5914
▁vastuunsa	-10.5915
▁tähtäävä	-10.5916
▁estämiseksi	-10.5917
hdin	-10.592
▁seksuaali	-10.592
ston	-10.592
▁vuosituhannen	-10.5921
▁Venäjää	-10.5922
▁moninais	-10.5923
▁ryhtymään	-10.5924
▁kohdasta	-10.5924
▁kyseenalaista	-10.5926
▁järjestelmään	-10.5928
▁valvonnasta	-10.5933
▁vastaavien	-10.5933
▁myöntämä	-10.5938
zin	-10.5938
▁liikkumis	-10.5939
▁näkyy	-10.5945
vyyden	-10.5948
▁Vai	-10.5948
▁tapahdu	-10.595
▁tehtyjen	-10.595
▁suunnitelman	-10.5951
▁prosessiin	-10.5952
▁vakavaa	-10.5954
▁odotetaan	-10.5955
▁estetään	-10.5956
▁saimme	-10.5957
yrityksille	-10.5958
läis	-10.5961
▁yhdyn	-10.5962
▁300	-10.5964
▁käyttäyty	-10.5966
▁valtioille	-10.5968
▁Pakistanin	-10.597
▁ilmoitukse	-10.5971
▁tämänhetkise	-10.5977
▁diktatuuri	-10.5977
▁tavallis	-10.5979
▁viimeisen	-10.5982
▁oleville	-10.5986
▁määräykset	-10.5987
ic	-10.5989
▁kumoa	-10.5989
▁käänty	-10.599
▁äänestäneet	-10.5992
▁Marokon	-10.5994
▁esittämiä	-10.5994
tteja	-10.5999
▁heikkene	-10.6002
▁hyvinvoinnin	-10.6002
▁Näillä	-10.6004
▁kohdistuvat	-10.6006
politiikalle	-10.6006
▁Sekä	-10.6009
▁haja	-10.6013
▁lakia	-10.6015
vapaa	-10.6018
▁julkisesti	-10.6021
▁tarkastele	-10.6022
▁lista	-10.6023
▁tapahtuvan	-10.6026
FI	-10.6027
▁Georgia	-10.6028
▁tärkeimmät	-10.6028
▁työmarkkinoille	-10.6028
▁lähentä	-10.6029
▁kuoli	-10.6029
palveluja	-10.6031
▁minkäänlaisia	-10.6035
▁ymmärrän	-10.6035
llisuus	-10.604
▁järjestäytyneen	-10.604
▁yhteyksiä	-10.6042
▁äänestysselity	-10.6046
tely	-10.6048
teltiin	-10.6052
▁näkemykse	-10.6054
▁toivoo	-10.6054
▁päällä	-10.6056
▁tuntema	-10.6057
▁koskemaan	-10.6058
▁toteuttamiseen	-10.6059
▁menestyksekkää	-10.6059
▁pidettiin	-10.6059
anto	-10.6059
▁teknisen	-10.6059
▁monimutkainen	-10.6067
▁kalastusala	-10.6068
▁ylittää	-10.6068
▁pääsemme	-10.6069
▁työmarkkinoiden	-10.6069
▁soveltamisesta	-10.6074
soi	-10.6074
▁liikkeelle	-10.6075
▁au	-10.6079
▁Ensiksi	-10.6082
▁uusille	-10.6084
omaise	-10.6084
▁aiheista	-10.6086
kansainvälisessä	-10.6089
turvallisuuden	-10.6091
▁hyökkäys	-10.6091
▁kielletään	-10.6091
▁haasteet	-10.6096
▁nykyaikaista	-10.61
▁painostukse	-10.61
▁aiheutti	-10.61
▁vahinkoa	-10.61
▁noudattavat	-10.6108
▁sosiali	-10.6113
▁kulttuurien	-10.6113
▁avoimen	-10.6116
▁huomata	-10.6116
▁yritetään	-10.6117
▁kokemusta	-10.6118
sääntö	-10.612
▁välineen	-10.6124
▁Patten	-10.6125
▁vihreän	-10.6125
▁kohdistuvan	-10.6127
▁Aasian	-10.6129
▁näemme	-10.6131
▁huomionne	-10.6132
▁kaltaisia	-10.6132
▁laaditu	-10.6133
paketin	-10.6134
▁pilari	-10.6137
▁aiotaan	-10.614
▁luulen	-10.6141
▁käyttämällä	-10.6142
▁tapauksia	-10.6142
▁osoitetaan	-10.6142
▁moraali	-10.6148
▁epäile	-10.6149
▁Latvia	-10.6149
▁olevani	-10.6151
▁aie	-10.6156
▁epätasa	-10.6157
▁suhteista	-10.6159
▁uskomme	-10.616
alismi	-10.6161
▁passi	-10.6161
▁byrokratiaa	-10.6161
▁kansalaisiin	-10.6162
▁poikkeuksellise	-10.6162
▁Be	-10.6163
▁kiireesti	-10.6169
▁täyde	-10.617
▁tavoittei	-10.6172
▁perustuttava	-10.6172
▁kampanja	-10.6176
▁meren	-10.6177
tietojen	-10.6178
▁tällaisi	-10.6179
neista	-10.618
▁liittyen	-10.6182
ttamalla	-10.6183
▁täydentää	-10.6184
vapauksia	-10.6185
▁oppia	-10.6186
▁katoa	-10.6187
tyminen	-10.6188
▁ongelmasta	-10.6188
▁Samoin	-10.619
mmasta	-10.6192
▁ansaitsevat	-10.6195
▁kansalaisista	-10.6195
che	-10.6195
sella	-10.6196
▁peru	-10.6196
apua	-10.6196
▁suhtaudumme	-10.6197
▁lopullisesti	-10.6197
▁rohkaista	-10.6198
aari	-10.6202
imi	-10.6203
kkaita	-10.6207
▁useampi	-10.6209
▁sulkemis	-10.6216
▁direktiivistä	-10.6217
tyksi	-10.622
▁eräät	-10.6222
skel	-10.6224
▁jossakin	-10.6226
▁toimeen	-10.6229
▁vaihta	-10.623
omi	-10.623
isempi	-10.6232
▁Tarkist	-10.6232
▁säännöstön	-10.6232
▁lukuisi	-10.6233
▁katsotaan	-10.6234
▁kärsimään	-10.6236
▁tahdon	-10.6237
▁lentoliikenteen	-10.6237
2006	-10.6238
kansainvälisissä	-10.6239
▁ajoneuvojen	-10.624
▁laajempi	-10.624
▁uudistukset	-10.6242
▁asenne	-10.6245
▁riskin	-10.6249
loukkauksi	-10.6255
▁tärkeimpiä	-10.6256
▁jäsenyyttä	-10.6258
▁selvästikin	-10.6258
kortti	-10.626
kuntien	-10.626
▁pyrkinyt	-10.6262
tetut	-10.6268
▁antamalla	-10.6269
▁taakse	-10.627
▁tietokone	-10.627
▁Väli	-10.6271
▁vähennetään	-10.6273
▁toimissa	-10.6276
▁aiheeseen	-10.6279
▁säännöistä	-10.6282
▁hallitukselle	-10.6282
▁kunnioittamista	-10.6282
▁estämään	-10.6288
▁puutu	-10.6292
▁tapahtumista	-10.6295
mekanismeja	-10.6298
▁vaatimusta	-10.6298
▁kanna	-10.63
▁kansainväliseen	-10.6302
▁joutui	-10.6306
lut	-10.6307
▁äänestänyt	-10.6307
kauppaa	-10.6311
esitys	-10.6314
▁kehittymis	-10.6314
aatti	-10.6315
▁kiistä	-10.6315
▁tukemiseen	-10.6315
ris	-10.6316
▁hiili	-10.6316
▁loppuj	-10.6322
▁Usei	-10.6323
▁elvytys	-10.6323
▁Or	-10.6331
▁vaaleissa	-10.6332
▁asianmukais	-10.6335
laitos	-10.6336
fe	-10.6338
▁laajentu	-10.6338
tuotanto	-10.6341
1999	-10.6341
luokan	-10.6344
demokraattisen	-10.6345
▁paperi	-10.6348
▁tuella	-10.635
▁mallia	-10.635
▁auttavat	-10.635
▁keksi	-10.6352
▁huolestunut	-10.6354
▁ensisijaisi	-10.6356
▁pohti	-10.6359
tit	-10.6362
▁verotukse	-10.6363
▁hyödyllinen	-10.6365
▁internet	-10.6365
▁prosessissa	-10.6366
sisämarkkinoilla	-10.6367
▁ainakaan	-10.6368
▁huolestu	-10.6372
▁väistämättä	-10.6374
▁Itämeren	-10.6374
▁luomiseen	-10.6378
▁liittyminen	-10.6382
vaiheessa	-10.6383
▁laaditaan	-10.6384
▁neuvottele	-10.6387
▁lentokone	-10.639
▁kohteeksi	-10.639
▁puhtaa	-10.6393
▁velka	-10.6393
▁Kii	-10.6396
naapurei	-10.6399
▁tutkimuksia	-10.64
▁raportoi	-10.6401
kansainvälisesti	-10.6402
▁Afrikassa	-10.6402
▁tarpeellise	-10.6403
her	-10.6403
▁tekemän	-10.6408
mal	-10.6408
▁parhai	-10.641
▁esitettyjä	-10.6411
▁Kansallis	-10.6415
▁edistämistä	-10.642
▁oikeudenkäynti	-10.6425
▁vähäise	-10.643
▁vaikuta	-10.643
▁lapsille	-10.643
▁kohtuuttom	-10.6432
▁asemasta	-10.6433
▁osoittamaan	-10.6433
▁arviointia	-10.6435
▁puhuneet	-10.6439
▁kolmesta	-10.644
tetyn	-10.6441
ALE	-10.6441
teisiin	-10.6442
▁johtajien	-10.6443
hankkeen	-10.6444
▁riittää	-10.6444
▁puututtava	-10.6444
▁veto	-10.6445
isilla	-10.6448
▁Solana	-10.645
▁puite	-10.645
▁vasemmisto	-10.6451
▁työskentelevät	-10.6455
markkinoihin	-10.6455
ue	-10.6455
▁painosta	-10.6455
ttivat	-10.6456
▁sito	-10.6456
▁epäilystäkään	-10.6458
▁epäröi	-10.6458
ministerei	-10.6458
▁sitoutumista	-10.6459
▁liiketoiminta	-10.6461
luettelo	-10.6462
▁ulkopolitiikan	-10.6462
▁tasoilla	-10.6463
käsi	-10.6466
▁seuraavi	-10.6469
▁suuntaa	-10.6471
▁lopullisen	-10.6474
ppo	-10.6476
▁asianmukaiset	-10.6481
▁tekstiin	-10.6487
kautta	-10.6487
▁auttamaan	-10.6489
▁perheiden	-10.6489
▁epäselv	-10.6492
ltään	-10.6492
▁ongelmana	-10.6493
▁edellytyksiä	-10.6493
ey	-10.6496
▁heinäkuussa	-10.6497
▁ehdoton	-10.6498
tavia	-10.6499
▁sisällöstä	-10.6501
▁oikeudellisia	-10.6502
▁pakotta	-10.6503
▁esitteli	-10.6504
▁taloudellisesta	-10.6505
▁ranskalais	-10.6505
▁isä	-10.6507
▁Kansalais	-10.6507
▁palauttamis	-10.6508
▁Ashton	-10.6509
ld	-10.6512
▁2000-	-10.6514
oikeuksia	-10.6516
▁lokakuussa	-10.6517
▁järjestetty	-10.6518
▁vahvisti	-10.6518
▁Sosiaali	-10.6518
▁osto	-10.6522
pö	-10.6525
▁Verheugen	-10.6526
▁vahvan	-10.6529
ah	-10.653
terve	-10.6533
lause	-10.6538
▁turha	-10.6539
▁tekivät	-10.6542
▁alijäämä	-10.6543
▁ylittävi	-10.6545
▁vakuutta	-10.6545
▁kirjo	-10.6549
▁Kreikka	-10.6551
vaatimukset	-10.6551
▁pilaantu	-10.6552
▁lopettamis	-10.6558
▁vaikutusvaltaa	-10.6558
▁hyödyllise	-10.6559
▁tappio	-10.6561
▁kommentoida	-10.6562
▁hanki	-10.6565
▁jalkapallo	-10.6569
▁virallise	-10.6571
▁Slovakia	-10.6571
illi	-10.6574
bu	-10.6578
▁näytä	-10.6579
▁Japani	-10.6579
uteen	-10.6584
▁tunnettu	-10.6585
▁uudistamista	-10.6588
▁muistutta	-10.6589
▁soveltamisen	-10.6595
▁kaikkemme	-10.6595
▁maahanmuuttaja	-10.6595
▁jätteiden	-10.6595
mies	-10.6598
▁humanitaarista	-10.6604
▁kaupankäynti	-10.6604
▁kärsii	-10.6608
▁elävät	-10.661
anin	-10.661
vallasta	-10.6612
▁3.	-10.6612
▁sisämarkkinoita	-10.6613
▁esittämän	-10.6614
▁talouskasvu	-10.6615
▁kyky	-10.6615
▁pysäyt	-10.662
▁Venäjällä	-10.6621
▁kotimaassani	-10.6621
▁Puhu	-10.6622
▁niinkään	-10.6624
▁hyödyntämis	-10.6625
▁demokraattisia	-10.6625
ttivät	-10.6626
▁kirje	-10.6626
▁esittelemä	-10.663
▁tiedetään	-10.6632
aikaansaamiseksi	-10.6634
▁joihinkin	-10.6636
▁lykkää	-10.6636
▁samassa	-10.6637
demokraatti	-10.6638
▁tarkistettava	-10.6638
▁Viittaan	-10.664
▁rahat	-10.6642
▁Kuuba	-10.6642
▁välittää	-10.6645
tekijä	-10.6647
▁jäi	-10.665
vuosi	-10.6651
▁pommi	-10.6652
▁kansalaisilla	-10.6655
▁tunnetu	-10.6655
▁valinnan	-10.6661
maita	-10.6662
▁ylpeä	-10.6664
▁arvokas	-10.6667
▁direktiivien	-10.6673
▁Rahoitus	-10.6673
keskuksen	-10.6674
▁itsessään	-10.6674
▁EIP	-10.6674
▁geneettisesti	-10.6674
▁merkitsisi	-10.6676
▁torjumaan	-10.6677
▁kiinnostunut	-10.6679
▁alkoi	-10.6682
reiden	-10.6684
▁osassa	-10.6689
▁Tarkastel	-10.6691
skin	-10.6692
teja	-10.6692
▁avoimia	-10.6694
isistä	-10.6694
▁tupakka	-10.6695
▁olevaan	-10.6696
▁vedota	-10.6699
▁muodostama	-10.67
▁syventä	-10.6701
▁ulottuvuuden	-10.6701
oon	-10.6702
uudelle	-10.6702
▁näkökohtaa	-10.671
▁kuri	-10.671
▁hoid	-10.671
▁puolilla	-10.6711
▁banaani	-10.6711
rik	-10.6712
▁tapahtu	-10.6714
▁pitkäaikais	-10.6714
▁tarjoamaan	-10.6714
▁laatimasta	-10.6716
▁tiedossa	-10.672
▁arvot	-10.6722
▁osoittautunut	-10.6725
▁toukokuussa	-10.6725
▁Verts	-10.6725
täminen	-10.6726
▁esitellä	-10.6727
naan	-10.6727
▁muisto	-10.6727
▁ehdotuksiin	-10.6729
▁viikkoa	-10.6731
▁kasvuun	-10.6732
▁tulossa	-10.6735
▁tammikuussa	-10.6736
▁osallistumisen	-10.6737
▁yleisön	-10.6737
▁mukauttamis	-10.6739
▁yhdenmukaistami	-10.6742
▁tarvittavia	-10.6744
▁lause	-10.6748
▁ehdokas	-10.6754
asiain	-10.6756
▁millaisia	-10.6757
käytäntö	-10.6758
▁nuorille	-10.6761
▁suosittele	-10.6763
▁kestää	-10.6765
▁mielipiteitä	-10.6766
▁paremmat	-10.6766
aikoja	-10.6766
▁tauti	-10.6767
▁Turkissa	-10.6769
▁Saanen	-10.677
laki	-10.677
toimisto	-10.6771
▁suosituksen	-10.6771
vaatimuksi	-10.6772
tyä	-10.6776
▁huolissamme	-10.6779
▁ehkäistä	-10.678
▁rikosoikeudelli	-10.6781
▁kirjeen	-10.6782
▁pääsemään	-10.6783
▁pahoittele	-10.6784
viljely	-10.6784
stojen	-10.6788
▁valtiossa	-10.679
jiä	-10.6792
▁vaatima	-10.6793
▁kansalle	-10.6793
▁kielteise	-10.6794
▁seurausta	-10.6795
kannan	-10.6797
▁laillista	-10.6797
ksenne	-10.6801
opi	-10.6802
▁laiva	-10.6804
▁jatkamme	-10.6807
▁halusi	-10.6808
▁vastustamme	-10.681
neeseen	-10.6811
▁sisältyvi	-10.6813
▁erottaa	-10.6815
▁Tieto	-10.6816
▁auta	-10.6818
▁muutto	-10.6818
kkeen	-10.6818
▁tuonut	-10.6822
▁rajoittu	-10.6823
▁kasvanut	-10.6825
▁käytävää	-10.6826
▁edistymistä	-10.6828
vaan	-10.683
▁lisääntyvä	-10.6832
▁velvoitteita	-10.6833
▁antamista	-10.6834
▁yksinkertainen	-10.6839
▁hahmo	-10.6839
▁selkeät	-10.6844
▁Toivottavasti	-10.6848
▁vasten	-10.6849
▁hyödyttää	-10.6852
▁jäseneksi	-10.6853
▁selkeyttä	-10.6855
▁monille	-10.6855
▁asiakirjoja	-10.6857
▁ydinenergia	-10.6857
aineita	-10.6859
▁halusin	-10.686
▁perustettu	-10.6861
▁määräaika	-10.6862
▁13.	-10.6863
▁EMU	-10.6866
▁lykätä	-10.6866
▁muutkin	-10.6866
▁autettava	-10.6867
▁2.	-10.6867
▁perustuslakia	-10.6874
▁Indonesia	-10.6874
▁1994	-10.6874
▁aineita	-10.6876
yhdiste	-10.6883
verkon	-10.6884
▁poikkeuksia	-10.6884
▁kiinnostava	-10.6885
▁elvyttä	-10.6886
▁tehtävistä	-10.6887
Britannia	-10.6887
▁tervee	-10.6894
▁iloisia	-10.6898
iki	-10.6899
▁osapuolia	-10.69
▁Kaksi	-10.69
▁tarkastelemaan	-10.6901
neuvottelujen	-10.6911
tapaa	-10.6913
▁varmistaakseen	-10.6913
▁Tosiasia	-10.6919
▁pohdin	-10.692
pel	-10.6921
▁vuoropuheluun	-10.6923
all	-10.6925
▁perustuslaillis	-10.6925
▁demokratiaan	-10.6926
▁määrittämi	-10.6929
▁laajalti	-10.6929
▁asetta	-10.6933
▁parane	-10.6934
joista	-10.6936
▁poistu	-10.6937
▁eduista	-10.694
▁venäläis	-10.6945
▁ydinase	-10.6946
▁kansallisiin	-10.6946
▁alhaise	-10.6948
▁yleissopimus	-10.695
▁talouskriisin	-10.6951
▁pysyä	-10.6955
asetuksen	-10.6955
▁käsittää	-10.6957
▁yritämme	-10.6957
▁kuussa	-10.6958
illaan	-10.696
sissa	-10.696
joukkojen	-10.696
▁Tarkistus	-10.6961
▁hänellä	-10.6962
▁julkaista	-10.6963
▁noudattaminen	-10.6964
▁toisesta	-10.6968
▁molempia	-10.6972
▁käyttöönoton	-10.6972
▁kiireellisi	-10.6972
▁75	-10.6978
▁valit	-10.698
▁Pakistan	-10.6981
▁annan	-10.6981
▁Kolumbia	-10.6981
▁järkyttävä	-10.6992
▁jätti	-10.6992
▁halunneet	-10.6993
▁luonteeltaan	-10.6999
▁suunnitella	-10.6999
▁Muut	-10.7009
▁koheesiorahasto	-10.7009
ssani	-10.7014
järjestelyjä	-10.7016
▁pohjimmiltaan	-10.7017
säännöt	-10.7018
▁tuotteen	-10.702
▁yhteiskuntaan	-10.7024
▁käsitys	-10.7025
▁rajatylittävä	-10.7026
▁sulkea	-10.7026
▁täyttämään	-10.7032
▁Japanin	-10.7033
neille	-10.7034
▁kriisiin	-10.7035
▁todellisuutta	-10.7035
idässä	-10.7035
▁julkiset	-10.7035
▁tunnustusta	-10.7037
▁Yhdyn	-10.7037
▁toimintansa	-10.7038
▁huomattavan	-10.7038
▁Olisin	-10.7039
▁minkään	-10.7041
▁järkeä	-10.7042
▁syyskuussa	-10.7044
▁nopeutta	-10.7044
▁rankaise	-10.7047
▁Kirjallise	-10.7049
▁sil	-10.705
▁kirjassa	-10.705
▁ohje	-10.7051
▁nähtävä	-10.7053
▁säästä	-10.7057
ttämällä	-10.706
▁suunnitelmia	-10.706
▁todisteita	-10.7061
▁syyskuun	-10.7062
▁tuhoisa	-10.7063
▁tekninen	-10.7071
▁edistävä	-10.7072
▁historiallinen	-10.7075
▁käyttämä	-10.7075
vina	-10.7076
▁korko	-10.7077
▁ollenkaan	-10.7077
asiantuntijoiden	-10.7079
▁vauhditta	-10.7079
▁Sopimus	-10.708
▁Ulko	-10.708
▁jyrkästi	-10.708
▁Tänä	-10.7082
▁taholta	-10.7083
▁sanamuoto	-10.7084
▁poliittisiin	-10.7086
▁vastaisi	-10.7086
ohjelmaan	-10.7088
IS	-10.7089
▁ilmoitus	-10.7091
▁voimakas	-10.7092
▁aiotte	-10.7092
demokraattisesti	-10.7099
▁tarpeellista	-10.7101
▁kunnianhimoinen	-10.7104
▁potilaiden	-10.7104
)).	-10.7104
▁vastustavat	-10.7106
▁kahdessa	-10.7107
▁kansanäänestys	-10.7112
▁vierai	-10.7113
▁viinin	-10.7113
▁palvele	-10.7116
nnalla	-10.7116
▁määrittää	-10.7118
▁väite	-10.712
▁vertailu	-10.7121
▁kohtuullise	-10.7122
▁saivat	-10.7124
▁perinteise	-10.7125
▁Onnittelen	-10.7125
▁muukalaisviha	-10.7125
15	-10.7127
▁odotan	-10.7129
▁globalisaation	-10.713
kustannuksi	-10.713
▁Sy	-10.7132
▁väliaikais	-10.7135
▁uudella	-10.7141
▁valvontaan	-10.7142
▁jakelu	-10.7142
▁kiireellise	-10.7143
▁näyttävät	-10.7144
▁astu	-10.7151
▁kemikaali	-10.7153
▁huippu	-10.7156
▁tasapainoa	-10.7157
sisällö	-10.7159
▁Yhdysvaltoihin	-10.7162
▁Muu	-10.7163
prosessissa	-10.7164
▁perusteita	-10.7166
▁organisoi	-10.7171
▁huumeiden	-10.7171
▁tarkistuksissa	-10.7172
▁silmä	-10.7174
tekijöiden	-10.7177
▁syrjintä	-10.7178
isestä	-10.718
▁istunnossa	-10.718
▁täytä	-10.718
▁käsitellyt	-10.718
▁osapuolen	-10.718
pyy	-10.718
▁sitoumuksen	-10.7181
▁jousto	-10.7182
jako	-10.7183
▁seuraavassa	-10.7183
▁vaikuttava	-10.7183
laillis	-10.7187
hakemukse	-10.719
▁Ison	-10.7191
utuvat	-10.7192
▁yhdentymistä	-10.7193
▁ehdotan	-10.7194
▁yhdeksän	-10.7194
htaa	-10.7196
▁dollari	-10.7196
▁poistettava	-10.7197
merkityks	-10.72
▁roolin	-10.7201
▁vastaisia	-10.7202
▁kohdistuvaa	-10.7205
▁säännöksi	-10.7207
▁otsakkee	-10.7207
▁paketti	-10.7209
▁identiteetti	-10.7209
▁omaan	-10.7213
▁asiana	-10.7215
▁tuottaja	-10.7216
▁ecua	-10.7217
▁työvoiman	-10.7221
▁Burman	-10.7225
▁tukahdutta	-10.7226
miemme	-10.7226
▁asiakirjassa	-10.7231
▁uusissa	-10.7232
▁Galileo	-10.7235
▁Jean	-10.7235
▁strategise	-10.7239
ydy	-10.7244
▁lyhyellä	-10.7246
▁suurella	-10.725
▁muutetaan	-10.7251
uutemme	-10.7256
▁toimittaja	-10.7256
demme	-10.7257
▁päästöjen	-10.7258
▁liittyviin	-10.726
▁järjestelmällis	-10.7262
▁kaupallise	-10.7263
▁tekijät	-10.7266
prosessiin	-10.727
▁puhuvat	-10.7273
▁saavutetu	-10.7273
▁käytämme	-10.7275
mpana	-10.7276
▁maksujen	-10.7276
▁Maan	-10.7277
▁tekemällä	-10.7278
▁yleisiä	-10.7279
▁pohdi	-10.7279
▁Energia	-10.7281
▁Pidämme	-10.7281
merkit	-10.7286
▁käsittelevässä	-10.7287
▁Ainoa	-10.7289
▁hetken	-10.729
näkymät	-10.7295
▁myöntämis	-10.7296
▁Oikeus	-10.7299
▁mieleen	-10.73
▁samo	-10.7301
▁tietyissä	-10.7302
▁tyhjä	-10.7302
▁poliittisessa	-10.7303
▁valtuuksia	-10.7305
tämällä	-10.7305
▁perustella	-10.7305
▁tärkeässä	-10.7306
varoja	-10.7307
▁radikaali	-10.7309
misprosessi	-10.7313
▁puhuttu	-10.7313
tauti	-10.7314
▁parasta	-10.7317
▁vaatimuksiin	-10.7319
▁järjestelmien	-10.7319
▁käytäntöjen	-10.7325
fa	-10.7325
uksilla	-10.7326
▁ulkosuhde	-10.7328
tyksestä	-10.7329
▁paluu	-10.7331
▁muodollis	-10.7334
suo	-10.7335
järjestyksen	-10.7335
▁työohjelma	-10.7336
▁tutkimaan	-10.7337
▁toimijat	-10.7337
▁asunto	-10.7337
▁todistaa	-10.7342
▁d	-10.7344
▁strateginen	-10.7346
eistä	-10.7347
▁rakenneuudistu	-10.7348
▁lähtökohtana	-10.7349
▁nykyiseen	-10.7349
▁por	-10.735
▁integroitu	-10.735
▁haasta	-10.735
▁Europolin	-10.735
▁Katsomme	-10.7355
▁ilmaissut	-10.7355
▁rahoituksesta	-10.7355
▁rahaliiton	-10.7356
mahd	-10.7358
▁istuntosalissa	-10.7358
▁normeja	-10.7359
lupa	-10.7359
▁aiheutuvat	-10.736
isyyttä	-10.7363
▁teidät	-10.7364
▁Fischler	-10.7364
▁tukemista	-10.7365
kysymyksiä	-10.7365
tettujen	-10.7365
▁tulvi	-10.7366
▁hyväksyttävää	-10.7367
▁perusperiaattei	-10.7367
ov	-10.737
))	-10.737
▁direktiivillä	-10.7375
ohjelmasta	-10.7376
▁teknistä	-10.7383
Balkanin	-10.7385
▁Fo	-10.7386
▁Suu	-10.7388
▁tuomita	-10.7389
▁Yleis	-10.739
▁vastaisuudessa	-10.7392
▁seuraamuksia	-10.7396
pol	-10.7396
▁vaikkakin	-10.74
▁sähkön	-10.7401
▁Päinvastoin	-10.7402
▁velkaa	-10.7403
▁jäänyt	-10.7403
▁kuvan	-10.7403
tehtävä	-10.7405
▁sad	-10.7406
Hertsegovina	-10.7411
▁lippu	-10.7411
▁työpaikkaa	-10.7411
▁puitedirektiivi	-10.7412
▁rajan	-10.7414
SK	-10.7419
▁Voitte	-10.7421
▁tiivis	-10.7424
▁Belgia	-10.7425
▁suurimma	-10.7428
lou	-10.7428
tutkimus	-10.7432
▁kriittis	-10.7432
▁liittovaltio	-10.7434
▁kutsua	-10.7438
▁henkilön	-10.7439
▁Kreikassa	-10.7439
▁hyödynnettävä	-10.7439
▁liiton	-10.7443
menettelyjä	-10.7444
llisiin	-10.7452
▁valvottava	-10.7454
▁ymmärtävät	-10.7457
▁ensimmäisi	-10.7458
▁alukse	-10.7461
mää	-10.7461
ehdotuksia	-10.7464
▁riittävää	-10.7465
Korea	-10.747
▁jäsenvaltiosta	-10.747
kustannukset	-10.747
▁Käsi	-10.7475
▁Palestiina	-10.7475
▁täysistunto	-10.7476
▁suuressa	-10.7477
aluetta	-10.748
jista	-10.7483
▁toivottavaa	-10.7486
▁suhde	-10.7488
▁osu	-10.7488
▁ensisijaisen	-10.749
des	-10.7493
turvallisuutta	-10.7495
▁pilarin	-10.7495
elly	-10.7495
▁lisäämällä	-10.7496
▁täytettävä	-10.7497
▁nouse	-10.7497
▁ruoka	-10.7498
▁musta	-10.75
▁Makedonia	-10.7502
▁rahoituskehykse	-10.7504
▁pitäisikö	-10.7505
▁itsekin	-10.7505
▁hanketta	-10.7505
▁ulos	-10.7506
▁laittomasti	-10.7509
▁maine	-10.7509
▁työryhmän	-10.7512
▁vetäyty	-10.7512
▁tärkeistä	-10.7514
▁sopimuksiin	-10.7514
▁täydellise	-10.7515
kriisin	-10.7517
ehdotusta	-10.7518
▁sopeutu	-10.7523
▁Har	-10.7525
alalle	-10.7527
sotila	-10.7528
▁onnistuu	-10.7528
▁tuore	-10.7529
▁Toistan	-10.7534
▁nimessä	-10.7535
ineen	-10.7536
▁lyhy	-10.7537
utui	-10.7537
▁vastavuoroise	-10.7537
▁saavutus	-10.7538
▁elintarvikkeita	-10.7538
▁tarkistukseen	-10.7543
myrky	-10.7543
▁Neljänneksi	-10.7543
tapojen	-10.7549
▁jälkeise	-10.7549
▁lausunno	-10.755
siiv	-10.755
▁käänne	-10.7555
▁kah	-10.7557
▁menettelyt	-10.7558
▁tarjoama	-10.7559
▁soveltamisalaan	-10.7561
▁Alankomaissa	-10.7561
▁tiedottamis	-10.7562
▁tulkinta	-10.7562
▁hankinta	-10.7564
▁mantere	-10.757
▁yö	-10.757
▁seksuaalise	-10.7574
ihmisoikeuksista	-10.7574
infrastruktuuri	-10.7575
▁45	-10.7578
▁päättävä	-10.7578
▁Ai	-10.7579
▁muuttuu	-10.7579
▁alalle	-10.758
▁irlantilais	-10.758
▁Kiinassa	-10.7582
▁muutettu	-10.7585
▁sosiaalis	-10.7585
▁lääkäri	-10.7586
▁suhtautuvat	-10.7586
▁tilanteissa	-10.7586
todistus	-10.7591
kuntia	-10.7594
▁uskottavuutta	-10.7599
▁rauhoit	-10.7599
▁Kongon	-10.7602
▁Dohan	-10.7602
▁nousee	-10.7605
▁mahdollisi	-10.7608
▁Vaadimme	-10.7609
lainsäädäntöä	-10.761
▁painoarvo	-10.761
▁ohjelmaan	-10.7612
▁jätteen	-10.7612
laitokset	-10.7613
teollisuudelle	-10.7614
yyn	-10.7614
▁todelliset	-10.7616
oin	-10.7618
▁soveltamisalan	-10.7619
vuotiai	-10.7619
▁pienempi	-10.7621
▁todellisi	-10.7621
▁useammin	-10.7624
▁kansalaisen	-10.7625
▁asiakirjaa	-10.7628
▁rahaston	-10.7629
kulttuuri	-10.7633
▁unohta	-10.7635
▁sisältyvä	-10.7635
▁suojeluun	-10.7637
▁valiokuntien	-10.7638
yhteiskeskustelu	-10.7641
tilan	-10.7644
▁edellytetään	-10.7647
▁päättyi	-10.7649
▁ympäristölle	-10.7653
lkäämme	-10.7655
▁osallistuneet	-10.7657
▁toiveita	-10.7658
oitus	-10.7661
isissa	-10.7662
▁asetuksessa	-10.767
▁kunnioittamisen	-10.7671
▁tuotu	-10.7672
politiikkojen	-10.7672
mahdollisuudet	-10.7672
▁poistamiseksi	-10.7673
▁2000:	-10.7675
▁tehtävämme	-10.7677
▁eräitä	-10.7677
▁vääristä	-10.7678
kansa	-10.768
▁täyttävät	-10.768
▁voidakseen	-10.7683
▁haasteen	-10.7685
▁havaitse	-10.7686
▁esityksen	-10.7687
▁sisältävät	-10.7688
▁välin	-10.7689
▁menoja	-10.7689
llisin	-10.7696
▁Korostan	-10.7696
perin	-10.7698
▁puhunut	-10.7702
▁täydellistä	-10.7705
▁Fran	-10.7709
▁mielipidettä	-10.7709
▁Yli	-10.7713
ttomuutta	-10.7714
▁päätöksestä	-10.7714
▁amerikkalais	-10.7715
▁epäselvä	-10.7716
▁kertoo	-10.7719
▁ajaa	-10.772
▁mahdoton	-10.7722
työjärjestyksen	-10.7722
▁neuvostolta	-10.7723
▁ehto	-10.7729
▁lelu	-10.773
▁toistan	-10.7737
▁tutustu	-10.7737
▁vastataan	-10.7738
▁vastuuseen	-10.7741
▁finanssi	-10.7743
▁väliintulo	-10.7743
▁arvokkaa	-10.7744
▁Kuka	-10.7745
org	-10.7746
▁kannassa	-10.7746
sopimukset	-10.775
▁tukenut	-10.7753
▁lisääntynyt	-10.7753
▁selventää	-10.7756
▁pienille	-10.7758
▁rahoitusväline	-10.7759
▁vältettävä	-10.7764
▁37	-10.7766
panki	-10.7766
▁rauta	-10.7767
alttii	-10.7769
▁Ohjelma	-10.7772
▁kaupallisi	-10.7772
▁Viro	-10.7782
▁Ky	-10.7785
▁joulu	-10.7786
▁pantu	-10.7787
▁työllisyyteen	-10.7792
▁investoinnit	-10.7793
▁hoitoa	-10.7794
▁ajankohtais	-10.7794
▁21.	-10.7796
▁posti	-10.7799
▁opposition	-10.7799
▁alueellisia	-10.78
emi	-10.7801
▁Schulz	-10.7801
▁integraatio	-10.7801
▁tuntevat	-10.7802
päätös	-10.781
▁rohkea	-10.7811
▁kritisoi	-10.7811
▁kahdella	-10.7811
▁toimija	-10.7813
▁kutsutaan	-10.7813
▁kaltaiset	-10.7815
▁puiteohjelman	-10.7815
kunnat	-10.7819
llisuutta	-10.7821
▁toiste	-10.7822
▁kirjallise	-10.7823
▁romanien	-10.7825
▁vaivaa	-10.7827
▁merkin	-10.7828
▁NATO	-10.7831
▁tekstistä	-10.7831
velvollisuutemme	-10.7831
▁torjuttava	-10.7831
▁potentiaali	-10.7831
▁tonnia	-10.7832
▁varmaan	-10.7832
▁kunnioitusta	-10.7833
▁pääjohtaja	-10.7834
▁Naisten	-10.7837
▁sosiaalirahasto	-10.7837
▁taudin	-10.784
▁Tr	-10.784
▁aloitettava	-10.7841
▁suju	-10.7841
suuden	-10.7847
öljy	-10.785
▁Talousarvio	-10.7851
▁voimavaroja	-10.7851
▁9.	-10.7856
suhtee	-10.7856
▁nopeaa	-10.7858
▁varsinkaan	-10.7858
liikkeen	-10.7859
▁tarkoituksiin	-10.786
▁kilpailukykyise	-10.7863
▁suorittaa	-10.7865
▁lukea	-10.7867
suhteet	-10.7869
▁huomautuksia	-10.787
▁esittämää	-10.7871
▁etnise	-10.7873
▁tarkoin	-10.7877
▁puuttuminen	-10.7879
▁tiukkoja	-10.788
▁rinnalla	-10.7881
▁sekoit	-10.7883
▁luvan	-10.7883
▁myöhään	-10.7884
päivän	-10.7884
▁toimintaansa	-10.7884
▁varoitta	-10.7884
▁suhtauduttava	-10.7892
▁luvut	-10.7893
▁yhteisymmärrys	-10.7893
tetä	-10.7893
▁hyväksyntä	-10.7896
ryhmiä	-10.7896
▁ponnistuksi	-10.7899
▁Afrikka	-10.7899
▁tavasta	-10.79
ove	-10.79
▁muisti	-10.7901
▁ketään	-10.7903
▁Kosovossa	-10.7903
▁otettaisiin	-10.7904
▁yleismaailmalli	-10.7904
▁vasemmiston	-10.7905
▁terveydenhoito	-10.7906
▁kiinteä	-10.7909
▁avu	-10.7912
▁15.	-10.7915
tien	-10.7917
▁työaika	-10.7918
▁käsiteltiin	-10.792
määrätietoisesti	-10.792
▁laillisesti	-10.7921
▁korkeakoulu	-10.7922
▁joukkojen	-10.7922
▁arvoa	-10.7928
ig	-10.7929
äänestykse	-10.793
▁tosiaankin	-10.7931
▁edustajana	-10.7934
onnettomuude	-10.7942
vaje	-10.7943
▁tarkistuksiin	-10.7944
▁Kau	-10.7946
▁tarpeiden	-10.7946
▁sar	-10.7948
▁asuin	-10.7949
menettelystä	-10.795
antava	-10.7951
▁olevasta	-10.7951
▁osallistui	-10.7952
pro	-10.7952
▁pikku	-10.7952
▁sanoista	-10.7956
▁1992	-10.7958
▁Ecofin	-10.7968
viranomainen	-10.7968
▁kriteerien	-10.7969
uma	-10.797
▁myötätunto	-10.797
järjestelmässä	-10.7971
luonnokse	-10.7971
muotojen	-10.7974
▁kerralla	-10.7978
▁merkkejä	-10.7979
matka	-10.7979
▁ymmärtänyt	-10.7983
▁asettami	-10.7983
▁velvoite	-10.7984
▁mietinnöistä	-10.7988
▁palkkaa	-10.7988
▁päästöjä	-10.7988
▁mies	-10.7989
keskus	-10.799
▁kunnioittamise	-10.7991
▁toimimme	-10.7992
▁sopii	-10.7993
▁Portugalissa	-10.7996
▁kaupunkien	-10.7998
▁3,	-10.7998
▁päämiehet	-10.8
▁tosiasioi	-10.8
▁löytyy	-10.8002
▁Tuemme	-10.8005
▁köyhien	-10.8007
▁pätevä	-10.8008
▁noudattamisen	-10.8008
▁riittämätön	-10.8008
▁esityslistalla	-10.8009
taakka	-10.8011
joille	-10.8011
▁virkamiesten	-10.8013
pyynnö	-10.8014
komissio	-10.802
▁yksikään	-10.8022
▁kehittämisessä	-10.8022
▁Ruotsissa	-10.8026
▁kotimaani	-10.8027
▁parlamentilta	-10.8027
uksessa	-10.8029
kseenkin	-10.8033
▁maantieteellise	-10.8034
▁yksittäisiä	-10.8035
▁jälleenrakennus	-10.8038
▁merkintä	-10.804
tekijöitä	-10.8047
▁omalta	-10.8047
velvollis	-10.8047
▁arvostella	-10.8047
▁hylätä	-10.8048
tella	-10.8048
▁Moldovan	-10.8049
ily	-10.8053
alaan	-10.8054
kyky	-10.8054
▁suurimmista	-10.8054
▁toimitusvarmuu	-10.8056
▁vakuuttuneita	-10.8058
yhtiöt	-10.8058
▁toteuttamis	-10.8059
aloja	-10.806
▁kansalliseen	-10.806
▁Suurin	-10.806
▁viipymättä	-10.8067
tutkimuksi	-10.8068
▁rautateiden	-10.8068
dik	-10.8073
▁ryhmiä	-10.8079
▁tarkoitukseen	-10.8079
kunnissa	-10.8079
▁luopua	-10.8081
▁eläkeläis	-10.8082
kul	-10.8082
▁Kiinaa	-10.8082
▁menettää	-10.8084
suhtei	-10.8084
▁sanoma	-10.8087
▁toteuttamisen	-10.809
▁4.	-10.8091
ministerien	-10.8091
con	-10.8092
▁tapauksen	-10.8094
▁siirretään	-10.8097
▁kristillis	-10.8098
▁lääkkeitä	-10.8098
▁hallituksia	-10.8098
▁päädy	-10.8106
▁kilometri	-10.8107
viikko	-10.8107
▁merkityksestä	-10.8107
palvelut	-10.8107
▁til	-10.8108
▁maantie	-10.8109
▁kurdi	-10.811
▁aiempi	-10.8114
▁muutamat	-10.8115
▁nimeä	-10.8115
▁myönnä	-10.8117
▁puolalais	-10.8117
▁toteutetu	-10.8117
▁Ver	-10.8122
tuotteita	-10.8123
▁korostan	-10.8123
valio	-10.8124
▁humanitaarise	-10.8125
▁yleiseen	-10.8125
▁laajemmin	-10.813
▁turkkilais	-10.813
▁kokemuksia	-10.8132
valmiste	-10.8133
▁säännös	-10.8134
▁loi	-10.8135
▁työmarkkinoilla	-10.8136
▁pankkien	-10.8137
▁avaruus	-10.8137
▁suuntaus	-10.8139
▁vilja	-10.8141
▁edustava	-10.8141
mahdollisuudesta	-10.8145
▁Turkkia	-10.8146
▁merenkulku	-10.8148
▁pyynnöstä	-10.8148
▁antamasta	-10.815
▁hallita	-10.8151
▁lukumäärä	-10.8151
▁Samaa	-10.8152
▁terveydelle	-10.8157
▁yhteyksissä	-10.8157
▁suullise	-10.8158
▁Lyhyesti	-10.8159
▁ihan	-10.8159
▁taistelussa	-10.816
▁Ru	-10.816
▁muuhun	-10.8163
▁palkat	-10.8163
▁lujasti	-10.8164
▁tietty	-10.8165
▁syyttäjä	-10.8168
▁vaatimuksen	-10.8168
▁ryhtynyt	-10.8172
▁vanhan	-10.8172
▁yksilö	-10.8173
▁yhdys	-10.8177
arvoinen	-10.8177
▁pettynyt	-10.8178
▁kiinnostuneita	-10.8179
017	-10.8182
suunnittelu	-10.8183
▁perustettava	-10.8183
▁pyytäneet	-10.8183
empia	-10.8185
▁Montenegro	-10.8188
▁tarpeeseen	-10.8188
▁ottamista	-10.8188
sestä	-10.8188
ym	-10.8189
▁Fronte	-10.8198
▁Eräs	-10.8198
▁pannut	-10.8203
▁Poli	-10.8208
▁Saddam	-10.8208
▁maksetaan	-10.8208
tori	-10.8208
▁asialle	-10.8209
▁äänestykseen	-10.8209
▁taistelua	-10.8211
▁Irakissa	-10.8215
▁lopettamaan	-10.8218
johtaja	-10.8218
▁alkuperäis	-10.8219
▁minuuttia	-10.8222
mur	-10.8225
▁sosiaalisesta	-10.8226
▁Afganistan	-10.8227
▁valmistella	-10.8228
▁edeltävä	-10.8228
▁korotta	-10.8228
▁tiettyä	-10.8229
▁korruption	-10.823
▁näkemykset	-10.8231
▁järjestelmiä	-10.8238
▁Neuvottelu	-10.8238
▁tasalla	-10.8239
▁rangaistus	-10.8242
▁virheitä	-10.8246
▁Berliinin	-10.8248
▁Terve	-10.8249
laitoksen	-10.825
▁laatimista	-10.8251
tilanteessa	-10.8251
yhtiöiden	-10.8252
▁käyttäneet	-10.8252
▁toimitettu	-10.8253
▁rohkaise	-10.8253
▁voimassaolo	-10.8255
▁fa	-10.8257
▁tehokkaampaa	-10.8259
▁Rouva	-10.8259
▁italialais	-10.8259
▁henkilöstön	-10.8259
▁vastuusta	-10.8259
▁erä	-10.826
▁julkilausuman	-10.8261
ros	-10.8262
▁pitemmälle	-10.8265
tetyt	-10.8266
uo	-10.8268
▁Muistutan	-10.8269
▁laajuisi	-10.8269
▁Tärke	-10.8269
ellisten	-10.8269
säätiö	-10.827
avun	-10.827
▁kansainvälise	-10.8272
▁armeija	-10.8277
▁ilmailu	-10.8277
▁Liettua	-10.8282
▁käynnisty	-10.8286
▁vastaavia	-10.8288
▁rajoitukset	-10.829
▁yksittäise	-10.8292
▁kotimai	-10.8294
▁Go	-10.8295
siirto	-10.8295
energia	-10.8296
▁ulkopuolisten	-10.8299
▁huomise	-10.8299
▁Kanadan	-10.8302
▁kriisiä	-10.8305
▁pyyntöä	-10.8309
▁audiovisuaali	-10.8309
▁automaattisesti	-10.8311
▁oikeusasiamies	-10.8315
▁kanssamme	-10.8318
taju	-10.8318
▁päätteeksi	-10.832
▁Andr	-10.832
▁parantamisen	-10.8322
▁aseita	-10.8323
▁tiedosta	-10.8324
▁esillä	-10.8325
yhteisön	-10.8325
▁päätettiin	-10.833
▁Afganistanissa	-10.8335
▁Ilma	-10.8336
▁perinteisi	-10.8339
tiedot	-10.8339
loista	-10.834
▁Minua	-10.834
mina	-10.8342
esityksestä	-10.8344
▁silmi	-10.8345
▁kuolema	-10.8346
kierro	-10.8347
▁kahdenvälise	-10.8358
▁määriteltävä	-10.8361
▁tehokkuus	-10.8361
▁huolestuneita	-10.8361
▁tosi	-10.8361
▁ehdotuksella	-10.8362
eissä	-10.8363
▁islam	-10.8365
▁tarvittava	-10.8366
liike	-10.8373
▁tutkimukset	-10.8373
eg	-10.8375
ilma	-10.8378
monimuotoisuutta	-10.8381
▁ydinvoimala	-10.8381
▁lopullista	-10.8383
▁esittelijälle	-10.8385
▁Dublin	-10.8392
▁kaikessa	-10.8392
▁sallitaan	-10.8392
▁vakavan	-10.8395
sp	-10.8401
▁antaman	-10.8402
▁nykyisestä	-10.8403
▁perustettiin	-10.8403
▁rikollisuutta	-10.8406
keskuksi	-10.8409
ministeriö	-10.841
▁Geneven	-10.8412
▁uhreille	-10.8412
▁tasoa	-10.8412
hon	-10.8413
▁31	-10.8415
▁paina	-10.8427
▁vaarallista	-10.8427
käytön	-10.8429
laitoksia	-10.843
▁vaarallisia	-10.843
▁tulkita	-10.8433
▁tunnustettu	-10.8433
▁muutoin	-10.8436
▁korostanut	-10.8439
▁tausta	-10.844
20-	-10.8442
▁päätelmät	-10.8442
▁ulottuvuutta	-10.8444
sul	-10.8445
liha	-10.8446
▁lainsäädännöstä	-10.8453
▁vaikeudet	-10.8454
▁tulleet	-10.8454
▁suurempia	-10.8454
▁vuodelle	-10.8454
▁hankkeisiin	-10.8454
utuva	-10.8455
▁uhan	-10.8457
▁pakollise	-10.8457
▁yhteyden	-10.8458
▁18.	-10.8458
▁Albanian	-10.8462
▁sydäme	-10.8463
▁ohjelmassa	-10.8464
▁opetukse	-10.8465
▁vaikutuksen	-10.8466
err	-10.8468
▁tuloksen	-10.8473
▁lyhen	-10.8473
▁aikuis	-10.8474
▁nopean	-10.8476
▁voittaa	-10.8481
▁kirjaa	-10.8483
▁metsäpalo	-10.8485
käyttöä	-10.8488
▁Tiety	-10.849
▁onneksi	-10.8494
▁Epä	-10.8495
▁vahvistamiseksi	-10.8495
▁strategisi	-10.8495
▁kehitykselle	-10.8495
▁luonnonvarojen	-10.8496
▁pöytäkirjaan	-10.8501
▁säännöstö	-10.8502
▁kuolee	-10.8505
▁päivinä	-10.8505
▁metsien	-10.8506
▁luonteen	-10.8506
markkinoista	-10.8507
▁uutis	-10.8508
▁Makedonian	-10.8509
▁valitettava	-10.8512
▁tiettyihin	-10.8512
▁pyrkimys	-10.8513
yksen	-10.8513
hm	-10.8513
alueeseen	-10.8516
tion	-10.8516
▁vankien	-10.8518
▁seikan	-10.8519
▁autetaan	-10.852
05	-10.8521
40	-10.8522
väestö	-10.8523
▁Kansainvälinen	-10.8526
▁realistise	-10.8526
▁innokkaasti	-10.8527
▁sellaisiin	-10.8527
▁sopivi	-10.853
väki	-10.853
▁Europol	-10.8539
▁harjoittami	-10.854
▁jäsenvaltioilta	-10.8544
▁kolmasosa	-10.8545
▁rikosten	-10.8545
▁maailmalle	-10.8546
teknis	-10.8548
▁poliitikot	-10.8548
▁maksavat	-10.8549
▁suunnittele	-10.8553
▁jätä	-10.8554
mitta	-10.8558
▁miljoonia	-10.8558
▁Aika	-10.8561
halli	-10.8564
tekniikan	-10.8564
▁Täällä	-10.8568
▁suunnitellu	-10.8568
▁säilyttäminen	-10.857
muodon	-10.8572
▁ymmärtämään	-10.8573
mmille	-10.8573
▁Siellä	-10.8573
▁odotuksia	-10.8574
▁taloudellisiin	-10.8574
▁esitys	-10.8575
menetelmien	-10.8579
▁hankkeet	-10.8579
▁ohjata	-10.8584
▁epätoivo	-10.8584
▁sukupolven	-10.8585
▁vapauttaa	-10.8587
▁Minulle	-10.8589
▁välinpitämättöm	-10.8589
▁välttämättömyy	-10.8589
päätöslauselma	-10.8591
kohtia	-10.8591
suunnitelmassa	-10.8592
▁perusteltu	-10.8592
ystävällise	-10.8592
▁tapoja	-10.8593
▁huippukokousta	-10.8595
▁ecu	-10.86
vapautta	-10.86
▁todellisuude	-10.8601
▁Gra	-10.8602
▁ilmene	-10.8605
▁seitsemä	-10.8605
▁puutteesta	-10.8606
▁tehtyjä	-10.8607
▁tehtyä	-10.8607
valtiota	-10.8607
2004	-10.8608
aleja	-10.8609
nsuojelun	-10.861
▁kehittyvä	-10.861
▁altistu	-10.861
▁vaikuttanut	-10.8611
▁kiertä	-10.8612
rekisteri	-10.8612
▁sopivat	-10.8613
▁yksityistä	-10.8616
▁kokousta	-10.8617
oikeudenmukaista	-10.8618
▁vihreää	-10.8618
▁sisäistä	-10.8618
▁vieraili	-10.862
▁kuuluvan	-10.8621
2005	-10.8623
▁riittävät	-10.8625
▁kuvi	-10.863
▁tärkeämpi	-10.8633
▁järjestöt	-10.8633
▁osallistumise	-10.8634
▁lisäävät	-10.8634
▁paremma	-10.8634
▁tuntia	-10.8637
rakentei	-10.8638
▁alat	-10.8639
▁sitoumusten	-10.8639
▁raportin	-10.8642
▁julma	-10.8642
▁kustannuksista	-10.8643
▁seuraavista	-10.8643
▁kiinalais	-10.8648
tuotanno	-10.8648
myönteise	-10.8655
▁edistytty	-10.8658
kentä	-10.8659
kymmentä	-10.866
▁muuttaminen	-10.866
▁vastasi	-10.8663
▁laatimiseen	-10.8663
▁näkökohdista	-10.8663
▁kielen	-10.8663
▁nuo	-10.8664
uttaa	-10.8665
▁konkreettisesti	-10.8669
lainsäädäntö	-10.8671
▁Kyllä	-10.8672
heng	-10.8672
▁täynnä	-10.8674
▁valmiiksi	-10.8674
▁rajoitetaan	-10.8674
▁hyvinkin	-10.8674
▁tehtäviin	-10.8674
▁vastaavaa	-10.8675
▁selvitettävä	-10.8676
▁jättänyt	-10.8678
▁aloitteiden	-10.868
▁kehyksen	-10.868
▁kulttuuria	-10.8681
▁Valiokunta	-10.8684
suutta	-10.8685
▁etä	-10.8687
vänsä	-10.8687
utensa	-10.8691
jina	-10.8692
▁suuremman	-10.8695
▁teuras	-10.8699
▁syiden	-10.87
valloi	-10.8701
▁käyttänyt	-10.8701
palkinnon	-10.8706
▁Nato	-10.8706
▁vaiva	-10.8713
änestimme	-10.8716
▁allekirjoitett	-10.8716
▁nähnyt	-10.8718
▁arvon	-10.8719
▁esteiden	-10.872
▁kokoukseen	-10.8726
▁vaarallisten	-10.873
▁kantamme	-10.8731
▁toteuttamisessa	-10.8731
▁kuunnel	-10.8733
kevä	-10.8734
▁tulevassa	-10.8735
▁alkuun	-10.8735
muksen	-10.8737
▁ekologise	-10.8738
▁reagoida	-10.8738
▁Kannatin	-10.8739
asetuks	-10.874
▁elintarvikkei	-10.8742
▁Is	-10.8743
▁politiikkoja	-10.8744
▁numero	-10.8747
▁älkää	-10.8748
▁israelilais	-10.8748
▁aloitteet	-10.8748
▁millainen	-10.8748
▁säädöksiä	-10.8749
▁mainos	-10.8749
taakan	-10.8752
▁ostaa	-10.8754
▁Egyptin	-10.8756
▁huomautus	-10.8757
▁paikalle	-10.8759
▁tehtäväksi	-10.8759
▁työnantaja	-10.8759
▁Jokainen	-10.876
▁lopputulos	-10.876
▁vuosikertomukse	-10.8761
kilpailu	-10.8764
varasto	-10.8766
▁väittee	-10.8766
▁kehittynee	-10.877
▁Näihin	-10.877
▁huomioita	-10.8771
▁kumppanuutta	-10.8772
▁elo	-10.8775
zo	-10.8775
▁kunnioittava	-10.8776
▁avautu	-10.8776
▁epävirallise	-10.878
▁Loppuj	-10.878
tumis	-10.8781
▁Pelkään	-10.8782
▁ihmisistä	-10.8782
▁sorto	-10.8784
70	-10.8784
▁ratkaisevaa	-10.8789
▁sal	-10.8789
▁painostusta	-10.879
▁vakaussopimukse	-10.8791
▁henkilöä	-10.8793
▁elimen	-10.8795
ttomuuden	-10.8796
▁millaise	-10.8797
▁kolmanneksi	-10.8802
▁suotuisa	-10.8802
▁onnistumme	-10.8805
▁julistuksen	-10.8806
▁espanjalais	-10.8807
▁asianmukaise	-10.8809
mmilla	-10.881
▁alkanut	-10.8812
▁tarvita	-10.8814
▁suositukset	-10.8817
▁mihinkään	-10.8821
▁sisällyttämise	-10.8822
▁kielten	-10.8823
▁painokkaasti	-10.8824
▁oikeutettu	-10.8824
isina	-10.8826
▁kysyn	-10.8826
▁valitta	-10.8826
▁petosten	-10.8827
▁tavoittele	-10.8828
▁valtioista	-10.8829
▁vaihtoehtoa	-10.883
▁maksut	-10.8832
▁aikomukse	-10.8834
▁vaaleilla	-10.8834
▁tyytyväisenä	-10.8834
▁onnittelu	-10.8835
▁tieteellisi	-10.8835
▁matkustaa	-10.8838
▁päättyy	-10.8845
▁Haiti	-10.8848
kiellon	-10.8849
▁parhaat	-10.8856
▁päässyt	-10.8856
kehyksen	-10.8856
▁suorittama	-10.8857
▁luottamukse	-10.8858
▁Cor	-10.8858
▁teimme	-10.8859
dut	-10.8862
▁lähenty	-10.8863
▁testi	-10.8864
▁yhteiskuntaa	-10.8865
▁Arvoisat	-10.8866
▁rahoja	-10.8866
▁väliaikaisen	-10.8867
▁luotu	-10.8868
▁nautti	-10.887
▁tultava	-10.887
▁tapausta	-10.8871
▁työjärjestystä	-10.8871
▁yksityisten	-10.8873
▁näkemykseen	-10.8875
▁alaan	-10.8879
▁tahojen	-10.8885
▁maalle	-10.8885
▁Tällöin	-10.8888
▁kuultu	-10.8888
▁satelliitti	-10.8888
pakettia	-10.8896
11	-10.8897
▁oikeudesta	-10.8897
▁poliitikko	-10.8898
▁ensimmäiseen	-10.8899
▁riippuvainen	-10.8899
▁käyttäjien	-10.8899
mmiksi	-10.8899
▁jaettu	-10.8901
▁kantaan	-10.8901
▁voimavara	-10.8902
▁lausuntoja	-10.8904
▁tarvittavaa	-10.8905
iselta	-10.8908
vahinko	-10.891
lö	-10.891
rahastosta	-10.891
▁materiaali	-10.8911
▁Uuden	-10.8912
▁32	-10.8912
sivu	-10.8913
ttien	-10.8918
▁ensisijaisena	-10.892
▁Vastuu	-10.8921
▁teknisten	-10.8921
tämä	-10.8921
▁kompromissiin	-10.8921
▁Voidaan	-10.8921
elinkeino	-10.8924
hankkeeseen	-10.8924
sch	-10.8924
vapauden	-10.8925
▁pysyvän	-10.8926
aloitteen	-10.8928
▁kehitetään	-10.8931
▁rahoitukseen	-10.8931
suus	-10.8932
yksikön	-10.8933
▁lausuntoa	-10.8934
▁Ryhmämme	-10.8936
▁Mainitsen	-10.8942
impia	-10.8942
▁jarru	-10.8943
alueille	-10.8943
▁suojelusta	-10.8945
▁saisivat	-10.8945
issaan	-10.8945
▁alueisiin	-10.8947
▁riskien	-10.8951
tilanteesta	-10.8952
▁kaunii	-10.8954
▁normien	-10.8957
väestön	-10.8959
▁Her	-10.8961
▁riippumattoman	-10.8963
▁kriittisesti	-10.8963
▁Julkis	-10.8964
▁jatkuvan	-10.8965
▁resurssien	-10.8965
▁keskeytettiin	-10.8966
▁asuvat	-10.8967
SA	-10.8967
▁vahvaa	-10.8968
▁pyytä	-10.8974
▁Puolassa	-10.8975
▁ohjelmiin	-10.8981
▁horju	-10.8985
▁mahdollisista	-10.8985
est	-10.8987
▁aluekehitys	-10.8987
▁saavuttama	-10.8988
▁Eurostat	-10.8993
▁strategiassa	-10.8995
▁vaikutti	-10.8995
▁heikenty	-10.8997
▁johdolla	-10.8997
▁keskusteltiin	-10.8998
▁kiittämällä	-10.8998
▁ilmeistä	-10.8998
▁Muutama	-10.8998
kaasu	-10.9
▁esityslistalle	-10.9001
▁kokemusten	-10.9006
▁uudelle	-10.9006
COD	-10.9008
▁mietinnöllä	-10.9008
▁tarpeettoma	-10.9008
▁lopetettava	-10.9009
öyh	-10.9009
▁Kysyn	-10.901
▁muistu	-10.9011
▁interventio	-10.9012
llisyys	-10.9013
▁perustetaan	-10.9014
▁vaarana	-10.9014
▁käsiin	-10.9015
▁jne	-10.9019
▁vahingoittaa	-10.9022
välineiden	-10.9022
▁säilytetään	-10.9022
▁tärkeät	-10.9022
tilannetta	-10.9028
▁Strasbourgin	-10.9029
▁tekniset	-10.903
▁noudattaen	-10.903
tettäessä	-10.903
DA	-10.9031
▁suullisen	-10.9031
▁lasta	-10.9033
▁valitsema	-10.9036
▁saavuttamista	-10.9037
▁äärimmäis	-10.904
▁järjestelmässä	-10.9042
▁rekisteröinti	-10.9042
▁joistakin	-10.9042
▁tyhj	-10.9043
▁vanki	-10.9044
ehdokkaa	-10.9045
▁tuomari	-10.9045
▁tutustua	-10.9048
▁demokraattisi	-10.905
▁Pro	-10.905
▁strategiasta	-10.9051
▁parlamentista	-10.9052
▁valvonnassa	-10.9052
▁taloudelle	-10.9052
stetty	-10.9053
markkina	-10.9053
▁vaikeita	-10.9054
▁säilyttämistä	-10.9057
▁käymä	-10.9057
▁Jotk	-10.9057
ire	-10.9058
▁osallistuttava	-10.9058
▁rasismin	-10.906
▁kielteinen	-10.9063
▁puhtaasti	-10.9065
▁huhtikuussa	-10.9068
▁löyty	-10.9069
laisille	-10.907
▁ihmisoikeuksiin	-10.9074
tyneet	-10.9079
▁tarkistusehdotu	-10.9082
Eurooppa	-10.9084
▁esittämis	-10.9084
▁kykenee	-10.9085
▁riippumattomuu	-10.9085
▁ryhmään	-10.9086
▁kannatti	-10.9087
▁tekemää	-10.9089
▁perussopimus	-10.909
eilla	-10.9096
▁Tuleva	-10.9097
yr	-10.9097
▁enimmäismäärä	-10.9098
▁suhteellis	-10.91
▁painostaa	-10.91
▁muutakin	-10.9101
▁puutteet	-10.9103
▁torjuminen	-10.9103
▁syvästi	-10.9105
▁tapana	-10.9106
▁tragedia	-10.9107
▁samasta	-10.9112
▁termi	-10.9116
kumppani	-10.9116
▁valko	-10.9117
kustannuksia	-10.9119
▁niuk	-10.9119
▁kielteisesti	-10.9119
▁Iso	-10.912
tekijät	-10.9121
▁Toisen	-10.9127
▁mainitun	-10.9129
järjestelmiin	-10.9129
liiton	-10.9135
▁HVK	-10.914
▁esittämiin	-10.914
▁tasapuolise	-10.9142
▁kohtelun	-10.9144
▁vaatineet	-10.9146
▁valikoi	-10.9146
▁rakennu	-10.9146
▁23.	-10.915
▁erilaista	-10.915
▁sosiaalisesti	-10.9151
strategioi	-10.9152
▁rakenteellisi	-10.9154
▁kunhan	-10.9156
▁muusta	-10.9157
▁osallistunut	-10.9157
▁uudistaa	-10.9159
▁pelkään	-10.916
▁viljelijöiden	-10.9161
▁seuraavasti	-10.9161
▁Aina	-10.9161
▁monessa	-10.9163
▁suru	-10.9164
▁alakohta	-10.9165
▁matala	-10.9168
▁tunnustamista	-10.9169
kom	-10.917
▁tulot	-10.917
▁voiman	-10.9171
▁saamiseksi	-10.9174
▁tutkimusten	-10.9176
▁ajankohta	-10.9177
▁länsi	-10.9177
▁rahoitusalan	-10.9179
lah	-10.9181
▁avoimi	-10.9182
ive	-10.9184
▁kunnioita	-10.9184
▁kuolemantuomio	-10.9185
▁parlamenttimme	-10.9185
toimista	-10.9187
▁tiukenta	-10.9188
kkaasti	-10.9188
▁pääsevät	-10.9188
▁johtuva	-10.9192
▁kalastusta	-10.9193
▁ottama	-10.9194
▁muslimi	-10.9196
▁kollegojeni	-10.9198
▁oikeuksiin	-10.9202
jilla	-10.9203
▁umpikuja	-10.9207
▁kannettava	-10.9207
▁Michel	-10.9207
▁kehotamme	-10.921
▁parantu	-10.921
▁painotetaan	-10.9213
▁tiukka	-10.9214
▁elintaso	-10.9215
▁maantieteellis	-10.9219
▁voimakkaan	-10.9221
▁saavuttaminen	-10.9222
▁suuntaviivoi	-10.9222
▁31.	-10.9224
neuvottelu	-10.9226
▁lie	-10.9226
▁lakien	-10.9227
▁käsittelevää	-10.9229
▁toimielimissä	-10.9229
▁Yhtä	-10.923
▁hyödyllisiä	-10.924
▁säilyttämään	-10.9243
▁viikkoina	-10.9243
▁Niissä	-10.9245
▁yhteiskunnalli	-10.9249
▁pyrkineet	-10.9249
▁protektionismi	-10.9252
rake	-10.9252
▁niiltä	-10.9253
▁kattavan	-10.9253
yli	-10.9253
▁verrata	-10.9254
▁tahot	-10.9256
▁palveluiden	-10.9257
▁toteutta	-10.9258
▁iso	-10.9259
▁Euroopalla	-10.9263
▁elinikäise	-10.9263
▁vähintäänkin	-10.9264
liikku	-10.9265
▁työttömyyttä	-10.9266
▁ohjelmat	-10.9268
edellytyksi	-10.927
▁osia	-10.9271
▁sääntele	-10.9271
▁kansainvälisi	-10.9271
autojen	-10.9272
▁tulva	-10.9273
▁sihteeristö	-10.9274
▁Tietenkin	-10.9274
kansallis	-10.9275
▁riittäviä	-10.9276
▁kuunnella	-10.9279
▁var	-10.9284
▁merkitsevät	-10.9284
▁puhumaan	-10.9285
▁kauppajärjestön	-10.9285
▁vuodelta	-10.9286
▁paikalliset	-10.9286
▁voimakkaammin	-10.9288
▁kuluttajan	-10.929
tavoite	-10.9291
▁pinta	-10.9291
▁Ale	-10.9292
▁yleisö	-10.9295
hl	-10.9297
▁päätökseksi	-10.9297
▁päätetty	-10.9298
▁tekevän	-10.9299
▁myöntämisestä	-10.93
▁pitämä	-10.9307
▁kumppanei	-10.9308
▁Aiomme	-10.9308
▁kannustettava	-10.9309
▁36	-10.931
▁päätetään	-10.9312
▁poistettu	-10.9316
▁kipeästi	-10.9319
▁viittaus	-10.932
tekijöistä	-10.9321
▁lukuja	-10.9322
▁c	-10.9322
▁33	-10.9326
▁kollegoitani	-10.9326
▁maansa	-10.9326
▁kysyi	-10.9327
▁ilmaisema	-10.9328
▁Pyydämme	-10.9331
kunnasta	-10.9332
▁400	-10.9334
▁Hi	-10.9336
▁hyväksyttävi	-10.9338
▁armeijan	-10.934
yrittäji	-10.9349
puheenvuorossani	-10.935
välineitä	-10.9352
▁Blair	-10.9353
▁keskellä	-10.9353
▁historiaa	-10.9354
▁Tiibetin	-10.9354
▁puhetta	-10.9361
▁veri	-10.9361
▁näkökohtien	-10.9362
▁talouskasvun	-10.9364
▁avaaminen	-10.9365
▁Siirry	-10.9365
▁ennemmin	-10.9365
▁joukon	-10.9365
▁siirtymään	-10.9369
▁valmiit	-10.9374
▁kestävään	-10.9376
▁Presidentti	-10.9376
▁Kööpenhaminassa	-10.9376
▁rahoitetaan	-10.9376
▁hintoja	-10.9376
▁pääsi	-10.9377
▁käytävän	-10.9379
▁välittömä	-10.938
Euroopassa	-10.938
linja	-10.9381
▁käsin	-10.9382
▁maahanmuuttaji	-10.9382
▁tällaiseen	-10.9388
▁koskemattomuude	-10.9388
▁Ehdotan	-10.9389
▁brittiläis	-10.939
▁Egypti	-10.939
▁potilai	-10.9393
mmistä	-10.9393
▁jonkinlaise	-10.9394
▁asianomaisten	-10.9399
▁seuraavia	-10.9399
välineen	-10.9401
▁pelkkää	-10.9402
▁yhteensopi	-10.9404
▁uhat	-10.9405
neuvottelut	-10.9408
▁tukeen	-10.9408
▁elämä	-10.9409
▁Kulttuuri	-10.941
▁tapahtuvaa	-10.9411
▁tuotte	-10.9412
▁kiitettävä	-10.9412
lliseen	-10.9413
▁asetetut	-10.9415
▁huolestuttavaa	-10.9416
▁Tällaiset	-10.9416
▁rikkomis	-10.9419
▁tekniikan	-10.942
▁huolenaiheita	-10.9422
▁sisällyttämistä	-10.9422
ryhmää	-10.9424
▁yksilön	-10.9429
▁Liettuan	-10.943
▁tekeminen	-10.943
▁valtioihin	-10.943
▁kaiva	-10.9432
▁konkreettista	-10.9433
▁Atlantin	-10.9436
tasolla	-10.9439
▁välineenä	-10.944
▁innostu	-10.944
toimen	-10.9441
▁soi	-10.9442
▁tehokkaampi	-10.9443
▁epävarma	-10.9443
▁yrityksiin	-10.9444
▁yhteenkuuluvuut	-10.9444
▁Yhdysvaltoja	-10.9445
▁suurista	-10.9445
▁onnistua	-10.9445
▁toimineet	-10.9449
kaudelle	-10.945
▁menetelmiä	-10.9452
▁katsovat	-10.9456
▁rajoissa	-10.9458
▁toteutumis	-10.9458
▁ilmaistu	-10.9458
chin	-10.9459
▁vastuuvapaus	-10.946
▁julkaistu	-10.9468
näkem	-10.9468
▁toimitus	-10.9469
▁bruttokansantu	-10.9471
▁oikeisto	-10.9471
▁vastuullise	-10.9478
▁Joissa	-10.9478
▁liittyvästä	-10.9479
▁seurannut	-10.9481
▁täydellisesti	-10.9481
▁Albania	-10.9481
▁lisäarvo	-10.9482
▁aluepolitiikka	-10.9483
hinnoi	-10.9483
▁entis	-10.9484
▁käyttämättä	-10.9485
▁Nykyinen	-10.9487
▁sisäinen	-10.9488
▁kaipaa	-10.9491
▁kustannus	-10.9492
muodot	-10.9492
tettaessa	-10.9493
▁luettelon	-10.9495
▁tekemiä	-10.9496
toimenpiteiden	-10.9497
▁suhtaudu	-10.95
▁Gazan	-10.9501
▁romahta	-10.9502
▁täytty	-10.9502
▁risti	-10.9503
▁suunnitelmaa	-10.9504
▁karja	-10.9504
▁vääri	-10.9505
▁kunnianhimoisia	-10.9506
▁rekisteröi	-10.9506
▁valiokuntaa	-10.9513
▁rakentavaa	-10.9513
▁suojelemaan	-10.9515
▁toisensa	-10.9515
▁Alan	-10.9515
▁suuresta	-10.9516
▁eurosta	-10.9516
yytensä	-10.9516
tumisesta	-10.9521
maksujen	-10.9522
▁aamu	-10.9524
out	-10.9525
▁Kaakkois	-10.9525
ohjelmassa	-10.9525
▁kysymykseni	-10.9528
▁rehellisesti	-10.9529
▁lähtökohta	-10.9531
▁Rooman	-10.9537
▁juutalais	-10.9537
▁sellaiseen	-10.9537
▁monivuotise	-10.9537
tettuja	-10.9544
▁onnettomuus	-10.9548
▁tiedottaa	-10.9549
▁Muuten	-10.955
▁harkitsemaan	-10.955
▁parhaan	-10.9551
llisyyttä	-10.9554
▁valtaosa	-10.9554
▁vaikuttavi	-10.9557
▁laajentamista	-10.9557
▁kuolemaan	-10.9559
▁olympia	-10.956
käyttöön	-10.956
▁taantuma	-10.956
▁teknologiaa	-10.9561
▁ammatillis	-10.9563
▁avo	-10.9564
ryhmät	-10.9564
▁hitaasti	-10.9565
▁suurimmat	-10.9565
▁resurssit	-10.957
▁hiukan	-10.9571
▁velvollisuutena	-10.9571
▁vastusti	-10.9571
▁toimintatapa	-10.9573
▁dollaria	-10.9574
▁varhaise	-10.9577
AS	-10.9577
▁syrjäytymisen	-10.9578
▁vastannut	-10.9579
mentti	-10.958
▁valmistelukunta	-10.9582
myrsky	-10.9583
▁kannanotto	-10.9585
▁opt	-10.9585
▁korvauksia	-10.9587
varuste	-10.9593
▁puolueet	-10.9594
▁velvollisuude	-10.9595
▁syrjä	-10.9596
ympäristön	-10.9596
▁talle	-10.9597
▁pohjoisen	-10.9597
▁vakuuttava	-10.96
▁aloille	-10.9602
▁meihin	-10.9603
▁hyvien	-10.9604
▁Guinea	-10.9606
▁televiestintä	-10.9606
kuulu	-10.9606
▁pystyä	-10.9609
▁alueeseen	-10.9612
▁Missä	-10.9612
▁seurantaa	-10.9613
▁kirjallisesti	-10.9623
▁sosialistiryhmä	-10.9626
tapaus	-10.9626
▁hyväksyvät	-10.9628
▁kiito	-10.9629
▁signaali	-10.9629
▁Neljä	-10.9629
▁ulkopuolise	-10.963
▁ratkaisut	-10.963
Sudan	-10.9631
▁puhuttava	-10.9632
▁osoitetu	-10.9632
vaikutus	-10.9633
kohdan	-10.9637
▁Pal	-10.964
▁ryhmää	-10.964
▁osuutta	-10.964
▁itseämme	-10.964
▁välttämiseksi	-10.9641
▁Halu	-10.9642
▁työpaikat	-10.9643
▁järjestäyty	-10.9645
▁vakiinnut	-10.9648
▁päämääri	-10.9649
▁kehotta	-10.965
▁ajassa	-10.9653
▁takeita	-10.9653
▁muuri	-10.9655
▁lopullisessa	-10.9656
▁luonnos	-10.9659
foorumi	-10.9662
▁laatii	-10.9662
▁työjärjestykse	-10.9663
▁kuole	-10.9663
kkuutta	-10.9667
▁aiheuttamat	-10.9669
▁vastalause	-10.967
joukkoja	-10.9674
▁Samanaikaisesti	-10.9676
▁aikovat	-10.9676
▁tekemät	-10.9679
▁tulevasta	-10.968
▁yleisestä	-10.9683
▁vähennettävä	-10.9688
▁ylimääräise	-10.9689
▁kolmi	-10.9693
▁ihmisiin	-10.9695
▁tuomittu	-10.9696
▁käyttämi	-10.9699
▁lisääntyminen	-10.97
▁totuus	-10.97
▁Niillä	-10.9704
▁poliitikkojen	-10.971
▁Sallikaa	-10.9711
▁säteily	-10.9711
lait	-10.9713
▁päätöksentekoon	-10.9716
▁alueellinen	-10.9716
▁herättävä	-10.9717
▁äänestivät	-10.9719
▁pidetyn	-10.9723
▁tonnikala	-10.9723
▁Tällaisia	-10.9724
▁sukupolvi	-10.9725
▁toimitettava	-10.9725
▁rasismi	-10.9726
immista	-10.9726
▁länsimai	-10.9731
▁sido	-10.9732
ongelmia	-10.9733
▁varjo	-10.9733
▁hävittä	-10.9737
land	-10.9738
▁suojan	-10.9739
▁puutetta	-10.9739
▁liiallise	-10.974
▁valuuttarahasto	-10.974
▁instituutioiden	-10.9744
▁ryhtyy	-10.9746
▁digitaali	-10.9746
▁Puhun	-10.9747
▁tasavallassa	-10.9747
▁ulkopolitiikkaa	-10.9747
▁48	-10.975
▁direktiivejä	-10.9751
asetus	-10.9752
▁pystyttävä	-10.9754
▁yksittäiset	-10.9757
▁perussopimukse	-10.9758
▁olettaa	-10.9759
▁hylättiin	-10.9759
▁harjoitettava	-10.976
▁ehdotamme	-10.9761
▁laatiminen	-10.9761
▁ankarasti	-10.9762
lauseke	-10.9762
neuvotteluissa	-10.9764
▁yhteensovittami	-10.9764
tuomioistuimessa	-10.9764
▁geeni	-10.9764
▁tuovat	-10.9764
varmuus	-10.9765
kysymykset	-10.9766
uudistus	-10.9769
▁mainittiin	-10.977
▁makrotaloudelli	-10.977
▁syyttää	-10.9771
▁tulevissa	-10.9773
▁estävät	-10.9777
▁Barroson	-10.9778
muutos	-10.978
▁puolestani	-10.9782
▁keskeisen	-10.9784
▁ranska	-10.9787
▁viiko	-10.9789
▁parempaan	-10.9791
uhki	-10.9794
▁harmi	-10.9797
▁tarvitsisi	-10.9797
▁seurattava	-10.9805
kyvyn	-10.9805
▁allianssi	-10.9806
oboda	-10.9807
ttävien	-10.9808
▁katsoen	-10.9808
vaatimusten	-10.981
▁unkarilais	-10.981
▁kaikenlaise	-10.9812
▁eräiden	-10.9812
12	-10.9816
yksestä	-10.9816
▁äänestetään	-10.9818
▁kehittyä	-10.9818
▁ainutlaatuis	-10.9818
▁Silti	-10.9819
▁äly	-10.9819
mmalla	-10.9824
▁oikeusperustan	-10.9825
▁houkutteleva	-10.9825
▁jokaisessa	-10.9825
▁Mer	-10.9826
▁yrityksistä	-10.9828
▁koskevalla	-10.9828
▁kansanmurha	-10.983
▁ulkoasioiden	-10.983
EU	-10.9832
▁haasteeseen	-10.9833
ez	-10.9834
▁täydellisen	-10.9837
menettelyjen	-10.9838
▁taustaa	-10.9841
▁auttaisi	-10.9843
▁syyllis	-10.9843
▁Lissabonissa	-10.9843
▁vanhojen	-10.9844
▁laittomien	-10.9848
▁eduksi	-10.985
▁sisältä	-10.9851
▁johdonmukainen	-10.9854
▁päätöksistä	-10.9854
▁Syy	-10.9854
tettua	-10.9857
stettava	-10.9858
▁itsellemme	-10.9859
▁ammatinharjoit	-10.986
töntä	-10.9863
▁toiveen	-10.9863
▁selittä	-10.9865
liikenteessä	-10.9868
▁yksinkertaistaa	-10.9876
▁satoja	-10.9878
▁rauhanturva	-10.988
▁tapahtuneen	-10.988
▁panemaa	-10.9882
▁tehtävässä	-10.989
▁saaste	-10.989
▁maani	-10.9891
▁Ensiksikin	-10.9891
▁omiin	-10.9892
▁johtaneet	-10.9895
▁johtajan	-10.9895
▁vaihtaa	-10.9895
▁1993	-10.9901
▁tärkeiden	-10.9901
▁saatavuus	-10.9901
▁kokonaisuutena	-10.9902
▁kannustetaan	-10.9903
▁kasvavat	-10.9904
zi	-10.9904
▁tulojen	-10.9909
▁syv	-10.991
▁suunnan	-10.991
▁juhli	-10.9913
▁vailla	-10.9914
▁ylpeitä	-10.9916
llisista	-10.9917
▁valtiontuki	-10.992
▁ammati	-10.9921
▁pystyisi	-10.9922
▁menevät	-10.9923
▁sitovia	-10.9923
mattomat	-10.9923
▁Hussein	-10.9925
▁etenkään	-10.9925
▁liittokansleri	-10.9925
▁taistella	-10.9927
▁luonne	-10.9927
▁uudistu	-10.9927
kaudesta	-10.9928
▁edelle	-10.9929
▁mahdollisten	-10.9932
rve	-10.9933
▁tilapäis	-10.9935
▁naurettava	-10.9937
▁kevään	-10.9938
▁luotettavi	-10.9938
25	-10.9938
▁Tarkoituksena	-10.994
emburg	-10.9944
llu	-10.9946
▁keskimäärin	-10.9949
▁kumppanu	-10.995
▁aikanaan	-10.9952
▁standardeja	-10.9957
▁voittoa	-10.9958
▁Malta	-10.9958
▁kilpailuun	-10.996
▁riippumattomuut	-10.996
▁johtuvi	-10.9961
▁johdonmukaista	-10.9963
▁Maatalous	-10.9963
▁asukkaiden	-10.9963
▁onnea	-10.9964
▁UN	-10.9965
▁Vihreät	-10.9965
sääntely	-10.9966
▁hidasta	-10.9966
▁alueelta	-10.9968
▁Kar	-10.9968
▁kanssani	-10.9968
▁vastaavasti	-10.9969
▁reaali	-10.9972
▁mietinnölle	-10.9974
▁laajentumisesta	-10.9974
▁Suuri	-10.9976
tuotantoa	-10.9977
▁velvollisuuksi	-10.9978
epäoikeudenmukai	-10.9979
▁huomautta	-10.998
▁Ant	-10.9981
maille	-10.9981
▁äänestäjä	-10.9981
keinoja	-10.9985
nomainen	-10.9985
▁ihmiskauppa	-10.9988
▁kallis	-10.9991
▁liittää	-10.9992
▁ottaminen	-10.9993
▁perustein	-10.9993
▁välittömi	-10.9995
▁jäsenvaltioon	-10.9997
▁kongressi	-10.9998
▁pysähty	-10.9998
▁Kinnock	-10.9998
▁saatavuutta	-10.9998
▁Vastustamme	-10.9998
▁totesitte	-11.0001
▁joukot	-11.0001
▁voimakasta	-11.0002
▁syntyi	-11.0002
▁haasteista	-11.0003
▁keskeisistä	-11.001
▁tukema	-11.0011
▁maapallon	-11.0011
▁tak	-11.0013
immin	-11.0017
▁puutteen	-11.0018
▁yhteisistä	-11.002
▁palvelun	-11.0021
▁mehiläis	-11.0022
▁tarkkailija	-11.0023
▁media	-11.0025
kkaat	-11.0026
▁lujittaa	-11.0026
▁Tunisian	-11.0026
ttömien	-11.0029
▁koordinoida	-11.003
hanke	-11.0031
ues	-11.0031
vuoden	-11.0032
▁kannattaja	-11.0035
▁Sveitsin	-11.0035
▁talouksien	-11.0035
läinen	-11.004
▁koostuu	-11.004
▁kysyttävä	-11.0043
▁menettelytapa	-11.0045
▁tarkistamista	-11.0047
▁kantelu	-11.0048
halu	-11.0048
▁huumausaineiden	-11.0051
▁ääntä	-11.0054
▁soveltamisalaa	-11.0055
▁kokemus	-11.0057
puolella	-11.0057
▁harkinta	-11.006
▁Yleisesti	-11.0062
▁Tapa	-11.0065
▁parlamentit	-11.0071
▁intressi	-11.0071
▁puolustukse	-11.0071
▁sovittaa	-11.0076
ilmastonmuutosta	-11.0081
▁OECD	-11.0083
▁uhreiksi	-11.0083
▁tehostettava	-11.0083
▁järjestelmästä	-11.0084
▁julistus	-11.0085
empää	-11.0086
▁tehdystä	-11.0092
▁monipuolista	-11.0094
kirjojen	-11.0094
▁turvaamiseksi	-11.0095
▁vihreiden	-11.0095
▁tuntei	-11.0095
▁teknologis	-11.0097
▁toimittami	-11.01
▁sain	-11.01
tuneen	-11.01
koulutus	-11.01
▁of	-11.0103
▁Seuraavaksi	-11.0107
▁pysyvät	-11.0107
▁Frattini	-11.0107
▁Sudanin	-11.0108
▁Burma	-11.0109
▁saavuttanut	-11.0109
▁ryhdytään	-11.011
▁osasto	-11.0111
▁järkeviä	-11.0112
Aasian	-11.0112
▁historiassa	-11.0114
tilojen	-11.0114
▁esitettyä	-11.0116
kapasiteeti	-11.0119
▁alkavat	-11.0121
▁vähenty	-11.0122
▁kansallisille	-11.0123
▁kyseenalaiseksi	-11.0133
AC	-11.0135
▁korkeampi	-11.0137
▁keinottelu	-11.0137
▁kannattaji	-11.0143
▁tähtäävi	-11.0143
▁työväen	-11.0144
▁vähäisi	-11.0145
▁hankkia	-11.0146
▁keskustelimme	-11.0146
▁nuore	-11.015
ehdokas	-11.015
taloutta	-11.0151
▁pani	-11.0153
▁britti	-11.0153
direktiiviä	-11.0155
▁yhteisiin	-11.0155
▁ehkäisevä	-11.0156
▁elokuva	-11.0157
▁hoidettava	-11.0157
▁Käytän	-11.0159
▁mahdollistavat	-11.016
▁onnettomuuden	-11.016
▁suhtaudutaan	-11.016
▁asetukseen	-11.0161
▁verotusta	-11.0164
▁luomisen	-11.0171
kala	-11.0171
▁valtuus	-11.0176
▁Du	-11.0176
▁kuulua	-11.0178
▁vetä	-11.0178
▁jääneet	-11.0179
▁naapurimai	-11.0179
▁vaikutusvalta	-11.018
▁kielellä	-11.0181
▁miele	-11.0186
▁kokema	-11.0189
▁autoteollisuude	-11.0192
▁vetoomuksen	-11.0192
järjestöille	-11.0193
▁ensimmäisestä	-11.0193
▁toivotan	-11.0198
▁alueelliset	-11.0205
▁vähentämiseen	-11.0205
▁lämpene	-11.0206
CNS	-11.0206
▁Edellise	-11.0206
▁sivuuttaa	-11.0206
taulu	-11.0207
EC	-11.0209
▁rahaliitto	-11.0209
vaikutusten	-11.021
AR	-11.0217
▁suositu	-11.0218
▁katastrofin	-11.0218
▁tarvittavan	-11.0219
▁tukevan	-11.022
▁päivään	-11.0221
kohdat	-11.0221
▁kokeilu	-11.0224
noissa	-11.0224
▁käsitettä	-11.0227
▁mielipiteensä	-11.0228
ation	-11.0228
60	-11.0229
▁edustajakokouks	-11.0229
▁kuollut	-11.023
tyksiin	-11.0231
▁sovittelukomite	-11.0231
▁vastaanotto	-11.0232
▁Santer	-11.0233
ilijoiden	-11.0234
▁vaiheen	-11.0234
▁tietoisuutta	-11.0236
ryhmille	-11.0236
▁muussa	-11.0237
▁uskoo	-11.0241
▁Tällaista	-11.0243
▁legitiimi	-11.0243
▁yrittänyt	-11.0243
▁huomautti	-11.0243
▁Teksti	-11.0243
▁kalastajien	-11.0245
▁riskit	-11.0245
▁vallassa	-11.0246
▁sitoumuksi	-11.0249
kysymystä	-11.025
▁hoitamaan	-11.0251
katastrofien	-11.0253
▁epävarm	-11.0253
▁laajennetaan	-11.0255
▁Bal	-11.0256
▁kaupungin	-11.0257
▁tullaan	-11.0257
▁Teemme	-11.0259
▁hallinnollisia	-11.0261
▁esitettyihin	-11.0262
▁tapauksista	-11.0263
della	-11.0263
▁pela	-11.0266
▁säilyy	-11.0267
▁taaksepäin	-11.0267
▁valvotaan	-11.0275
80	-11.0279
▁helpompi	-11.028
▁kehityksessä	-11.028
▁pyydetty	-11.028
▁keskusteluihin	-11.0283
▁Guant	-11.0284
▁Prodin	-11.0285
▁siirtymistä	-11.0287
▁rahoituspalvelu	-11.0287
▁käytetä	-11.0288
▁kohtelua	-11.0288
▁vahvistavat	-11.0288
▁erää	-11.029
▁lentoyhtiöiden	-11.0291
▁mainitut	-11.0292
▁väärentä	-11.0292
▁yhdistelmä	-11.0292
tavoitteiden	-11.0295
▁päättävät	-11.0296
hankkeita	-11.0297
pöytäkirja	-11.0301
rkoituksenmukais	-11.0301
lp	-11.0302
▁Huolimatta	-11.0305
▁esittäjä	-11.0305
▁patentoi	-11.0305
▁kuljettaji	-11.0306
▁syrjäyty	-11.0307
▁käymme	-11.0308
▁skandaali	-11.031
lam	-11.0311
edustaja	-11.0314
▁lainsäätäjä	-11.0317
▁katsottuna	-11.0317
▁ulkomaalais	-11.0318
vähennys	-11.0319
▁esitettyjen	-11.0319
▁oikeudelliset	-11.0319
kuljetusten	-11.0319
▁kulutukse	-11.0323
▁suuntautuva	-11.0323
▁esitetyistä	-11.0326
▁velvollisuuksia	-11.0326
▁rekisteri	-11.0327
▁erimielisyyksi	-11.033
teollisuudessa	-11.033
▁eko	-11.0335
▁loh	-11.0338
▁viimeistään	-11.0342
▁puolueettoma	-11.0343
▁puheenjohtaj	-11.0346
▁oikeusperustaa	-11.0347
▁jatkuvat	-11.0347
▁Ala	-11.0355
▁Toivotan	-11.0355
päivi	-11.036
neisiin	-11.0362
lausekkeen	-11.0362
▁investoinnei	-11.0363
▁mietintönsä	-11.0366
▁keskiviikkona	-11.0367
▁muuttuma	-11.037
▁tarkoitettujen	-11.037
▁tuska	-11.0371
see	-11.0373
▁vaarallisi	-11.0377
▁rinna	-11.0379
▁kohdellaan	-11.038
▁päästökauppa	-11.0386
▁tunnin	-11.0386
▁entinen	-11.0387
ET	-11.0389
oikeutensa	-11.0392
▁päätelmissä	-11.0393
▁jatkettiin	-11.0393
▁muttei	-11.0393
▁hyvänä	-11.0395
▁huolestuttavi	-11.0396
▁painostus	-11.0396
▁strategisen	-11.0398
▁ylläpitää	-11.0402
▁Yhteinen	-11.0405
▁puhumattakaan	-11.0405
▁teknisesti	-11.0405
▁muistutti	-11.0408
▁Jac	-11.0409
▁kierrä	-11.0413
▁panoksen	-11.0414
▁tarpeellinen	-11.0418
▁mainitui	-11.0418
Saharan	-11.0418
▁valtiosta	-11.0418
▁kehittymistä	-11.0418
▁useammat	-11.0419
▁monipuolis	-11.0419
▁aktiivista	-11.042
isyyden	-11.042
▁ammatillisen	-11.0421
mukainen	-11.0425
▁sekaantu	-11.0426
▁tieteen	-11.0427
vapaudesta	-11.043
▁rakentaminen	-11.043
▁luomisesta	-11.043
▁Haluaisimme	-11.043
▁osuu	-11.0431
▁kuuluvia	-11.0436
▁luopumaan	-11.0438
▁rakentavasta	-11.0439
▁siirro	-11.044
▁suureen	-11.0441
▁ryhmässä	-11.0442
▁henkilötietojen	-11.0445
päästöt	-11.0445
▁kansallisista	-11.0449
▁kehittämisestä	-11.045
▁huumausaine	-11.0451
▁kansallisissa	-11.0451
▁Puhumme	-11.0452
tumiseen	-11.0454
▁edustukse	-11.0456
▁kompromissia	-11.0458
▁kehitysavun	-11.0458
ttelee	-11.046
alaisia	-11.0463
▁selvityksen	-11.0463
liitti	-11.0464
▁arvioimaan	-11.0467
▁elämässä	-11.0467
▁paketin	-11.0472
▁lentoliikenne	-11.0472
▁ehdotuksensa	-11.0474
▁tarkastuksia	-11.0477
vähemmistö	-11.0479
▁sijaitsee	-11.0481
▁tärkeyttä	-11.0481
▁perustamisen	-11.0482
maihin	-11.0487
▁150	-11.0488
▁suljettu	-11.0488
kasvien	-11.049
▁valvoo	-11.0491
▁nöyr	-11.0494
▁leikkaa	-11.0494
▁käsiteltävi	-11.0494
▁tuotava	-11.0495
▁vauhtia	-11.0495
▁ehdotuksissa	-11.0496
▁kansainvälisiin	-11.0497
▁nousi	-11.0498
teistä	-11.0498
▁voidaanko	-11.0502
ajoneuvojen	-11.0502
▁lausumat	-11.0506
▁kehittynyt	-11.0506
▁perustuslaista	-11.0506
tilaa	-11.0507
▁aloittamaan	-11.0508
▁viikkojen	-11.0511
alusten	-11.0511
kkeiden	-11.0513
▁onnistunee	-11.0515
▁yksiköi	-11.0516
▁käsittelen	-11.0518
▁saisimme	-11.0518
▁yhdeksi	-11.0519
▁loma	-11.0522
▁maksuja	-11.0522
▁päämiesten	-11.0522
▁selvästikään	-11.0524
peri	-11.0525
▁tuottavat	-11.0525
▁puheenjohtajuus	-11.0525
▁viittaan	-11.0528
▁kriisissä	-11.053
▁äänestettävä	-11.0532
▁Tiedätte	-11.0532
▁runsa	-11.0532
▁Kollega	-11.0535
▁kantoja	-11.0537
▁kone	-11.0539
▁korjaamiseksi	-11.0542
▁palkkio	-11.0543
▁alkuperäisen	-11.0544
▁jyrk	-11.0545
▁toteutuu	-11.0546
▁sanotun	-11.0549
▁hyvänsä	-11.0549
▁virastojen	-11.0552
▁luovat	-11.0552
gra	-11.0553
▁34	-11.0556
mpänä	-11.0557
▁kemialli	-11.0558
▁kollegoja	-11.056
▁visio	-11.0561
▁rajoittava	-11.0564
▁selventä	-11.0566
▁Kanada	-11.0567
▁virallisen	-11.0568
▁paikallisia	-11.0569
impien	-11.0569
llisuudesta	-11.057
▁korkeimma	-11.0571
▁lapsiin	-11.0571
▁pahoi	-11.0572
▁keskisuuria	-11.0573
▁ohjelmasta	-11.0573
▁lausuma	-11.0574
▁lopulla	-11.0576
▁ratkaisujen	-11.0576
▁aiheuta	-11.0579
ovi	-11.058
jilta	-11.0582
▁aiheuttaisi	-11.0583
▁huolestuttaa	-11.0585
▁viimeinkin	-11.0585
▁miehet	-11.0586
tyyppise	-11.0588
▁tarkkail	-11.0589
▁verkkojen	-11.0589
▁jäädyt	-11.0591
▁rikkoo	-11.0593
oppi	-11.0594
▁Pyytäisin	-11.0596
▁tiedonannosta	-11.0596
▁vakautus	-11.0596
▁Näyttää	-11.0596
▁alulle	-11.0596
▁erästä	-11.0597
▁Av	-11.0598
▁kohtaamaan	-11.0598
▁lisäämiseen	-11.0599
▁tuleville	-11.0601
▁esitämme	-11.0602
tyneitä	-11.0603
▁rakentamisen	-11.0603
▁etelän	-11.0603
▁lisäämisestä	-11.0605
▁kollegojen	-11.0606
yhteyksien	-11.0609
▁kysynnän	-11.0609
▁sopimuksista	-11.0609
▁köyhä	-11.0609
laji	-11.0611
▁jatkua	-11.0611
tuvat	-11.0613
▁tuhansien	-11.0613
▁luonto	-11.0615
▁valittava	-11.0618
mil	-11.0619
▁vallankumoukse	-11.062
▁Suhtaudumme	-11.0622
▁epäluottamuslau	-11.0622
▁kaikenlaisi	-11.0624
▁selvittämään	-11.0624
maksuja	-11.0626
▁tuotto	-11.0626
▁pakolaisia	-11.063
▁perheille	-11.0632
huollon	-11.0633
▁autojen	-11.0634
▁edistyneet	-11.0635
▁sallii	-11.0635
▁ehtojen	-11.0635
▁kokemuksen	-11.0636
▁rikoksen	-11.0637
▁toiminnalle	-11.0639
▁nopeuttaa	-11.064
kansainvälisestä	-11.0643
▁kansat	-11.0645
▁pysyttävä	-11.0646
▁äänellä	-11.0647
▁tieteellistä	-11.0648
▁sovittiin	-11.0656
▁päivämäärä	-11.0658
▁neuvostoon	-11.0661
▁talouskasvua	-11.0661
▁uskonnon	-11.0663
▁jokaisella	-11.0664
▁Ihmiset	-11.0665
hinta	-11.0665
petoksi	-11.0666
▁kiinnittämää	-11.0668
▁haavoittuvi	-11.0669
neesta	-11.0671
▁kesäkuun	-11.0673
▁kylmä	-11.0674
▁saavutettava	-11.0678
▁lisääntynee	-11.0679
▁urheilun	-11.0686
▁myönnety	-11.0686
▁mietintöjä	-11.0688
▁sairauksien	-11.0688
kustannusten	-11.0688
▁Suomi	-11.0689
▁1990	-11.0689
▁muutoksista	-11.0689
▁tekniikkaa	-11.0691
ajoneuvo	-11.0692
▁tasapainoisen	-11.0692
▁riippumattoma	-11.0693
▁laajentumiseen	-11.0695
▁valtavat	-11.0697
▁puolust	-11.0698
▁Kiitoksia	-11.0699
▁vastustus	-11.0699
▁käymään	-11.07
▁turhaa	-11.0702
▁uhkaavat	-11.0703
▁määrästä	-11.0705
▁työtään	-11.0707
▁kriteerejä	-11.0707
väkivalla	-11.0709
▁Monti	-11.0711
▁helmikuussa	-11.0714
▁häiriö	-11.0714
▁2015	-11.0715
▁onnistuttu	-11.0716
▁jonkinlainen	-11.0718
▁epäillä	-11.0723
▁periaatteista	-11.0723
direktiivei	-11.0725
▁nähtävissä	-11.0725
▁aiheuttaneet	-11.0725
▁kokemukset	-11.0726
▁Kansalaiset	-11.0727
▁olennaisia	-11.0727
▁tapahtuvi	-11.073
politiikat	-11.073
▁miehiä	-11.0731
▁sovelleta	-11.0733
destä	-11.0734
utuminen	-11.0735
▁ymmärrämme	-11.0737
▁vaaleihin	-11.0738
▁sydän	-11.0738
velvollisuutta	-11.0739
▁suoran	-11.0742
vier	-11.0742
läisten	-11.0743
▁yhteisesti	-11.0743
▁Tällaisen	-11.0746
▁sisäisiä	-11.075
julistukse	-11.0751
▁toden	-11.0751
▁tavoitteeksi	-11.0751
▁tehtäisiin	-11.0751
▁säädetty	-11.0751
▁polkumyynti	-11.0751
▁myönteisi	-11.0752
▁varmistaminen	-11.0753
▁pyytäisin	-11.0753
▁määriä	-11.0754
kehityksen	-11.0757
▁Brasilian	-11.076
▁vaaraa	-11.0762
fo	-11.0762
▁Kambod	-11.0764
▁asettanut	-11.0765
▁GMO	-11.0766
▁42	-11.0766
ttäessään	-11.0767
▁oleellise	-11.0767
▁aiheuttamien	-11.0773
▁harha	-11.0774
eläimi	-11.0775
▁valiokuntaan	-11.0775
▁Terrorismi	-11.0777
▁maininnut	-11.0777
▁periaatteisiin	-11.0778
ääri	-11.0778
▁sääli	-11.078
▁Viimeinen	-11.0783
ER	-11.0786
▁tunnustaminen	-11.0787
▁olleen	-11.0788
▁lupasi	-11.079
teollisuutta	-11.079
▁rakenteellise	-11.079
otteesta	-11.079
▁käyttäen	-11.0791
▁Tukholman	-11.0792
▁epäonnistumise	-11.0793
▁parhaita	-11.0799
▁valtiovarain	-11.08
▁kääntä	-11.08
kehitys	-11.08
▁markkinointi	-11.0801
uli	-11.0801
▁halukas	-11.0801
miesten	-11.0802
▁Tilintarkastus	-11.0804
▁kiusa	-11.0805
▁Luotan	-11.0805
tavista	-11.0806
▁rahoittamiseen	-11.0807
▁sovitu	-11.0809
▁taloudessa	-11.0811
▁korostaneet	-11.0814
▁Hongkong	-11.0817
▁saavuttamisessa	-11.0817
▁aktiivinen	-11.0817
▁laadukkaa	-11.0817
▁vilpittömä	-11.082
▁käytti	-11.0822
iteetti	-11.0823
▁olennaisi	-11.0824
▁ottaisi	-11.0825
aloite	-11.0826
▁korvataan	-11.0827
▁Barnier	-11.083
▁hyväksymisestä	-11.0831
▁lausunnossa	-11.0831
kymmen	-11.0831
▁supista	-11.0832
▁arvoihin	-11.0833
▁toimisi	-11.0834
tuotannossa	-11.0839
▁samanlaise	-11.0841
laitteiden	-11.0842
▁kello	-11.0844
resurssi	-11.0844
pyyntö	-11.0847
▁maanantaina	-11.0849
▁edelleenkään	-11.0849
määrien	-11.0851
▁auttamiseksi	-11.0853
▁määritelmää	-11.0853
▁muutoksiin	-11.0856
▁väärinkäytöksi	-11.0856
▁vakiintu	-11.0856
▁tunti	-11.0856
▁tarkoitetaan	-11.0859
▁keskeiset	-11.0861
ttakoon	-11.0863
änestän	-11.0867
▁liittymisestä	-11.0868
▁Demokratia	-11.0869
mainonta	-11.087
▁Algerian	-11.0871
▁rakenteita	-11.0871
▁vaiheeseen	-11.0874
▁säännellä	-11.0875
steri	-11.0877
vaikutuksi	-11.0877
▁käyvät	-11.088
▁pystyneet	-11.0882
▁Poettering	-11.0883
▁tapahtuisi	-11.0883
▁the	-11.0884
▁sisällyttäminen	-11.0884
▁vahvistanut	-11.0885
▁tarvitsema	-11.0886
▁myöhässä	-11.0891
▁ensisijaise	-11.0894
▁epäonnistunut	-11.0895
▁Bolkestein	-11.0896
▁ilmoitettava	-11.0896
▁seikoista	-11.0896
▁pääosin	-11.0896
▁Kolme	-11.0896
▁vuokra	-11.0896
▁UEN	-11.0901
▁jäseneltä	-11.0902
▁työskentelee	-11.0902
▁suoraa	-11.0904
käynnistä	-11.0904
▁nykyaikais	-11.0904
▁välitöntä	-11.0905
▁osaamis	-11.0907
▁Milosevi	-11.0909
▁pelkää	-11.0911
▁Pel	-11.0913
▁sähköisen	-11.0917
▁lahjo	-11.0917
▁Uskomme	-11.0918
▁vaarallinen	-11.0919
▁Tällaise	-11.0921
EGR	-11.0922
▁takeet	-11.0922
▁huolenaiheet	-11.0923
▁joilta	-11.0923
täytäntöönpanoon	-11.0925
valmis	-11.0927
▁tapahduttava	-11.0928
▁sopineet	-11.0928
vaikutuksia	-11.0932
▁maanviljelijät	-11.0932
▁Mugabe	-11.0936
▁keven	-11.0936
▁pääasiallise	-11.0937
▁tuotannosta	-11.0937
▁sovinto	-11.0937
▁pyrkimykset	-11.0938
pääsy	-11.0939
lenno	-11.094
▁toisten	-11.094
▁yhdenmukaise	-11.094
▁lupaus	-11.094
▁pysyvästi	-11.0941
▁puheessa	-11.0942
▁toimille	-11.0945
▁ulotta	-11.0947
▁löytämiseksi	-11.0948
▁laiton	-11.0948
▁noussut	-11.0949
▁toteutus	-11.0949
immat	-11.095
▁kulttuurista	-11.095
joihin	-11.0952
sivusto	-11.096
▁liittyvi	-11.096
▁tällaisesta	-11.0962
▁ensisijaisia	-11.0964
▁vieraa	-11.0966
▁muodostuu	-11.0968
yhteyde	-11.0969
▁sosialistien	-11.0969
▁säädösten	-11.0969
▁alkuperämaa	-11.0971
▁tyyty	-11.0972
▁sanomme	-11.0973
▁elintärkeä	-11.0974
itään	-11.0974
▁tavanomaise	-11.0976
▁Yhteisen	-11.0976
▁sopia	-11.0976
▁Ongelmana	-11.0977
rakenne	-11.0977
tyvät	-11.0977
▁järkevästi	-11.0979
▁kattavaa	-11.0979
▁Toiminta	-11.0981
luont	-11.0981
▁valvomaan	-11.0982
edellytysten	-11.0983
▁tuhannet	-11.0983
▁välinettä	-11.0984
▁38	-11.0988
▁kivi	-11.0988
▁tekemisissä	-11.0989
▁etenee	-11.0989
▁vaikutuksesta	-11.099
▁yksimielisyyttä	-11.0993
▁muutamien	-11.0996
▁nimenomaisesti	-11.0997
▁selkei	-11.1
▁ELDR	-11.1002
▁valiokunnalle	-11.1004
▁kukin	-11.1005
▁Meksikon	-11.1006
▁mieliin	-11.1008
▁täsmällise	-11.101
▁perustua	-11.101
▁ajatellaan	-11.1012
▁lyö	-11.1016
vilta	-11.1017
▁välttämään	-11.1018
07	-11.102
▁sanottiin	-11.1022
kohdasta	-11.1024
▁kysyntää	-11.1025
▁Erika	-11.1026
▁Kilpailu	-11.1029
merkintöjä	-11.1029
▁toteaisin	-11.1029
▁hallussa	-11.1029
▁Anna	-11.1031
ohjelmiin	-11.1034
▁Asetukse	-11.1035
▁oikei	-11.1035
▁Otta	-11.1036
▁kannalla	-11.1038
▁sääntöihin	-11.1041
▁löydä	-11.1043
eurooppalaisessa	-11.1043
▁luottoluokitus	-11.1043
isoi	-11.1043
▁soveltu	-11.1043
▁lopullise	-11.1045
▁yhtiöiden	-11.1049
▁suunna	-11.1049
▁arvioitu	-11.105
▁tuloja	-11.1053
▁Kuluttaja	-11.1056
▁pettymys	-11.1056
▁transatlanttise	-11.1056
indikaattori	-11.1056
▁perintee	-11.1056
▁tieteellisen	-11.1057
▁valmisteleva	-11.1057
▁eläimiä	-11.1057
▁mietintöjen	-11.1058
▁saksa	-11.1058
▁kiistel	-11.1059
▁Brasilia	-11.106
▁lähtee	-11.1062
▁käsitteen	-11.1064
▁koordinoitu	-11.1065
esitykse	-11.1065
▁portugali	-11.1069
▁laadusta	-11.1071
▁kollegaani	-11.1073
▁Romaniassa	-11.1074
▁joutuisi	-11.1075
▁ratkaistaan	-11.1075
▁pystynyt	-11.1077
▁tunnu	-11.1078
▁uudistaminen	-11.1079
▁edellyttämä	-11.1083
▁ilmaisseet	-11.1083
▁tavoitteesta	-11.1083
▁arvostele	-11.1083
▁sitoumus	-11.1086
suur	-11.1087
▁järjetöntä	-11.1087
▁laatineet	-11.1087
▁tavallise	-11.1089
pl	-11.1091
▁järky	-11.1092
kohtien	-11.1092
▁juliste	-11.1094
▁sopimuksissa	-11.1095
mmissa	-11.1099
▁valtavaa	-11.1099
▁käsissä	-11.11
▁SIS	-11.11
▁hallitseva	-11.1101
▁ihmisillä	-11.1106
▁Pahoittelen	-11.111
▁varjoesittelijä	-11.111
▁enintään	-11.111
▁sovellu	-11.1117
▁kyseenalaistaa	-11.1123
▁Tärkeä	-11.1123
▁kehittyy	-11.1123
▁Neuvostoliiton	-11.1125
▁Onneksi	-11.1126
lausekkei	-11.1128
▁hoidon	-11.1129
▁tukeva	-11.113
▁hämä	-11.1131
▁Seuraava	-11.1131
päivää	-11.1134
▁välttämättömi	-11.1134
▁mahdottoma	-11.1137
▁huomautettava	-11.1137
▁päätelmiä	-11.1137
▁räikeä	-11.1137
▁Ette	-11.1138
▁Kor	-11.1138
alaista	-11.1139
▁tarkalleen	-11.1139
teltävä	-11.1144
▁nauttia	-11.1146
▁tuhota	-11.1147
▁Vie	-11.1148
vaatimukse	-11.115
▁käyttöönotosta	-11.1151
▁perustamiseen	-11.1151
▁kuivu	-11.1151
▁uskovat	-11.1153
▁paikkaansa	-11.1153
▁rakenteiden	-11.1154
▁järke	-11.1157
▁Erityisen	-11.1158
▁yhteenkuuluvuus	-11.1158
▁mainittujen	-11.1159
joukot	-11.1161
▁normit	-11.1162
▁torjumista	-11.1163
ashington	-11.1164
delle	-11.1168
▁käsitelleet	-11.1168
aloilla	-11.1169
▁kannatusta	-11.117
paikkoja	-11.1173
▁erilaise	-11.1174
▁rahoittama	-11.1176
▁iltapäivällä	-11.1178
hallinnosta	-11.1178
▁jättämä	-11.1179
▁kulkeva	-11.1179
▁yhtäläiset	-11.118
▁byrokratian	-11.118
▁kauppajärjestö	-11.1181
▁Yhteistyö	-11.1182
▁miljoonasta	-11.1184
▁edustusto	-11.1184
kunnalle	-11.1185
▁kärsineet	-11.1185
▁keskeisessä	-11.1187
▁lopputuloks	-11.1188
neuvostolle	-11.1188
▁anneta	-11.1188
▁Aion	-11.119
▁pohtimaan	-11.1191
▁keskinäistä	-11.1191
▁hyödyntämään	-11.1193
▁elintärkeää	-11.1193
▁Nykyään	-11.1193
▁käytiin	-11.1195
loma	-11.1203
▁tukeneet	-11.1205
mielenkiintoista	-11.1206
▁vaalipiiri	-11.1207
▁saavuttamiseen	-11.1207
▁markkinoi	-11.1208
▁maanviljely	-11.1209
▁perussopimusten	-11.1212
IC	-11.1214
miehet	-11.122
▁käsittääkseni	-11.1221
19	-11.1224
▁kasvusopimuksen	-11.1226
lento	-11.1228
▁käyneet	-11.1228
▁soti	-11.1231
ohje	-11.1232
▁virallisi	-11.1235
▁paikallisen	-11.1237
▁ihantee	-11.1238
▁keskipitkä	-11.1238
▁65	-11.1244
▁kumo	-11.1244
▁toimielimille	-11.1246
▁Vetoan	-11.1246
▁kolmikanta	-11.1246
▁Libyan	-11.1249
▁kuulema	-11.1253
▁tammikuu	-11.1253
▁lisääntyvät	-11.1257
▁kyseenalais	-11.1259
▁aikomus	-11.126
▁mietinnöt	-11.126
▁kansallisvaltio	-11.1261
▁toimeentulo	-11.1261
evä	-11.1263
▁tuottama	-11.1264
mmäksi	-11.127
▁hyödyksi	-11.1271
▁kaatu	-11.1272
▁havaittavissa	-11.1274
▁odotettavissa	-11.1274
▁kilpailukykyisi	-11.1275
yhteiskuntaa	-11.1275
▁tietyillä	-11.1276
▁tiedotuskampanj	-11.1277
▁aloihin	-11.1281
▁kaupankäynnin	-11.1287
▁rakenteen	-11.1288
▁puolustamaan	-11.1289
▁rikoksia	-11.1289
▁kritiikkiä	-11.1293
▁panee	-11.1294
▁tarkastelee	-11.1295
▁keskipitkällä	-11.1295
▁Kriisi	-11.1298
▁Ab	-11.1298
▁55	-11.1299
▁sukupolvien	-11.1299
▁vuosiksi	-11.13
kunnassa	-11.1301
▁ensimmäiset	-11.1301
▁prosentista	-11.1301
▁yhdistetty	-11.1301
▁pr	-11.1302
liikenteeseen	-11.1303
▁rakentamista	-11.1306
▁varmistaaksemme	-11.1307
▁Tunisia	-11.131
▁149	-11.1312
▁aloitettu	-11.1313
▁ilmeise	-11.1313
nnilla	-11.1314
kriteerei	-11.1314
diplomatia	-11.1315
▁Hallitus	-11.1315
▁suhtautumista	-11.1316
▁esittämästä	-11.1319
▁ajankohtainen	-11.132
▁kansalainen	-11.1321
▁rohkaiseva	-11.1322
pano	-11.1323
▁yrityksissä	-11.1325
▁suorasta	-11.1326
yksessä	-11.1327
▁harva	-11.1328
▁Palacio	-11.1329
▁Turkille	-11.1329
▁esittämien	-11.1329
▁vakaumukse	-11.1329
▁joulukuun	-11.1329
▁pelkki	-11.1329
▁43	-11.133
▁tunnetaan	-11.1333
▁tiukat	-11.1334
ttomien	-11.1337
▁edistyksen	-11.1337
▁OLAFin	-11.1337
▁perusoikeus	-11.1341
tarkastelu	-11.1342
komiteoi	-11.1342
akti	-11.1342
▁Norja	-11.1343
▁ajaksi	-11.1343
▁koostuva	-11.1344
08	-11.1344
▁haitallise	-11.1345
▁energialähteitä	-11.1345
▁jälji	-11.1345
▁vältetään	-11.1346
09	-11.1349
emburgissa	-11.1349
▁Ase	-11.1349
▁siirtämistä	-11.1349
▁kerrotaan	-11.135
▁määräys	-11.135
▁tietyistä	-11.1351
▁riistä	-11.1352
▁Arvosta	-11.1354
▁sekaannu	-11.1355
▁vahvistettiin	-11.1356
▁mietinnöissä	-11.1356
▁epäilyksiä	-11.1357
▁sävy	-11.1357
▁uudistettava	-11.1357
▁Päätös	-11.1357
▁tavallisesti	-11.1358
▁myöntäminen	-11.1358
bar	-11.1358
▁läheise	-11.1358
▁esittely	-11.136
▁istuntosali	-11.1366
▁tuottajat	-11.1366
▁kykyä	-11.1369
suunnitelmasta	-11.1375
▁arvokkai	-11.1375
▁miljoonien	-11.1377
lkää	-11.1379
▁ammattilais	-11.1381
▁kuuluisa	-11.1381
▁lisäys	-11.1382
▁annettaisiin	-11.1384
▁välisistä	-11.1385
▁koordinoinnin	-11.1387
▁III	-11.1388
vyyttä	-11.1389
▁laajentaminen	-11.1392
riitojen	-11.1392
▁serbi	-11.1398
▁pahoin	-11.1398
▁useista	-11.1398
toimenpiteet	-11.1399
▁puolustettava	-11.1399
▁yksinkertaistet	-11.14
▁edistys	-11.1406
mattomien	-11.1408
▁kehitystavoitte	-11.1409
▁markkinataloude	-11.1411
▁Useat	-11.1412
▁loukata	-11.1412
▁tyytyväis	-11.1417
▁riippumattomien	-11.1421
▁selville	-11.1424
▁päätöksiin	-11.1425
kohdista	-11.1427
▁asukkaat	-11.1427
▁työskentelemään	-11.143
▁ulkoisten	-11.1431
▁tapauksesta	-11.1431
▁Internetissä	-11.1431
tellaan	-11.1435
▁havaittu	-11.144
▁häpeällistä	-11.1441
▁kalavarojen	-11.1441
▁valmiuksia	-11.1442
▁periksi	-11.1446
▁tuntuva	-11.1448
▁katsoi	-11.1451
▁Libya	-11.1451
▁tutkii	-11.1453
projekti	-11.1454
▁vaurauden	-11.1454
▁asianomaisi	-11.1454
▁vettä	-11.1455
▁säätää	-11.1457
▁demokraattiset	-11.1458
▁tuleviin	-11.1461
▁halpa	-11.1463
▁painopistealuei	-11.1464
▁päätöslauselmia	-11.1467
▁toimivia	-11.1468
▁raportissa	-11.1468
▁Jär	-11.1468
▁sydämellisesti	-11.1469
▁rajoitettu	-11.1469
▁sisäisten	-11.1469
yksikkö	-11.147
▁esitte	-11.1472
▁palauttamista	-11.1475
▁saavutukse	-11.1483
▁kannattanut	-11.1484
▁sitoumukset	-11.1486
▁tärkeinä	-11.1487
▁investoida	-11.1488
▁ponnisteluista	-11.1489
llisesta	-11.1492
▁epäinhimillis	-11.1496
ryhmittymi	-11.1496
▁tekemisestä	-11.1496
▁neuvotteli	-11.1498
▁edistämisessä	-11.1498
▁uudenaikais	-11.1501
▁alueesta	-11.1505
▁moraalise	-11.1505
▁sanoivat	-11.1506
hankkeiden	-11.1507
hallitus	-11.1508
▁näkökohtiin	-11.151
prostituutio	-11.151
▁turska	-11.151
▁määritelly	-11.1511
▁Bryssel	-11.1511
▁väärässä	-11.1511
▁joukkoon	-11.1513
▁poliittisella	-11.1514
▁kolmansiin	-11.1514
▁henkilöille	-11.1514
▁kokemuksi	-11.1517
▁lupauksia	-11.152
▁vaikeuttaa	-11.152
▁konkreettisi	-11.1521
ohjelmat	-11.1522
▁luomalla	-11.1523
▁vaikeutta	-11.1523
▁kuorma	-11.1524
▁julkilausu	-11.1525
▁sellaisenaan	-11.1525
▁tilanteita	-11.1525
tuneita	-11.1526
▁äänestämästä	-11.1527
▁yleisölle	-11.1527
miset	-11.1533
▁arvoista	-11.1536
▁laajoja	-11.1538
▁miltei	-11.1538
▁riittämättömä	-11.1538
▁vaikutelman	-11.1541
▁keinona	-11.1545
namo	-11.1546
▁edistyä	-11.1548
▁pystytään	-11.155
▁identiteet	-11.155
▁elävien	-11.1551
▁kehittyneiden	-11.1551
▁ihminen	-11.1552
▁törmä	-11.1552
▁ulkomailla	-11.1552
▁periaatteesta	-11.1552
▁ankari	-11.1553
päivänä	-11.1553
▁vuosittaise	-11.1554
▁mahdolliseksi	-11.1556
▁muuttama	-11.1557
▁sopusoinnussa	-11.1566
▁yhteisöä	-11.157
▁vaikeuksista	-11.1571
▁periaatteeseen	-11.1576
▁vuoristo	-11.1577
▁asuu	-11.1577
▁humanitaarisi	-11.1581
▁konkreettinen	-11.1581
▁tehokkaamma	-11.1581
▁Kaikke	-11.1581
▁johdu	-11.1581
tarkastukset	-11.1581
▁huolet	-11.1581
▁Maltan	-11.1584
▁tärkeimmä	-11.1592
▁kertomaan	-11.1593
ttömän	-11.1593
▁teollisuutta	-11.1594
▁YUTP	-11.1595
▁yrittäneet	-11.1595
▁tarkoitusta	-11.1595
▁yhteisöön	-11.1596
▁varmastikin	-11.1597
▁synnyttää	-11.1598
▁ulkosuhteiden	-11.1599
rahojen	-11.1601
ehdotuksessa	-11.1604
▁hyväksyntää	-11.1605
▁luomisessa	-11.1606
▁edistynyt	-11.1607
▁Niistä	-11.1609
▁Kehotamme	-11.1609
▁sikäli	-11.1609
käämme	-11.1615
▁toteuttami	-11.1616
▁yksimielise	-11.1618
kysymyksen	-11.1619
viiva	-11.1619
▁maassani	-11.162
▁kuuluisi	-11.1621
▁Iranissa	-11.1622
▁Cotonou	-11.1623
verkkojen	-11.1629
▁OLAF	-11.1629
▁Seuraavan	-11.163
puoluetta	-11.1633
▁vaativa	-11.1633
voimien	-11.1634
▁toimenpiteen	-11.1637
▁Itävallassa	-11.1637
▁pakkaus	-11.1638
▁myöntämisen	-11.1639
▁torjutaan	-11.1639
▁kehitysmaille	-11.164
menetelmiä	-11.1642
▁Sveitsi	-11.1651
▁Mercosur	-11.1652
▁uskonnollise	-11.1652
▁yhdennetty	-11.1652
▁saattoi	-11.1653
▁huomautusta	-11.166
git	-11.1663
▁Baltian	-11.1666
▁johtoasema	-11.1668
▁täydentävi	-11.1668
▁Vastaukse	-11.167
▁juhla	-11.1672
▁eurooppalaisiin	-11.1674
▁alv	-11.1675
▁tekemien	-11.1676
▁Armenia	-11.168
▁REACH	-11.168
▁lukuisat	-11.168
▁prioriteetti	-11.168
▁väittävät	-11.168
▁kerätä	-11.1682
▁pystyi	-11.1685
▁budjettivallan	-11.1686
suhde	-11.169
▁oikeuslaitokse	-11.169
▁tulemme	-11.1691
▁asettamaan	-11.1692
▁tutkitaan	-11.1692
ihimme	-11.1693
▁anti	-11.1693
▁juna	-11.1694
▁rakenneuudistus	-11.1694
▁eurolla	-11.1695
kkien	-11.1697
▁Belgiassa	-11.1698
▁tietoihin	-11.1702
▁omissa	-11.1703
▁varalta	-11.1703
▁Turva	-11.1704
▁vaikutelma	-11.1706
▁huolehdi	-11.1706
▁seuraamaan	-11.1707
▁ymmärsi	-11.1709
otsiko	-11.1709
▁asetusten	-11.1709
▁edistävi	-11.1715
▁kotiin	-11.1716
▁oikealla	-11.1716
▁varhais	-11.1716
▁heiltä	-11.1717
▁henkilökohtais	-11.1717
▁mukaisen	-11.172
▁valmistu	-11.1722
▁ellemme	-11.1723
▁Tampereen	-11.1723
▁toimielimiin	-11.1723
▁mukauttaa	-11.1725
▁vaatimuksista	-11.1725
▁muualle	-11.1725
kapasiteettia	-11.1729
▁Toivo	-11.1733
▁toimijoita	-11.1734
▁laatimassa	-11.1735
▁Korost	-11.1737
▁sovellettu	-11.1738
▁moitteettoma	-11.1738
▁kunnioittamaan	-11.1738
▁kidutukse	-11.1738
▁haluaisivat	-11.1739
▁valiokuntamme	-11.174
▁kannatetaan	-11.1743
▁Roth	-11.1747
▁Bri	-11.1748
▁hirvittävä	-11.1752
▁optimisti	-11.1752
▁vaurautta	-11.1752
vaihtelu	-11.1752
velvollisuutensa	-11.1753
▁ilmoitettu	-11.1753
▁Gaza	-11.1754
▁standardien	-11.1754
▁oikeuksiaan	-11.1755
▁Il	-11.1755
▁monenvälise	-11.1757
▁tavaroi	-11.1759
▁luottamuksellis	-11.176
oinnin	-11.1762
talouskumppanuus	-11.1762
▁koskivat	-11.1763
eurooppalaiselle	-11.1764
▁palveluihin	-11.1766
▁Azerbaid	-11.1767
▁kuk	-11.1767
▁Eli	-11.1769
▁kaupasta	-11.1779
▁ruohonjuuritaso	-11.1781
▁ilmiselvä	-11.1781
▁määrätietois	-11.1791
▁yksimielisyyden	-11.1793
▁ennallaan	-11.1796
▁esitin	-11.1796
▁merkittävästä	-11.1796
▁tiiviimpää	-11.1797
silla	-11.1799
▁pääsee	-11.1802
▁silmissä	-11.1803
▁jatkamista	-11.1804
▁yksilöi	-11.1805
▁veroja	-11.1805
▁ylittävää	-11.1805
yhteis	-11.1806
▁eettise	-11.1807
▁selviytyä	-11.181
▁Sää	-11.1811
▁kantaansa	-11.1811
▁euroalueeseen	-11.1812
▁sanottua	-11.182
▁vaihtoehtoisia	-11.1822
▁tunnustamisen	-11.1823
▁Sopimuksen	-11.1825
▁valintoja	-11.1825
osassa	-11.1825
▁jatkuvi	-11.1827
▁aloitteeseen	-11.1828
▁yhtenäisyyden	-11.1829
▁maahanmuuttajia	-11.1829
06	-11.183
▁antaminen	-11.183
▁rikotaan	-11.1834
▁yhteisölle	-11.1835
summa	-11.1836
▁lisäisi	-11.1836
▁kattavat	-11.1837
▁tarkoitettuja	-11.1837
▁Skotlannin	-11.1839
▁afrikkalais	-11.1839
▁ylipäänsä	-11.1839
▁joustavuuden	-11.1839
▁kaikkeen	-11.184
▁suvaitsevaisuu	-11.184
▁siirtyminen	-11.1841
gl	-11.1843
suunnitelmia	-11.1844
iikan	-11.1851
▁95	-11.1851
ttelemme	-11.1852
pyörä	-11.1854
▁ylipäätään	-11.1854
▁mutki	-11.1854
▁lisätty	-11.1854
perinnön	-11.1856
▁järjestety	-11.1858
▁kehotti	-11.1858
▁poistamisesta	-11.1862
▁yhty	-11.1863
▁tekemättä	-11.1864
▁unionilta	-11.1866
▁Vero	-11.1868
▁saatettava	-11.1869
arvioinnissa	-11.187
▁Kerr	-11.1872
▁hullu	-11.1872
▁oppimisen	-11.1874
▁velvoitta	-11.1877
▁vei	-11.1878
▁Syyrian	-11.1878
▁hienoa	-11.188
▁postipalvelu	-11.1881
▁Chris	-11.1882
aloitteis	-11.1883
▁ammattitaito	-11.1883
▁avoimuudesta	-11.1883
▁ulkoisi	-11.1883
▁piirissä	-11.1883
▁Canc	-11.1883
▁rakentamiseen	-11.1886
▁seurantakeskuks	-11.1886
▁tautien	-11.1886
▁kolmannes	-11.1888
▁vuosikymmenen	-11.1889
▁turvataan	-11.1889
sääd	-11.1893
▁etsiä	-11.1897
▁henkensä	-11.1897
▁imperialisti	-11.1897
▁paljastu	-11.1897
▁välisissä	-11.1898
▁pakollisi	-11.1901
▁palo	-11.1902
oksen	-11.1902
▁säädöksen	-11.1902
▁supist	-11.1903
geeni	-11.1903
IP	-11.1904
▁kesto	-11.1905
tonni	-11.1906
hr	-11.1908
suu	-11.1908
luonnoksessa	-11.1908
▁huolellis	-11.191
▁vientiä	-11.1912
kaupassa	-11.1912
rangaistus	-11.1912
luotto	-11.1913
▁kummankin	-11.1913
▁laadittiin	-11.1914
▁veren	-11.1919
uudeksi	-11.192
▁jäsenmaiden	-11.1921
▁kannustimia	-11.1923
▁edettävä	-11.1927
▁elohopea	-11.1927
▁Saharov	-11.1927
▁ehkäisemiseksi	-11.1927
paikasta	-11.1928
▁henkilöstöä	-11.1928
▁Ellei	-11.1931
▁sopivaa	-11.1934
viljelijä	-11.1934
▁menot	-11.1935
▁soveltamaan	-11.1939
▁todelliseen	-11.1939
▁ulkoisen	-11.1939
▁Poliittise	-11.1941
▁nykyisellä	-11.1942
▁Vastustan	-11.1944
▁tekemässä	-11.1945
▁houkuttele	-11.1949
▁veronmaksaji	-11.1952
▁vastaanottanut	-11.1956
▁yhtäläisi	-11.1958
▁alueista	-11.1958
iskujen	-11.196
▁vaihtelevat	-11.196
▁laatuun	-11.1961
▁Kansalaisten	-11.1961
▁Syyria	-11.1961
▁velvoittaa	-11.1962
▁onnettomuuksien	-11.1965
▁perusarvo	-11.1966
▁käytössään	-11.1966
▁miljoonalla	-11.1968
▁Meitä	-11.197
▁asianosaisten	-11.1971
▁Amerikka	-11.1971
▁luonnonvara	-11.1975
essanne	-11.1976
▁koho	-11.1978
▁selvitä	-11.1978
▁käsitystä	-11.1982
▁tiedustelu	-11.1983
▁varmaankin	-11.1983
▁keskisuuret	-11.1986
▁keskittyy	-11.1986
▁seiso	-11.1986
▁epävarmuutta	-11.1987
▁lähteä	-11.1987
▁ruokki	-11.1987
▁biologisen	-11.1988
▁saatettu	-11.1989
sitoumukse	-11.1992
▁sosiaalisiin	-11.1997
▁esiintyvä	-11.1998
▁keskusteli	-11.2002
▁menettäneet	-11.2004
▁samanlaisia	-11.2004
▁lausunnot	-11.2005
▁mahdollisesta	-11.2006
elintarviketurva	-11.2008
▁puhujien	-11.2011
analyysi	-11.2011
▁vastuulle	-11.2014
▁vaikuttamaan	-11.2015
▁mielellään	-11.2016
▁kunnossa	-11.2016
▁muotoilu	-11.2018
▁säästää	-11.202
▁epäsuorasti	-11.2021
▁muilta	-11.2025
▁elimet	-11.2026
huomautukse	-11.2027
▁jakama	-11.2029
▁Käsittelen	-11.203
▁tasavertaise	-11.203
▁islamilaise	-11.203
▁etusijalla	-11.2032
▁lentä	-11.2033
▁Putin	-11.2037
vaihdon	-11.204
▁onnistuneesti	-11.2042
▁kiintiöiden	-11.2042
▁ajatuksi	-11.2042
▁Järjestelmä	-11.2045
▁Moskova	-11.2045
▁Mustanmeren	-11.2045
▁suuremmat	-11.2045
yhteistyötä	-11.2045
▁ensiarvoisen	-11.2046
▁peitt	-11.2048
▁viedään	-11.2051
yritys	-11.2052
▁edistymisestä	-11.2052
▁tapaukset	-11.2053
21	-11.2055
▁rakennetta	-11.2058
▁ulkomaankauppa	-11.206
▁valu	-11.206
▁sitoumusta	-11.206
▁kirjanpito	-11.2061
▁kokouksissa	-11.2066
▁valmistus	-11.2066
▁aloitti	-11.2067
▁haasteiden	-11.2068
▁1990-	-11.2071
▁sijaitsevat	-11.2074
▁Strategi	-11.2075
▁innovoinnin	-11.2075
▁opiskelija	-11.2075
▁vaikuttaisi	-11.2075
▁yleissopimusta	-11.2075
▁strategioita	-11.2076
▁leviämis	-11.2077
▁moneen	-11.2082
▁kuulemisen	-11.2083
▁kriittise	-11.2086
▁suureksi	-11.2087
▁päivästä	-11.2089
▁Somalia	-11.2089
▁tunniste	-11.209
uutena	-11.2091
▁vastauksessa	-11.2094
▁keskeisenä	-11.2095
▁salissa	-11.2097
utumista	-11.2099
▁kehitysmaat	-11.2102
järjestykseen	-11.2103
pöytä	-11.2104
▁uskonnollisi	-11.2104
▁viides	-11.2106
arvoista	-11.2107
▁jäsenillä	-11.2109
▁byrokratia	-11.2109
▁varautumisen	-11.211
▁suurinta	-11.2116
mielenkiintoinen	-11.2118
president	-11.2119
▁Mihin	-11.2119
▁raiska	-11.2119
nmukaista	-11.212
▁tuoneet	-11.2121
eurooppalaisella	-11.2125
▁tuottajille	-11.2128
▁varastoi	-11.2128
▁Pyrimme	-11.2136
▁vastaukset	-11.2137
▁osoituksena	-11.2137
▁antoivat	-11.2138
myynni	-11.2146
▁tuotteisiin	-11.2147
materiaali	-11.2148
eurooppalaisista	-11.2149
▁erinomaisi	-11.2149
▁makro	-11.2149
▁demokratisoi	-11.215
▁jokapäiväise	-11.2151
▁Ben	-11.2151
▁mahdollisella	-11.2152
▁kollegoille	-11.2155
rjoesittelijöitä	-11.2155
▁kerrottava	-11.2156
▁näyttöä	-11.2162
▁vastedes	-11.2164
▁edellinen	-11.2164
perustavanlaatui	-11.2166
▁tuotantoon	-11.2171
▁koskettaa	-11.2172
▁alkuperäistä	-11.2172
▁hoitoon	-11.2175
▁osuuden	-11.2176
▁sisältyi	-11.2179
▁sitoutumisesta	-11.2181
▁laittomia	-11.2183
▁Entä	-11.2184
▁tapahtunei	-11.2186
▁tarvittavien	-11.2188
▁aiheuttamia	-11.219
järjestelyjen	-11.2192
MO	-11.2192
asioihin	-11.2193
▁pätevi	-11.2194
▁etnisten	-11.2194
▁tarpeettomi	-11.2195
▁väliaikainen	-11.2198
▁etusija	-11.2198
▁uusiutuvia	-11.2199
▁omaksuma	-11.22
▁toteuttanut	-11.2201
▁rotu	-11.2202
säädökse	-11.2203
valvonnan	-11.2209
ilmiö	-11.2209
▁kohtaavat	-11.2209
▁kaksois	-11.2209
▁objektiivise	-11.2209
sopimuksiin	-11.2211
▁liikkumavaraa	-11.2215
▁mailla	-11.2217
▁kokonaisvaltai	-11.2221
▁federaatio	-11.2225
▁Erää	-11.2225
▁kytke	-11.2225
näkymiä	-11.2225
▁noudatettu	-11.2226
▁maidon	-11.2226
▁Ehkäpä	-11.2228
▁markkinoilta	-11.2228
▁Mikään	-11.2231
▁kehitysrahasto	-11.2232
▁toissijais	-11.2233
▁myydä	-11.2234
▁katsottava	-11.2236
äidi	-11.2238
velvoittee	-11.2239
▁propaganda	-11.224
▁Natura	-11.224
▁rikoksista	-11.224
▁edullise	-11.224
▁keskisuuri	-11.2243
▁aido	-11.2246
▁olot	-11.2247
▁tasapainoon	-11.2248
▁samanlainen	-11.2249
▁torjumiseen	-11.2249
▁saattamista	-11.2249
sson	-11.2251
▁Mor	-11.2251
▁Minäkin	-11.2251
▁armo	-11.2251
▁Millai	-11.2253
▁todellisuus	-11.2255
käytännöllisesti	-11.2255
▁yläraja	-11.2255
valtojen	-11.2256
▁useimmissa	-11.2259
▁Aloi	-11.2261
yhteiskunta	-11.2262
luonnos	-11.2267
▁Mietin	-11.2269
▁Alankomaat	-11.227
▁täsmentä	-11.227
▁saatavuuden	-11.227
▁pidätetty	-11.2271
▁kenenkään	-11.2271
▁Ainoastaan	-11.2272
vauhti	-11.2272
▁aseista	-11.2272
▁taloudellisessa	-11.2276
▁ryhdytty	-11.2277
▁Au	-11.2277
▁syntyä	-11.2278
▁matkalla	-11.2279
▁tiedottamista	-11.2279
kehitystä	-11.2283
▁olennaise	-11.2284
▁suvereeni	-11.2285
▁vahvempi	-11.2286
▁sijainti	-11.2286
▁säilyttämiseksi	-11.2286
▁vastaisesti	-11.2289
▁elämme	-11.2295
▁voidaksemme	-11.2296
▁houkut	-11.2299
▁kilpailla	-11.2299
▁järjestettiin	-11.23
▁minulta	-11.23
▁tarjolla	-11.23
▁uskottavuus	-11.23
▁harvoin	-11.2301
▁vuotuise	-11.2301
▁Arvioi	-11.2301
▁oleellista	-11.2301
▁tarkoittaisi	-11.2302
▁Halusin	-11.2303
▁siemen	-11.2304
▁tehdyistä	-11.2304
▁käsittelystä	-11.2309
▁solidaarisuute	-11.2313
▁erityiset	-11.2315
▁rahanpesu	-11.2316
▁varusta	-11.2318
▁oikeutettuja	-11.2319
▁sairastu	-11.2319
▁väitetään	-11.2322
▁huolehtimaan	-11.2323
otos	-11.2324
▁estettävä	-11.2326
▁oikeutettua	-11.2326
▁saanen	-11.2327
▁laadi	-11.2328
SL	-11.2329
▁murhenäytelmä	-11.2331
▁vapaaseen	-11.2332
▁pelastuspalvelu	-11.2332
▁Sri	-11.2338
sopimuksissa	-11.2345
▁kyps	-11.2346
▁puuttuvat	-11.2347
▁Joten	-11.2348
▁harjoittavat	-11.2348
▁asiantuntijat	-11.235
▁tielle	-11.2351
▁taakkaa	-11.2351
▁osatekijä	-11.236
ijöitä	-11.236
säädöksi	-11.2361
▁leviämisen	-11.2361
▁maailmansodan	-11.2362
▁ruotsalais	-11.2362
▁lakkaut	-11.2363
kaupasta	-11.2364
▁mennyt	-11.2366
esitykseen	-11.237
ham	-11.2372
▁valitsi	-11.2375
seutu	-11.2377
sangen	-11.238
▁kehitysmaita	-11.2381
▁vuoropuhelussa	-11.2385
▁kamppail	-11.2388
edellytykset	-11.2389
▁vuosisadan	-11.2392
▁yksiköt	-11.2393
▁jättäneet	-11.2393
▁toimivaltuuksia	-11.2394
▁kannattaisi	-11.2394
▁ehdottaneet	-11.2396
koneisto	-11.2397
▁välitä	-11.2398
▁palveluista	-11.2398
▁Moldova	-11.2405
▁strategista	-11.2408
▁tutkimuksessa	-11.2408
▁lietso	-11.2408
▁ennusta	-11.2408
▁liite	-11.2409
▁yksimielinen	-11.2412
▁luetteloon	-11.2414
▁mielenkiinto	-11.2416
▁yksiköiden	-11.2416
strategiassa	-11.2417
▁raiva	-11.2417
▁heikoimma	-11.2418
▁todellisten	-11.2423
▁paikallaan	-11.2424
▁puoltava	-11.2424
▁petoksia	-11.2425
▁aiheet	-11.2426
▁sisällyttämään	-11.2427
▁tuotteista	-11.243
julist	-11.2435
▁Kysy	-11.2435
▁edistykse	-11.2436
▁tasapuolisesti	-11.2437
▁Todellisuudessa	-11.2439
▁amerikkalaisten	-11.2439
Kysymykse	-11.244
▁Jatka	-11.244
▁viestinnän	-11.244
▁kieltäytyy	-11.2442
▁edistämällä	-11.2442
▁Ehdotuksen	-11.2442
▁ainoana	-11.2447
isellä	-11.2448
▁hintaan	-11.245
▁kertoja	-11.2452
▁tullei	-11.2453
▁myönsi	-11.2454
▁sanktio	-11.2454
▁sisältävä	-11.2454
▁hakea	-11.2455
▁päätelmä	-11.2457
▁nousevat	-11.2458
▁tuonnin	-11.2459
▁kohdistuvia	-11.2461
▁koordinoidu	-11.2464
▁ilmoittama	-11.2466
▁luki	-11.2468
▁osoittivat	-11.2469
▁ECHO	-11.2469
▁diktaattori	-11.2469
▁kunnioittaen	-11.247
▁edessään	-11.2472
ppaus	-11.2472
putki	-11.2474
▁asennetta	-11.2474
▁kannanotot	-11.2475
▁heijast	-11.2478
▁viennin	-11.248
▁kansalaisilta	-11.2484
▁tärkeimpänä	-11.2485
▁yritettävä	-11.2485
▁korjaus	-11.2485
▁väsy	-11.2485
▁maakaasu	-11.2488
▁tällaisiin	-11.2491
misellä	-11.2494
▁keskittymis	-11.2496
▁kreikkalais	-11.2499
allström	-11.25
▁myöntävä	-11.25
▁kansalaisuuden	-11.2501
verkot	-11.2501
▁ryhtyneet	-11.2502
▁luova	-11.2502
▁yhdenmukainen	-11.2503
▁kolmansissa	-11.2504
gre	-11.2509
▁yksipuolisesti	-11.2509
▁ruokaa	-11.251
▁sysä	-11.2514
▁yhteiskuntamme	-11.2514
▁Sisä	-11.2515
▁seikkojen	-11.2516
▁viittaukse	-11.2516
▁viljelijöille	-11.2517
▁parantamisesta	-11.2517
▁nimeltä	-11.2519
▁tarkistuksilla	-11.2519
▁tarvittaviin	-11.252
▁pilariin	-11.2523
▁Asiaa	-11.2524
▁kestävyyde	-11.2526
atson	-11.2531
▁käyttäminen	-11.2531
▁tervetullut	-11.2532
▁ulkopuolelta	-11.2532
▁valuutan	-11.2532
▁esittävät	-11.2532
▁maatalouteen	-11.2533
▁johtopäätöksiä	-11.2535
▁ihmiskunnan	-11.2536
yhteisöjen	-11.2536
▁vaadittu	-11.254
▁liika	-11.2542
▁terroristien	-11.2545
▁panneet	-11.2546
▁komitologia	-11.2547
▁laajuisten	-11.2547
▁varovaisia	-11.2547
▁yhdistetään	-11.2547
ttömät	-11.2548
▁tapahtumiin	-11.2549
▁Bel	-11.2555
▁tällaisissa	-11.2558
▁epäjohdonmukais	-11.2564
▁voimavarojen	-11.2564
▁sijaitsevi	-11.2565
▁vaikeuksissa	-11.2565
▁ajankohtana	-11.2566
▁tiukkaa	-11.2569
merkintä	-11.257
▁mielestään	-11.257
▁tavaraliikentee	-11.2576
selvitykse	-11.2577
▁syntymä	-11.2578
▁laajennettava	-11.2578
▁ylijäämä	-11.2579
hakemus	-11.2584
aloitteise	-11.2586
▁todellisesta	-11.2586
▁hyväksymis	-11.2587
▁teräs	-11.2588
hankkei	-11.2589
käytöstä	-11.2589
▁selvillä	-11.2591
▁alhainen	-11.2594
epidemia	-11.2594
▁erilaisista	-11.2594
▁Mal	-11.2595
▁takaavat	-11.2597
▁yhdentyminen	-11.2597
▁kunnioituksen	-11.2598
▁asuvien	-11.2599
▁pyyntöön	-11.26
▁kumota	-11.2602
▁sanomalla	-11.2603
▁taattu	-11.2606
▁helpommin	-11.261
▁vesillä	-11.2612
▁harjoitetaan	-11.2612
ikkojen	-11.2612
▁työntekijää	-11.2612
▁puolelle	-11.2614
mukautu	-11.2614
▁nykyaikaise	-11.2616
▁määräaikaa	-11.2616
virtojen	-11.2617
▁analysoida	-11.2617
▁luja	-11.2618
▁sitoutuminen	-11.2625
▁Etiopia	-11.2626
▁Vaikuttaa	-11.2626
▁annetussa	-11.2626
▁liitteen	-11.2626
▁Olkaa	-11.2626
▁kertomusta	-11.2626
▁joustavi	-11.263
kenttä	-11.2633
▁haitallisia	-11.2634
▁hyväksymällä	-11.2634
▁konkreettisiin	-11.2635
▁kannattamaan	-11.2636
▁parhaiden	-11.2639
▁Tehtävä	-11.2641
▁maininneet	-11.2641
▁päätöksenteon	-11.2641
▁toteamalla	-11.2641
▁täsmälleen	-11.2643
▁rahastojen	-11.2648
Venäjällä	-11.2648
solu	-11.2649
▁solidaarisuude	-11.2652
llisistä	-11.2652
▁hallintoon	-11.2653
▁tarpeellisia	-11.2656
▁parhaalla	-11.2657
▁sellaisesta	-11.2657
▁jollei	-11.2658
arvoisen	-11.2659
▁Toivoisin	-11.2659
▁kompromisseja	-11.2673
▁asiakirjoihin	-11.2673
▁lisännyt	-11.2674
▁sitouduttava	-11.2676
▁kauhistuttava	-11.2678
▁pakollista	-11.2678
roni	-11.268
▁käytettiin	-11.268
▁jäseninä	-11.2684
tomuudesta	-11.2686
▁polttoaineiden	-11.2686
▁kyseisellä	-11.2687
▁Posselt	-11.2689
▁toimintakyky	-11.269
▁toiselle	-11.2693
kannat	-11.2693
▁myynnin	-11.2694
▁perustuvia	-11.2698
▁puutteellise	-11.2698
▁turvallisia	-11.27
uuksiin	-11.2702
▁päätelmien	-11.2705
▁Jälleen	-11.2705
▁huija	-11.2705
▁monikansallist	-11.2705
▁presidentinvaal	-11.2707
▁ratkaisemiseen	-11.2709
▁alkuperäinen	-11.2709
▁jäisi	-11.271
ilmailu	-11.2714
▁perusvapauksien	-11.2715
▁suositusten	-11.2716
▁toteuttavat	-11.2721
lev	-11.2723
kyllä	-11.2723
▁eräänlainen	-11.2725
▁sukupolve	-11.2727
▁tukemalla	-11.2727
katastrofi	-11.2729
▁tuottami	-11.2729
päästöistä	-11.2731
▁Pyr	-11.2732
rad	-11.2732
▁Mann	-11.2733
▁Angola	-11.2736
▁rajatylittävi	-11.2736
▁sellaisissa	-11.2736
järjestyksessä	-11.2739
▁tehokkaampia	-11.2739
▁ehdotetut	-11.2739
▁vähentämisen	-11.2744
liikkeiden	-11.2747
lez	-11.2747
▁hallitukseen	-11.2749
▁paikoi	-11.275
▁käytännöt	-11.2752
▁ehdotuksemme	-11.2752
▁teoria	-11.2753
▁yhteydet	-11.2753
▁Lento	-11.2754
▁pelätä	-11.2756
▁Tutki	-11.2756
▁jakamista	-11.2757
▁saattamaan	-11.2758
▁laillisi	-11.2765
▁todellise	-11.2766
▁asialistalla	-11.2767
▁kiireellistä	-11.2768
▁mainitsitte	-11.2769
▁tuomioistuinten	-11.277
▁vanhoja	-11.277
▁tutkijoiden	-11.2771
▁perusteltuja	-11.2772
▁aikaisempi	-11.2773
▁asemansa	-11.2773
▁voiton	-11.2775
normeja	-11.2777
poliittinen	-11.2777
▁luoneet	-11.2779
▁suhdetta	-11.2781
▁asetusehdotukse	-11.2782
▁itäise	-11.2782
▁kauttakulku	-11.2782
valmiuksi	-11.2784
▁näkevät	-11.2784
▁yhteenveto	-11.2784
▁hyväksikäytön	-11.2787
työhön	-11.2793
yrityksillä	-11.2796
▁päätöksellä	-11.2796
▁lainsäädännöllä	-11.28
▁hallituksille	-11.28
▁oikeusasioita	-11.2801
▁syytteeseen	-11.2801
▁tunnemme	-11.2802
▁soveltamisala	-11.2805
osallistumisesta	-11.2807
▁tietoyhteiskunn	-11.2808
▁antamiseksi	-11.281
hankkeesta	-11.2813
▁kommentoi	-11.2814
▁kohdella	-11.2814
▁lisäämisen	-11.2814
▁julkaisemi	-11.2816
▁kiinnostuneena	-11.2816
▁fyysise	-11.2816
▁nimenomaise	-11.2818
▁synk	-11.2819
kirjoitus	-11.2822
▁viisas	-11.2826
▁ihmettele	-11.2826
▁kärsinyt	-11.2827
normien	-11.2828
paikkojen	-11.2829
▁yleiset	-11.2832
▁epäreilu	-11.2832
▁kalastajat	-11.2834
▁perusoikeuksi	-11.2839
▁yritti	-11.284
▁edellisessä	-11.2843
▁kieltämistä	-11.2843
▁tuomitaan	-11.2845
▁alhaisi	-11.2848
▁Robert	-11.2849
▁pysäyttää	-11.285
▁Sar	-11.285
▁Libanonin	-11.2851
▁toivovat	-11.2852
▁Sanoisin	-11.2853
▁ehkäpä	-11.2854
▁ainutlaatuinen	-11.2864
▁tarkistettu	-11.2864
▁Kypros	-11.2865
▁kampanjoi	-11.2866
▁kertomuksesta	-11.2867
▁jätety	-11.2868
▁tuntea	-11.2869
▁pur	-11.287
▁haavoittuva	-11.2871
velvoittei	-11.2874
▁keskisuurille	-11.2874
kysymyksistä	-11.2875
▁paineita	-11.2876
▁toteutumista	-11.288
▁demokratioi	-11.2881
▁tarkistetaan	-11.2881
Peter	-11.2881
▁osoittami	-11.2882
▁saanti	-11.2885
▁pelkäävät	-11.2886
▁ratkaisematta	-11.2887
▁pääsisi	-11.289
▁viimeaikai	-11.289
▁puna	-11.2894
▁sanel	-11.2896
▁helpotetaan	-11.2897
▁kahdenvälisiä	-11.2897
▁Eurojust	-11.2897
▁useilla	-11.2897
▁Yhden	-11.2897
▁millaista	-11.2897
▁kantasolu	-11.2898
▁Edellä	-11.29
▁kiinnostusta	-11.2903
▁Georg	-11.2905
▁sisältämä	-11.2906
▁myöhä	-11.2907
▁seuraavalla	-11.2912
by	-11.2914
▁monimutkaisia	-11.2917
ajasta	-11.2918
▁kei	-11.2919
▁edistämisen	-11.2922
▁virkaan	-11.2924
ukseksi	-11.2924
kampanja	-11.2925
kysymyksissä	-11.2925
työntekijöiden	-11.2925
▁kollegojani	-11.2926
▁Venäjälle	-11.2927
▁petokse	-11.293
kauteen	-11.2932
▁turvautua	-11.2933
malleja	-11.2942
▁Kollegani	-11.2942
▁rakennusten	-11.2944
▁Hall	-11.2944
▁Julistan	-11.2945
▁Haagin	-11.2945
ndez	-11.2947
▁yhteiskunnalle	-11.2947
▁sairaala	-11.2951
▁Niihin	-11.2952
▁tämänpäiväinen	-11.2952
▁teknisi	-11.2954
▁Lom	-11.2958
▁vastavuoroisuu	-11.2961
▁uutinen	-11.2962
▁virallista	-11.2962
markkinoille	-11.2962
▁lähemmäksi	-11.2962
ander	-11.2965
▁läheisesti	-11.2966
▁Raja	-11.2967
▁sanojen	-11.2969
tavoista	-11.297
▁aineet	-11.297
▁korjattava	-11.2978
▁yhtäkkiä	-11.2978
▁pyynti	-11.2981
kseksi	-11.2983
▁Lähes	-11.2983
▁osissa	-11.2984
▁tietyssä	-11.2986
islamilais	-11.2988
▁ilmaan	-11.2989
▁liiku	-11.2991
▁varainhoidon	-11.2994
▁kulkee	-11.2994
▁1989	-11.2994
määriä	-11.2994
▁menettävät	-11.2994
▁maailmasta	-11.2995
▁asianosaisi	-11.2995
▁irti	-11.2995
▁väkivallasta	-11.2995
▁yksityiskohtia	-11.2996
myynti	-11.3007
▁biopolttoainei	-11.3009
▁2007-2013	-11.3011
▁hallinnassa	-11.3011
▁Mahdolli	-11.3011
▁kaupungeissa	-11.3011
▁keskeyttää	-11.3013
▁säännöstöä	-11.3017
▁vieläpä	-11.3019
▁käytettävi	-11.302
▁pakottei	-11.3022
▁hallinnollisten	-11.3027
▁pitäneet	-11.3027
▁huoleen	-11.3027
▁haitta	-11.3027
▁vapaiden	-11.3029
osuuksi	-11.3029
▁puuttumaan	-11.3031
paketista	-11.3032
▁Ihmisoikeuksi	-11.3034
▁koskettava	-11.3039
▁positiivi	-11.304
huippukokoukse	-11.3041
elimen	-11.3041
▁sitoudu	-11.3042
▁humanitaarinen	-11.3043
▁kollegio	-11.3043
▁ensiksikin	-11.3044
▁noudattama	-11.3044
▁poistamisen	-11.3046
▁lokakuu	-11.3048
▁naisilla	-11.3051
▁lainaa	-11.3053
▁suunnata	-11.3056
▁neuvotteluista	-11.3057
valiokunnalle	-11.3058
suhteissa	-11.3058
▁ymmärrettävää	-11.3058
▁Bush	-11.3058
▁asiaankuuluva	-11.306
▁virkamiehet	-11.3061
▁monimuotoisuus	-11.3061
▁John	-11.3061
▁mielen	-11.3063
täkäämme	-11.3066
▁etnisi	-11.3067
▁pelaa	-11.3069
▁pyytämä	-11.3073
▁esittämällä	-11.3075
▁konkurssi	-11.3076
▁miettiä	-11.3076
▁hallinnan	-11.3076
▁aiheuttavi	-11.3077
▁opettaji	-11.3078
▁valhe	-11.3078
▁satamien	-11.308
▁olennaisesti	-11.3087
rzemb	-11.3093
yhteyteen	-11.3093
▁sukupuoleen	-11.3093
▁näennäis	-11.3093
▁suositusta	-11.3096
▁Maria	-11.3096
▁ohjelmisto	-11.3097
▁valitettavana	-11.3097
▁ansiota	-11.3099
▁kommentti	-11.3109
▁myönnytyksiä	-11.3109
▁myönnettävi	-11.3109
▁sellaisista	-11.3109
▁laatimisesta	-11.3112
▁perussopimuksi	-11.3114
▁puututaan	-11.3116
▁pahenta	-11.3118
▁riittämättömi	-11.3126
▁tyttö	-11.3126
▁Maailmanpankin	-11.3126
▁turvin	-11.3126
▁ekosysteemi	-11.3126
eurooppalais	-11.3129
▁Monissa	-11.3131
▁jäsenyyden	-11.3131
▁600	-11.3131
▁puheenvuoroja	-11.3131
▁poltto	-11.3136
tavoitteita	-11.3139
▁sijalla	-11.3139
▁käyttämistä	-11.3141
oikeuteen	-11.3141
parlamentaarinen	-11.3142
▁Australia	-11.3142
▁leikata	-11.3143
▁ulkomaisi	-11.3144
nuor	-11.3149
▁lentoasema	-11.3151
▁44	-11.3153
▁ideoi	-11.3157
▁poistamiseen	-11.3158
▁varauksetta	-11.3159
▁irro	-11.3159
▁tehdessä	-11.316
▁1991	-11.316
▁lääketieteellis	-11.3162
▁arvovalta	-11.3163
▁toimintalinja	-11.3165
▁suuntaviivoista	-11.317
rangaistusta	-11.3171
sisältö	-11.3175
▁kolmanteen	-11.3175
▁kapitalisti	-11.3175
▁hartaasti	-11.3175
▁tarkkoja	-11.3175
▁muuttamiseksi	-11.3176
▁kuului	-11.3177
uudelta	-11.3177
▁yhteentoimivuu	-11.3177
▁Ydin	-11.3178
Aasiassa	-11.3178
kasvu	-11.3179
▁polttoaineen	-11.3182
up	-11.3184
▁tiedoista	-11.3188
byrokraatti	-11.3188
▁Libanon	-11.3189
fl	-11.3194
▁jatkavat	-11.3194
▁liikkua	-11.3194
▁nähdään	-11.3195
▁väärää	-11.3197
paikan	-11.3205
▁halusimme	-11.3208
vakuutus	-11.3209
▁sisävesi	-11.3211
▁Voisimme	-11.3211
▁Meistä	-11.3212
huuto	-11.3217
▁luonnetta	-11.3219
louk	-11.3219
▁ajatukseen	-11.3221
reaktori	-11.3225
▁hälyttävä	-11.3225
▁Kri	-11.3227
▁johtui	-11.3227
▁kirjattu	-11.3228
▁nälkää	-11.323
▁lopputulokseen	-11.323
▁korvausta	-11.3232
▁kuljettaja	-11.3243
▁sanomatta	-11.3243
▁riippuvuutta	-11.3243
▁kuningaskunna	-11.3244
▁sisältöön	-11.3246
▁Pitkä	-11.3248
dra	-11.325
▁perintö	-11.3251
▁Kansainvälise	-11.3252
▁pahentaa	-11.3253
▁käytettävissään	-11.3255
ongelmaa	-11.3256
liikkei	-11.3256
▁mielenkiintoise	-11.3257
▁piittaa	-11.3259
▁vanhempien	-11.3259
▁rinnakkais	-11.3259
▁työskennelleet	-11.3262
▁erillään	-11.3264
▁tulevista	-11.3265
▁oikeudenkäynni	-11.3269
▁ruu	-11.3271
▁jäsenvaltiolle	-11.3272
▁päättymis	-11.3273
▁Corbett	-11.3276
tilaisuudessa	-11.3276
▁kehu	-11.3277
▁äänten	-11.3277
▁39	-11.3277
▁asettamista	-11.3278
▁jonkinlaist	-11.3284
onnettomuuksia	-11.3285
▁vähittäis	-11.3285
▁osallistuivat	-11.3286
▁elävä	-11.3288
[...]
