<unk>	0
<s>	0
</s>	0
▁the	-2.78662
,	-3.07817
.	-3.37844
▁of	-3.4622
▁to	-3.53772
▁and	-3.69754
▁in	-3.95027
▁that	-4.18833
▁a	-4.22536
▁is	-4.22947
▁for	-4.61959
▁I	-4.62835
▁on	-4.75217
▁be	-4.85177
▁this	-4.85467
s	-4.86844
▁we	-4.89414
▁are	-5.04245
▁have	-5.08867
▁it	-5.0981
▁not	-5.14068
▁with	-5.2027
▁as	-5.20764
▁which	-5.244
▁European	-5.27158
▁The	-5.37337
▁	-5.38364
▁will	-5.39232
▁by	-5.40846
-	-5.42226
▁has	-5.52328
'	-5.62672
▁Mr	-5.6792
▁Commission	-5.78715
▁an	-5.82801
▁would	-5.8372
▁at	-5.83998
▁also	-5.85131
▁all	-5.90029
▁should	-5.90407
▁President	-5.93989
▁from	-5.94779
▁We	-5.95866
▁-	-5.95955
▁our	-5.97098
▁must	-5.98076
▁but	-6.03476
▁been	-6.06918
▁Union	-6.12615
▁Parliament	-6.16198
▁It	-6.17172
▁you	-6.17363
▁can	-6.19771
▁Member	-6.23848
▁was	-6.24191
▁more	-6.2505
▁report	-6.27186
▁or	-6.27808
▁States	-6.28403
▁its	-6.30633
▁their	-6.31637
▁do	-6.32431
▁like	-6.32916
▁Council	-6.33413
▁there	-6.34525
▁very	-6.37788
▁Europe	-6.38896
▁This	-6.41177
▁In	-6.41615
▁EU	-6.42111
▁these	-6.43502
▁they	-6.45827
▁(	-6.47015
▁one	-6.47626
▁countries	-6.49924
▁so	-6.53526
▁who	-6.53854
)	-6.54253
▁about	-6.56735
▁other	-6.57872
▁need	-6.58003
▁what	-6.58472
▁us	-6.59945
▁important	-6.63823
▁people	-6.6487
▁my	-6.65062
:	-6.66871
▁new	-6.67104
▁only	-6.67199
▁time	-6.68899
▁policy	-6.69632
▁because	-6.72187
▁if	-6.72867
▁no	-6.75914
ing	-6.76558
▁am	-6.80102
▁up	-6.80199
▁support	-6.81437
▁out	-6.82288
?	-6.83109
▁now	-6.83121
▁such	-6.83894
▁make	-6.86581
▁take	-6.86597
▁into	-6.88768
▁work	-6.89297
▁between	-6.89385
▁those	-6.90599
▁rights	-6.95466
▁therefore	-6.96315
▁when	-6.97243
▁some	-6.98502
▁being	-6.99419
▁any	-7.00363
▁political	-7.01606
▁them	-7.01904
▁made	-7.03246
▁were	-7.03872
▁way	-7.04887
▁believe	-7.05296
▁than	-7.05895
▁economic	-7.06062
▁Commissioner	-7.06079
;	-7.07212
▁say	-7.10836
▁against	-7.1251
▁proposal	-7.12668
▁many	-7.1297
▁fact	-7.1395
ed	-7.14015
▁first	-7.16372
▁debate	-7.17147
▁social	-7.18541
▁market	-7.18691
’	-7.19945
▁That	-7.20697
▁think	-7.21149
▁issue	-7.21821
▁development	-7.22348
▁well	-7.23152
▁just	-7.23375
▁Committee	-7.23917
▁point	-7.24802
▁years	-7.2513
▁order	-7.25779
▁human	-7.25845
▁future	-7.27832
▁situation	-7.27874
▁right	-7.28001
▁country	-7.28696
▁two	-7.29242
▁citizens	-7.29971
▁question	-7.29976
▁want	-7.30004
▁cannot	-7.30474
▁same	-7.31402
▁does	-7.31447
▁even	-7.31564
▁here	-7.31585
▁had	-7.32123
▁As	-7.32141
▁possible	-7.32697
▁'	-7.32763
▁measures	-7.32884
▁part	-7.34202
▁could	-7.34798
▁–	-7.35761
▁said	-7.35876
▁today	-7.35945
▁most	-7.3607
▁public	-7.36274
▁me	-7.36689
▁agreement	-7.37053
▁much	-7.38437
▁good	-7.38837
▁where	-7.39129
▁clear	-7.39442
▁national	-7.39544
▁already	-7.3966
▁financial	-7.40434
▁over	-7.40817
▁within	-7.41344
▁vote	-7.41538
▁too	-7.41752
▁still	-7.43278
▁year	-7.43288
▁know	-7.43449
▁see	-7.43546
▁how	-7.44006
▁However	-7.44334
▁use	-7.44632
▁under	-7.45085
▁both	-7.45333
▁particular	-7.45402
▁There	-7.45454
▁common	-7.4592
▁Mrs	-7.47049
▁your	-7.48267
▁cooperation	-7.483
▁world	-7.48555
▁view	-7.49359
▁course	-7.49391
▁hope	-7.49907
▁ensure	-7.51056
▁international	-7.51159
▁Community	-7.51255
▁system	-7.51355
▁level	-7.51471
▁own	-7.51713
▁taken	-7.51992
▁case	-7.52278
▁area	-7.52686
▁able	-7.53358
▁place	-7.55457
▁his	-7.5554
▁process	-7.56637
▁why	-7.5725
▁rapporteur	-7.58333
▁energy	-7.58382
▁put	-7.58442
ly	-7.60179
▁number	-7.6024
▁means	-7.6058
▁information	-7.60732
▁last	-7.60783
▁may	-7.61399
▁example	-7.61413
▁action	-7.61548
▁problem	-7.62032
▁then	-7.62278
▁gentlemen	-7.62381
▁without	-7.63424
▁through	-7.63529
▁however	-7.63946
d	-7.64382
▁If	-7.65274
▁directive	-7.65475
▁House	-7.65795
▁A	-7.65948
▁he	-7.65994
▁problems	-7.66338
▁budget	-7.67685
▁end	-7.67853
▁particularly	-7.68175
▁protection	-7.68591
▁give	-7.69239
▁necessary	-7.69257
▁Madam	-7.69417
▁long	-7.69718
▁great	-7.6973
▁issues	-7.70432
▁resolution	-7.70515
▁before	-7.70656
▁security	-7.7111
▁regard	-7.71295
▁law	-7.71639
▁respect	-7.72277
▁given	-7.72827
▁legal	-7.73045
▁far	-7.73387
▁areas	-7.73399
▁position	-7.73948
▁matter	-7.74792
▁Treaty	-7.75806
▁women	-7.76051
▁s	-7.7607
▁Group	-7.7622
▁thank	-7.77826
▁whether	-7.78345
▁decision	-7.78778
▁ladies	-7.79246
▁role	-7.79362
▁again	-7.79445
▁set	-7.79856
▁sector	-7.79936
▁United	-7.80091
▁amendments	-7.80494
▁favour	-7.81433
▁further	-7.81523
▁behalf	-7.82172
▁since	-7.82608
▁terms	-7.83109
▁Members	-7.83552
▁basis	-7.83562
▁next	-7.83599
▁proposals	-7.836
▁trade	-7.84131
▁aid	-7.84672
▁certain	-7.84869
▁programme	-7.85302
▁services	-7.85798
▁rules	-7.86373
▁come	-7.8645
▁done	-7.86568
▁crisis	-7.87011
▁health	-7.87466
▁help	-7.87749
▁adopted	-7.87872
▁better	-7.87966
▁legislation	-7.87996
▁agree	-7.8812
▁different	-7.88728
▁framework	-7.8962
in	-7.90154
▁present	-7.90689
▁needs	-7.91901
▁change	-7.92227
▁continue	-7.92252
▁What	-7.9291
▁opinion	-7.93379
▁institutions	-7.93563
▁progress	-7.94798
▁For	-7.94954
▁ask	-7.95594
▁after	-7.96036
▁wish	-7.9712
▁result	-7.97607
▁group	-7.9775
▁forward	-7.97974
▁voted	-7.98348
▁welcome	-7.98373
▁State	-7.9849
▁concerned	-7.98717
▁going	-7.98789
▁three	-7.99342
▁working	-7.99576
▁But	-7.9965
▁towards	-8.00044
▁few	-8.00058
▁whole	-8.00154
▁approach	-8.00739
▁something	-8.01698
▁principle	-8.02239
▁current	-8.02952
▁Presidency	-8.0378
▁resources	-8.04012
▁go	-8.04321
▁subject	-8.04668
▁including	-8.04691
▁conditions	-8.04741
▁opportunity	-8.06578
▁importance	-8.06624
▁specific	-8.06634
▁proposed	-8.07
▁provide	-8.07447
▁million	-8.07749
▁together	-8.07958
▁increase	-8.08023
▁did	-8.08189
▁authorities	-8.08192
▁really	-8.0835
▁state	-8.08509
▁policies	-8.08937
▁used	-8.09124
▁On	-8.09156
▁regulation	-8.0991
▁during	-8.10103
▁shall	-8.10283
▁account	-8.10564
▁strategy	-8.10669
▁especially	-8.10791
▁second	-8.10817
▁every	-8.10877
▁down	-8.11322
e	-8.11361
▁negotiations	-8.1148
▁employment	-8.11556
▁find	-8.11579
▁general	-8.11919
▁clearly	-8.12318
▁become	-8.12336
▁industry	-8.13043
▁high	-8.13157
▁responsibility	-8.13197
m	-8.13273
▁greater	-8.13316
▁safety	-8.13449
▁another	-8.1383
▁third	-8.14096
▁itself	-8.14171
▁transport	-8.14506
▁least	-8.14563
▁environmental	-8.14654
▁products	-8.14785
▁serious	-8.15256
▁quite	-8.15593
▁research	-8.15664
▁rather	-8.1614
▁small	-8.16905
▁They	-8.17009
▁reason	-8.17787
▁No	-8.18592
▁fundamental	-8.18623
▁democracy	-8.18828
▁real	-8.18844
▁call	-8.18978
▁access	-8.19004
▁always	-8.19206
▁attention	-8.19512
▁effective	-8.19724
▁essential	-8.19919
▁These	-8.20092
▁difficult	-8.202
▁making	-8.20217
▁regions	-8.20222
▁freedom	-8.20644
▁achieve	-8.20665
▁deal	-8.20667
▁once	-8.20858
▁At	-8.21714
▁interests	-8.21968
▁implementation	-8.22132
▁society	-8.22403
▁based	-8.22603
▁economy	-8.22609
▁things	-8.22699
▁taking	-8.22782
▁major	-8.23291
▁get	-8.24073
▁internal	-8.24289
▁democratic	-8.24953
▁efforts	-8.25021
▁money	-8.25239
▁each	-8.25678
▁hand	-8.25861
▁positive	-8.25891
▁environment	-8.25988
▁various	-8.26001
▁government	-8.26248
▁large	-8.26562
▁free	-8.27416
▁back	-8.27933
▁words	-8.28355
▁allow	-8.28423
▁yet	-8.28606
▁while	-8.28694
▁points	-8.2886
/	-8.2956
al	-8.30151
n	-8.30265
▁workers	-8.30293
▁consider	-8.30798
▁involved	-8.309
▁look	-8.30944
▁region	-8.30993
▁funds	-8.31218
▁EUR	-8.31219
▁procedure	-8.31511
▁less	-8.31664
▁full	-8.31721
▁competition	-8.31721
▁reform	-8.31752
▁control	-8.3178
▁growth	-8.32104
▁having	-8.32469
▁concerns	-8.3274
▁committee	-8.32799
▁Affairs	-8.33185
▁So	-8.33228
▁single	-8.33382
▁Government	-8.33456
▁companies	-8.33701
er	-8.33829
▁Lisbon	-8.34051
▁step	-8.34468
▁children	-8.34527
▁power	-8.34725
▁food	-8.35062
▁quality	-8.35498
▁global	-8.35527
▁objectives	-8.35679
▁best	-8.35742
▁fully	-8.35819
ou	-8.35939
▁solution	-8.36022
▁peace	-8.36543
▁interest	-8.36827
▁majority	-8.3737
▁standards	-8.37807
▁dialogue	-8.37873
▁agreements	-8.38013
▁programmes	-8.38209
▁often	-8.3835
▁amendment	-8.38938
▁agricultural	-8.39035
▁following	-8.39168
▁her	-8.39249
▁recent	-8.39263
▁certainly	-8.40197
y	-8.40357
▁decisions	-8.40698
▁extremely	-8.40819
▁simply	-8.4086
▁relations	-8.41015
▁bring	-8.4105
▁force	-8.41091
▁production	-8.41348
▁aware	-8.41393
t	-8.41825
▁concern	-8.41895
▁To	-8.42019
▁main	-8.42124
▁groups	-8.42273
▁text	-8.42493
▁Turkey	-8.42647
▁accept	-8.42865
▁context	-8.42892
▁life	-8.43122
se	-8.43218
▁ago	-8.43567
▁initiative	-8.43596
▁create	-8.4361
▁enlargement	-8.43615
▁fight	-8.44395
▁period	-8.44858
▁objective	-8.44982
▁risk	-8.45179
▁developing	-8.45242
▁actually	-8.45698
▁might	-8.46018
▁form	-8.46389
▁mentioned	-8.46588
▁improve	-8.46622
▁states	-8.4724
▁start	-8.47367
▁Court	-8.47413
▁regional	-8.47821
▁education	-8.47987
▁climate	-8.48002
▁questions	-8.48071
▁available	-8.48228
▁Let	-8.48314
▁appropriate	-8.48874
▁impact	-8.48874
▁non	-8.48879
▁indeed	-8.49281
▁open	-8.49301
▁field	-8.49378
▁currently	-8.49555
▁meeting	-8.4976
▁Russia	-8.50101
▁Finally	-8.50264
▁concerning	-8.50766
▁Article	-8.51085
▁results	-8.51208
▁data	-8.51338
▁understand	-8.51383
▁key	-8.51399
▁writing	-8.51447
▁jobs	-8.51818
▁responsible	-8.52123
▁consumers	-8.52139
▁euro	-8.52439
▁management	-8.52792
▁themselves	-8.53633
▁others	-8.5424
▁members	-8.54306
▁1	-8.54375
▁months	-8.54375
▁let	-8.5445
▁And	-8.54833
▁doing	-8.55197
▁With	-8.55287
▁needed	-8.55411
▁thing	-8.55633
▁cases	-8.55708
▁systems	-8.56171
es	-8.5643
▁principles	-8.56701
▁matters	-8.5738
▁individual	-8.57761
▁day	-8.57891
▁enough	-8.58378
▁reasons	-8.58786
▁compromise	-8.59262
▁re	-8.59846
▁kind	-8.59913
▁though	-8.60212
▁lack	-8.60266
▁tax	-8.60287
▁costs	-8.60303
▁funding	-8.60426
▁C	-8.6045
▁longer	-8.60474
▁plan	-8.60552
▁among	-8.6115
▁parties	-8.61175
A	-8.61223
a	-8.61225
▁feel	-8.61228
▁promote	-8.61316
▁commitment	-8.61378
▁achieved	-8.61474
▁significant	-8.61638
▁activities	-8.61866
▁projects	-8.62023
▁idea	-8.62104
▁Convention	-8.62412
▁priority	-8.6256
▁past	-8.62616
▁draft	-8.62673
▁aim	-8.62775
▁local	-8.62882
▁special	-8.63016
▁due	-8.63282
▁regards	-8.6331
▁line	-8.6332
▁joint	-8.63363
▁true	-8.63719
▁act	-8.63829
▁although	-8.63904
▁labour	-8.64445
▁congratulate	-8.64601
▁legislative	-8.64605
▁sustainable	-8.64767
▁strong	-8.65134
▁little	-8.65199
▁final	-8.65273
▁mean	-8.65293
▁sure	-8.65353
▁prevent	-8.6536
▁My	-8.65499
▁provided	-8.65585
▁excellent	-8.65889
▁young	-8.66109
▁governments	-8.66167
▁solidarity	-8.66292
▁effect	-8.6664
▁guarantee	-8.66842
▁lead	-8.66905
▁include	-8.67146
▁nothing	-8.67157
▁Rights	-8.67901
▁Amendment	-8.68307
▁perhaps	-8.68312
▁moment	-8.68522
▁regarding	-8.68721
▁reports	-8.68771
▁project	-8.68936
▁agenda	-8.68938
▁integration	-8.68984
▁play	-8.69078
▁transparency	-8.69374
▁remain	-8.69393
▁Directive	-8.69564
▁civil	-8.69629
▁above	-8.69644
Office	-8.69873
▁aspects	-8.7007
▁nuclear	-8.7009
▁agreed	-8.70143
▁several	-8.70864
▁pay	-8.70978
▁foreign	-8.71192
▁markets	-8.71237
▁consumer	-8.71354
▁seen	-8.71436
▁addition	-8.71755
▁response	-8.72288
▁benefit	-8.72365
r	-8.72454
▁population	-8.72601
▁contribution	-8.727
▁relation	-8.7272
▁terrorism	-8.72861
▁Our	-8.72992
▁apply	-8.73532
▁comes	-8.73787
▁Therefore	-8.74022
▁upon	-8.74225
▁short	-8.74325
▁share	-8.74403
▁values	-8.74495
▁business	-8.74621
▁makes	-8.74672
▁actions	-8.74826
▁tomorrow	-8.74914
▁speak	-8.74935
▁discussion	-8.75226
▁communication	-8.75422
▁accession	-8.76025
▁practice	-8.76273
DE	-8.76404
▁move	-8.76436
▁investment	-8.76663
▁pleased	-8.7669
▁technical	-8.76771
▁China	-8.76949
▁Secondly	-8.77012
▁answer	-8.77322
▁him	-8.77415
term	-8.77619
▁voting	-8.77769
▁criteria	-8.77781
▁One	-8.78139
▁000	-8.78155
▁war	-8.78253
▁existing	-8.78464
▁provisions	-8.78602
▁colleagues	-8.7866
▁poverty	-8.78887
▁violence	-8.79396
▁elections	-8.79407
▁stability	-8.79487
▁seems	-8.79677
▁crucial	-8.79823
▁assistance	-8.79909
▁changes	-8.8001
▁soon	-8.80118
▁cohesion	-8.80211
▁procedures	-8.80356
▁Minister	-8.80503
▁ourselves	-8.80709
▁express	-8.80746
▁B	-8.81127
▁organisations	-8.81391
▁success	-8.81467
▁develop	-8.81525
▁until	-8.81528
▁mind	-8.81975
▁creation	-8.82004
▁everyone	-8.82016
▁off	-8.82159
▁basic	-8.82238
▁never	-8.82577
▁adopt	-8.8259
▁military	-8.82653
▁UN	-8.82835
▁protect	-8.82893
▁farmers	-8.82947
▁saying	-8.83151
▁term	-8.8359
▁equal	-8.83622
▁consequences	-8.837
▁carried	-8.838
▁regulations	-8.83829
▁draw	-8.83907
▁training	-8.84269
▁asked	-8.84316
▁sense	-8.84508
▁balance	-8.84605
▁increasing	-8.84704
▁rule	-8.84723
▁relating	-8.84784
▁tabled	-8.84895
▁close	-8.84917
▁increased	-8.84961
▁held	-8.85051
▁reduce	-8.85233
▁show	-8.85285
▁S	-8.85403
▁statement	-8.85447
▁application	-8.86034
▁cultural	-8.86037
▁item	-8.8621
▁de	-8.86476
▁requirements	-8.86576
▁namely	-8.8663
▁fishing	-8.8672
▁required	-8.86745
▁face	-8.86909
▁meet	-8.86977
▁instruments	-8.87011
▁request	-8.8702
l	-8.87053
▁service	-8.87449
▁Thank	-8.87638
▁All	-8.87782
▁everything	-8.87878
▁presented	-8.87884
c	-8.87944
▁value	-8.87962
▁thus	-8.88229
▁opportunities	-8.88255
▁job	-8.88284
▁stage	-8.89354
▁closed	-8.89665
▁When	-8.89762
▁throughout	-8.89897
▁nature	-8.8999
▁cost	-8.90616
▁around	-8.90629
▁times	-8.90687
▁mention	-8.90734
▁priorities	-8.90768
▁either	-8.90835
▁week	-8.90934
▁community	-8.91069
▁called	-8.91103
▁keep	-8.91176
▁conflict	-8.91467
▁Fund	-8.91533
▁budgetary	-8.9173
▁external	-8.92019
▁tell	-8.92407
▁demand	-8.92577
▁address	-8.92734
▁Party	-8.92906
▁instrument	-8.92999
▁across	-8.93014
▁she	-8.93059
▁initiatives	-8.93518
▁decided	-8.93687
▁previous	-8.93794
▁10	-8.93857
et	-8.94079
▁five	-8.94093
▁task	-8.94178
▁potential	-8.94533
▁challenges	-8.94544
▁monitoring	-8.94566
▁pressure	-8.94693
▁reached	-8.94779
▁prepared	-8.95038
▁illegal	-8.95235
▁talking	-8.95251
▁road	-8.95374
▁justice	-8.95433
re	-8.9546
▁fellow	-8.95595
▁focus	-8.95595
▁movement	-8.95644
▁review	-8.95743
▁using	-8.95826
▁raised	-8.95849
▁package	-8.96
▁expressed	-8.96067
▁establish	-8.96088
▁immigration	-8.96122
▁implement	-8.96301
▁implemented	-8.96374
▁powers	-8.96428
▁billion	-8.96442
▁fisheries	-8.9666
▁p	-8.96746
▁water	-8.96753
▁conclusion	-8.96866
▁doubt	-8.97071
▁fair	-8.97205
▁four	-8.9732
▁waste	-8.97427
▁included	-8.97699
▁borders	-8.97703
▁effort	-8.97749
▁direction	-8.97755
▁victims	-8.97926
▁medium	-8.97968
▁experience	-8.98074
▁try	-8.98233
▁ever	-8.98332
▁partners	-8.98366
▁reading	-8.98542
▁private	-8.98687
▁vital	-8.98781
▁levels	-8.99106
▁light	-8.99255
▁enable	-8.99425
▁quickly	-8.99756
▁coming	-8.99793
▁absolutely	-8.99808
▁recently	-8.99854
▁crime	-9.00275
▁agriculture	-9.00547
▁established	-9.00667
▁reality	-9.00718
▁talk	-9.00734
▁outside	-9.00829
▁French	-9.00878
▁supported	-9.01439
▁Development	-9.01457
▁reduction	-9.01669
▁reforms	-9.02128
▁live	-9.02452
▁effects	-9.02467
▁price	-9.02525
▁completely	-9.02884
▁20	-9.02927
▁France	-9.0318
▁Ireland	-9.03332
▁thanks	-9.03475
▁found	-9.03568
▁Republic	-9.03669
ers	-9.03691
▁reach	-9.03936
▁treatment	-9.04025
▁motion	-9.04025
▁giving	-9.04052
▁left	-9.04196
▁sectors	-9.04296
▁brought	-9.04345
▁cause	-9.04505
▁emissions	-9.04524
▁note	-9.04629
▁businesses	-9.0485
▁Nations	-9.04902
▁model	-9.05117
▁encourage	-9.05128
▁direct	-9.05158
▁2	-9.0518
▁received	-9.05252
▁US	-9.0549
▁12	-9.05528
▁additional	-9.05645
▁air	-9.05758
▁Africa	-9.05758
▁December	-9.05774
▁amount	-9.05818
▁representatives	-9.05854
▁Firstly	-9.0624
▁extent	-9.06386
▁coordination	-9.06481
▁natural	-9.06533
▁care	-9.06574
▁took	-9.06649
▁applied	-9.06685
▁almost	-9.06717
▁ensuring	-9.06923
▁follow	-9.0693
▁stress	-9.07012
▁possibility	-9.07065
▁approved	-9.07106
▁Conference	-9.07192
▁along	-9.07196
▁heard	-9.07222
▁relevant	-9.07335
▁finally	-9.07394
▁15	-9.07464
▁structural	-9.07512
▁document	-9.07515
▁prices	-9.07552
▁strengthen	-9.07676
▁list	-9.07708
▁Bank	-9.0791
2	-9.07945
▁practical	-9.07971
▁Furthermore	-9.08068
▁behind	-9.08084
▁living	-9.08261
▁assessment	-9.08396
▁creating	-9.08542
▁discussed	-9.08579
▁competitiveness	-9.08717
▁away	-9.08983
▁avoid	-9.09077
▁offer	-9.09106
o	-9.09461
▁add	-9.09528
▁lot	-9.09536
▁parliamentary	-9.09742
▁East	-9.09863
▁cross	-9.0993
▁adoption	-9.10087
▁expect	-9.10487
▁turn	-9.10611
▁unacceptable	-9.10679
▁events	-9.10819
▁men	-9.10834
▁capacity	-9.10987
▁discussions	-9.11262
▁remains	-9.11291
▁knowledge	-9.11342
▁proper	-9.11403
▁begin	-9.11405
▁guidelines	-9.11859
▁nor	-9.11916
▁Democrats	-9.12049
▁discuss	-9.1205
▁Of	-9.12303
▁presidency	-9.12386
▁discrimination	-9.12454
or	-9.12546
▁confidence	-9.12663
▁stop	-9.12687
▁family	-9.1271
▁sitting	-9.12733
▁days	-9.12882
▁He	-9.13086
▁affected	-9.13175
▁scope	-9.13343
▁effectively	-9.13587
th	-9.13596
▁aimed	-9.13828
▁contribute	-9.1387
▁side	-9.13872
▁summit	-9.13921
▁per	-9.13921
▁considered	-9.1421
▁old	-9.14247
▁Agreement	-9.14349
▁British	-9.14485
▁International	-9.14552
▁criminal	-9.1461
▁asylum	-9.14651
▁May	-9.14661
▁solutions	-9.14676
▁defence	-9.14737
▁despite	-9.15113
▁humanitarian	-9.15324
▁precisely	-9.15962
▁six	-9.15996
▁takes	-9.16056
▁Justice	-9.1615
▁3	-9.16224
▁carry	-9.16368
▁difficulties	-9.16401
▁World	-9.16514
▁developed	-9.16542
up	-9.16554
▁trying	-9.16669
▁unemployment	-9.16672
▁instead	-9.16706
▁message	-9.16726
▁rate	-9.16773
▁Central	-9.16828
▁partnership	-9.16888
▁huge	-9.16902
▁accordance	-9.16934
▁remind	-9.16963
▁regime	-9.16971
▁shown	-9.17089
▁reference	-9.17185
▁June	-9.17389
▁connection	-9.1756
▁G	-9.17568
▁combat	-9.17656
▁efficiency	-9.17657
▁goods	-9.17829
▁administrative	-9.17847
▁People	-9.17935
▁according	-9.17952
▁hard	-9.18173
▁improving	-9.18236
▁committed	-9.18272
▁Regulation	-9.18324
▁culture	-9.18372
▁death	-9.18517
▁challenge	-9.1861
▁active	-9.18702
▁beginning	-9.18725
▁Economic	-9.18912
able	-9.18915
▁11	-9.18979
▁First	-9.18987
▁circumstances	-9.19072
▁innovation	-9.191
▁providing	-9.19215
▁speech	-9.1925
i	-9.19285
▁capital	-9.19443
▁un	-9.19465
▁personal	-9.19494
▁propose	-9.19566
▁oil	-9.19609
▁conclusions	-9.19818
▁status	-9.1988
▁Germany	-9.19954
▁forces	-9.20221
▁enterprises	-9.20241
▁independent	-9.20282
▁technology	-9.20306
▁institutional	-9.20518
▁anti	-9.20531
▁goes	-9.20556
▁stand	-9.20679
▁allowed	-9.20817
▁date	-9.20846
▁honourable	-9.20898
▁total	-9.21057
▁WTO	-9.21214
▁Social	-9.21231
▁implementing	-9.21295
▁self	-9.21317
▁minimum	-9.21423
b	-9.21483
▁half	-9.2158
6	-9.21645
▁receive	-9.21656
▁consideration	-9.21739
▁duty	-9.21771
▁central	-9.21788
▁comments	-9.21883
▁created	-9.21909
▁Brussels	-9.22033
▁benefits	-9.22233
ity	-9.22293
▁return	-9.22295
▁supply	-9.2238
▁provides	-9.2242
▁participation	-9.22473
▁Policy	-9.22489
▁media	-9.22509
▁rightly	-9.22592
▁lives	-9.22595
▁Now	-9.22611
▁promoting	-9.22641
▁content	-9.22807
▁considerable	-9.22811
▁stated	-9.22895
▁successful	-9.23187
▁purpose	-9.23267
▁accepted	-9.23294
▁provision	-9.23779
▁unfortunately	-9.23806
▁rural	-9.24036
▁specifically	-9.24104
▁closely	-9.24184
▁Kosovo	-9.24242
▁colleague	-9.24262
▁calls	-9.24361
▁Israel	-9.24865
▁dealing	-9.25241
▁strategic	-9.25345
▁beyond	-9.25416
▁Human	-9.25421
▁overall	-9.25488
▁plans	-9.25693
▁seriously	-9.25774
▁forms	-9.25804
▁Constitution	-9.25816
▁referred	-9.25876
▁history	-9.2597
▁complete	-9.26181
▁Today	-9.26647
▁Iraq	-9.26727
▁happen	-9.26838
▁decide	-9.2703
▁wanted	-9.27141
▁Minutes	-9.27299
▁scientific	-9.27514
▁steps	-9.27628
▁directly	-9.27808
▁leave	-9.27855
▁urgent	-9.27953
▁introduction	-9.27961
▁requires	-9.28036
▁financing	-9.28311
▁maintain	-9.28437
▁measure	-9.28694
▁Summit	-9.28824
▁commitments	-9.28921
sized	-9.29067
▁equality	-9.29157
▁wrong	-9.2917
▁industrial	-9.29215
▁ban	-9.29222
European	-9.29357
▁expenditure	-9.29358
▁views	-9.29508
▁produce	-9.29595
▁Mediterranean	-9.29638
▁exchange	-9.29733
▁German	-9.29922
▁January	-9.30133
▁entire	-9.3026
▁demands	-9.30349
▁intended	-9.30391
▁event	-9.30439
▁setting	-9.30551
▁join	-9.3072
▁police	-9.30814
▁home	-9.30824
▁poor	-9.30835
▁similar	-9.30885
▁sufficient	-9.30926
ation	-9.31045
▁paid	-9.31123
▁respond	-9.3125
▁paragraph	-9.31501
▁myself	-9.31522
▁gas	-9.31527
▁How	-9.31594
▁Greece	-9.31641
▁ten	-9.3174
▁efficient	-9.31894
▁aspect	-9.32027
▁bodies	-9.32129
▁ambitious	-9.32156
▁low	-9.32169
▁party	-9.32294
▁highly	-9.32392
The	-9.32406
▁alone	-9.32476
▁activity	-9.32508
▁supporting	-9.3267
▁properly	-9.327
▁exist	-9.32722
▁Although	-9.32926
▁conclude	-9.3295
▁establishing	-9.32988
▁co	-9.3306
▁competitive	-9.33166
▁fund	-9.33221
▁emphasise	-9.33275
▁border	-9.33432
▁weeks	-9.33436
▁speaking	-9.33446
▁led	-9.33447
▁higher	-9.33519
▁represent	-9.336
▁caused	-9.33813
▁type	-9.33831
▁%	-9.33917
▁animal	-9.34014
▁Rules	-9.34075
FR	-9.3408
▁limited	-9.34156
▁shows	-9.34164
▁refer	-9.34179
▁known	-9.34252
▁discussing	-9.34307
▁product	-9.34551
▁anything	-9.34644
▁whom	-9.34759
▁increasingly	-9.3485
▁5	-9.35003
▁yesterday	-9.35041
▁candidate	-9.35301
▁authority	-9.35339
▁Unfortunately	-9.35483
▁calling	-9.35532
▁early	-9.35567
border	-9.35698
▁ways	-9.35761
▁Security	-9.35883
▁strengthening	-9.35929
▁study	-9.36108
▁useful	-9.36175
▁risks	-9.36201
▁improved	-9.36209
▁recognise	-9.36467
▁regret	-9.36539
▁opposition	-9.36541
▁represents	-9.36549
▁genuine	-9.36662
ness	-9.36665
▁language	-9.36777
▁urge	-9.36835
▁achieving	-9.37135
▁comment	-9.37165
▁threat	-9.37343
▁manner	-9.37419
▁happened	-9.37482
▁obviously	-9.37648
▁South	-9.37794
▁reducing	-9.37826
▁aims	-9.3783
▁thought	-9.38
▁hear	-9.3806
▁require	-9.38078
▁Since	-9.38171
▁limit	-9.38192
▁annual	-9.382
▁March	-9.38263
▁combating	-9.38507
▁trust	-9.38595
g	-9.38636
▁convinced	-9.3866
▁statements	-9.38758
▁influence	-9.38797
▁Moreover	-9.38823
▁later	-9.38888
called	-9.39035
▁E	-9.3917
▁Romania	-9.39257
▁Italy	-9.39259
le	-9.39274
▁25	-9.39305
▁produced	-9.39319
▁broad	-9.39476
responsibilities	-9.39477
▁recognition	-9.39503
▁name	-9.39526
▁spirit	-9.39539
▁Foreign	-9.39543
▁gives	-9.39576
▁outcome	-9.39636
▁producers	-9.39707
▁looking	-9.39828
▁remember	-9.39902
▁member	-9.3992
▁infrastructure	-9.40003
▁met	-9.40031
▁damage	-9.40072
making	-9.40097
▁rise	-9.40166
▁balanced	-9.40325
▁firstly	-9.40376
▁concrete	-9.4038
▁cut	-9.40533
▁hold	-9.40567
st	-9.4068
▁concept	-9.40941
▁developments	-9.41041
▁analysis	-9.41358
▁origin	-9.41427
▁building	-9.41471
▁animals	-9.41497
▁sometimes	-9.41604
▁documents	-9.41653
▁elements	-9.41677
▁Nevertheless	-9.4185
▁Spanish	-9.4185
▁prevention	-9.41868
▁liberalisation	-9.41987
▁rest	-9.42074
▁Internet	-9.42075
▁comprehensive	-9.42409
▁4	-9.4242
to	-9.42489
▁Irish	-9.42593
▁word	-9.42647
▁becoming	-9.42707
on	-9.42714
▁contrary	-9.42729
▁earlier	-9.42797
▁dangerous	-9.42845
▁2000	-9.4295
▁facing	-9.42956
▁commercial	-9.43001
▁press	-9.43243
▁delegation	-9.43297
▁acceptable	-9.43415
▁thinking	-9.43505
▁relationship	-9.43532
▁American	-9.43613
▁After	-9.43639
te	-9.43664
▁discharge	-9.43753
▁added	-9.43761
▁introduce	-9.43765
▁alternative	-9.4378
▁mandate	-9.43891
▁organisation	-9.43955
▁former	-9.43992
▁September	-9.44143
▁consensus	-9.44234
▁pointed	-9.44334
▁introduced	-9.44373
▁recommendations	-9.44689
▁flexibility	-9.4473
▁differences	-9.44953
▁sort	-9.44976
▁Indeed	-9.45042
▁raise	-9.45126
▁reduced	-9.4515
▁America	-9.45168
▁body	-9.45204
▁entirely	-9.45261
▁perspective	-9.45688
▁conference	-9.45761
ism	-9.4578
▁probably	-9.45786
▁asking	-9.45905
▁forget	-9.46019
▁sources	-9.46056
▁strongly	-9.46083
▁establishment	-9.46117
no	-9.46211
▁closer	-9.4622
▁wants	-9.46362
▁rapporteurs	-9.46371
▁Some	-9.46497
▁agencies	-9.46512
▁morning	-9.467
▁company	-9.46771
▁Palestinian	-9.46795
▁else	-9.46914
▁negative	-9.46958
B	-9.47004
▁currency	-9.4722
▁staff	-9.47581
▁MEPs	-9.47603
▁30	-9.47674
▁ground	-9.47747
▁laws	-9.47813
▁build	-9.47986
▁fall	-9.48052
▁Spain	-9.48052
▁exactly	-9.48085
▁correct	-9.48105
▁governance	-9.48179
C	-9.48232
▁failure	-9.48287
▁applies	-9.48291
▁methods	-9.4834
▁practices	-9.48376
▁sanctions	-9.48488
▁Procedure	-9.48507
en	-9.48533
▁Environment	-9.48536
▁November	-9.48699
▁intervention	-9.48864
▁read	-9.4891
▁bear	-9.48913
▁chance	-9.48915
▁Italian	-9.49012
▁dimension	-9.49059
▁Green	-9.49474
▁organised	-9.49508
▁seek	-9.49522
▁method	-9.49566
8	-9.49575
▁parts	-9.49722
▁institution	-9.49761
▁drawn	-9.49785
▁person	-9.49804
▁opening	-9.4983
▁says	-9.49845
▁land	-9.50149
▁mechanism	-9.50302
▁UK	-9.50322
▁attempt	-9.50356
▁laid	-9.50494
▁Ladies	-9.50566
▁integrated	-9.50679
▁Paper	-9.50812
▁submitted	-9.50887
▁informed	-9.50951
▁reply	-9.50984
▁targets	-9.51005
▁transparent	-9.51071
▁constructive	-9.51085
▁monetary	-9.51092
▁Ukraine	-9.51096
▁obligations	-9.51145
▁dealt	-9.51163
▁happy	-9.5118
▁enormous	-9.51329
▁send	-9.51419
▁burden	-9.51486
▁addressed	-9.51641
▁consultation	-9.51768
▁managed	-9.51808
▁critical	-9.52017
5	-9.52025
▁fear	-9.52191
▁Agency	-9.52196
▁Strategy	-9.52245
▁improvement	-9.52332
▁sensitive	-9.52342
▁Why	-9.52346
▁parliaments	-9.5246
▁ideas	-9.52478
▁mutual	-9.52545
▁came	-9.52596
▁Ministers	-9.52662
▁big	-9.52702
▁By	-9.52741
▁Programme	-9.52745
▁putting	-9.52769
▁choice	-9.52997
▁refugees	-9.53008
▁networks	-9.53069
▁network	-9.53109
ic	-9.53225
▁growing	-9.53333
M	-9.53404
▁immediately	-9.53415
▁mechanisms	-9.53443
▁fraud	-9.53526
▁Trade	-9.53549
▁Russian	-9.5355
▁Amsterdam	-9.53551
▁directives	-9.53561
▁Iran	-9.53786
▁desire	-9.5383
▁definition	-9.53887
▁Middle	-9.53928
▁Even	-9.54123
▁run	-9.54214
▁mainly	-9.54255
▁ahead	-9.54274
▁simple	-9.54291
▁contains	-9.54324
▁administration	-9.54372
▁complex	-9.54629
▁Prime	-9.54843
▁October	-9.54894
▁unable	-9.5496
▁leaders	-9.54973
▁evidence	-9.55176
▁Chamber	-9.55227
▁operation	-9.55267
▁14	-9.55416
it	-9.5543
▁P	-9.55562
▁merely	-9.55604
▁age	-9.55615
▁intention	-9.55815
▁13	-9.55854
▁sound	-9.55877
4	-9.55911
▁union	-9.55925
▁resolve	-9.55927
▁rejected	-9.55938
ist	-9.55963
▁thousands	-9.56115
an	-9.56178
▁defend	-9.56213
▁child	-9.56268
▁Charter	-9.56336
▁leading	-9.56356
▁promotion	-9.56471
▁Health	-9.56497
▁signed	-9.56555
▁disaster	-9.57071
▁independence	-9.57166
▁exercise	-9.57243
▁seem	-9.57269
▁19	-9.5736
▁understanding	-9.57535
PL	-9.57734
the	-9.57829
1	-9.57864
▁easy	-9.57878
▁resolutions	-9.57984
▁Euro	-9.58051
▁elected	-9.58066
3	-9.58293
▁continuing	-9.58407
▁18	-9.58577
▁repeat	-9.58639
▁technologies	-9.58733
▁told	-9.58883
▁lost	-9.58938
▁6	-9.59062
▁sea	-9.59168
S	-9.59248
▁guarantees	-9.59334
▁cover	-9.59365
▁figures	-9.59372
▁adequate	-9.59535
▁Kingdom	-9.59579
▁Amendments	-9.59601
▁structure	-9.59656
▁includes	-9.59676
▁impossible	-9.59686
▁table	-9.59895
▁Turkish	-9.59927
▁worked	-9.5996
▁intend	-9.59962
▁Many	-9.59984
▁F	-9.60002
▁Pact	-9.60009
▁An	-9.6004
▁fish	-9.60154
▁expression	-9.60191
▁substantial	-9.60317
▁positions	-9.60324
est	-9.60435
7	-9.60628
▁trafficking	-9.60651
▁degree	-9.60778
▁persons	-9.60926
▁related	-9.60938
▁recommendation	-9.60939
▁2004	-9.60972
▁extend	-9.60994
▁payments	-9.6102
▁Schengen	-9.61124
▁income	-9.61148
ive	-9.61244
▁failed	-9.61263
▁totally	-9.61273
▁treaty	-9.61317
▁speakers	-9.61332
▁ought	-9.61335
▁heart	-9.61607
▁involvement	-9.61641
▁subsidiarity	-9.61745
▁African	-9.61856
▁North	-9.6186
▁economies	-9.61882
▁membership	-9.61885
▁highlight	-9.61902
▁renewable	-9.61997
▁territory	-9.62074
▁grateful	-9.62432
▁affairs	-9.62449
▁families	-9.62515
▁debates	-9.62538
▁attitude	-9.62622
▁traffic	-9.62685
▁bringing	-9.62706
▁instance	-9.62733
▁opposed	-9.62817
▁recognised	-9.62824
▁SMEs	-9.62915
▁goal	-9.62935
▁acts	-9.62985
▁linked	-9.63047
▁travel	-9.63144
▁truly	-9.63151
▁wishes	-9.63197
▁obvious	-9.63352
▁Portugal	-9.63374
▁secure	-9.63578
▁credit	-9.63632
▁plenary	-9.63792
▁Structural	-9.64016
▁involving	-9.64068
▁ready	-9.6407
▁sign	-9.64086
▁R	-9.64259
▁original	-9.64335
▁official	-9.64373
▁office	-9.64456
isation	-9.6449
▁actual	-9.64492
▁tackle	-9.64616
▁rates	-9.64721
▁getting	-9.64902
▁talks	-9.6493
▁Thirdly	-9.6507
▁happening	-9.65083
▁protecting	-9.65175
▁M	-9.65326
▁forced	-9.65476
▁enter	-9.65677
▁weapons	-9.65802
▁immediate	-9.65804
▁Poland	-9.65854
▁appeal	-9.65884
▁greatest	-9.659
▁globalisation	-9.65905
▁election	-9.65916
▁faced	-9.65956
▁Monetary	-9.66024
▁gender	-9.66311
▁Funds	-9.6635
▁bilateral	-9.66368
▁Cyprus	-9.66397
f	-9.66491
▁advantage	-9.66503
▁adopting	-9.66718
▁finance	-9.66906
▁board	-9.66937
▁substances	-9.67194
▁27	-9.67439
▁Barroso	-9.67463
▁Bulgaria	-9.67521
▁granted	-9.67541
▁votes	-9.67562
▁mobility	-9.67609
▁sides	-9.67631
▁campaign	-9.67733
I	-9.67735
▁8	-9.678
▁interesting	-9.6806
▁comply	-9.68311
P	-9.68337
▁minorities	-9.68338
▁lines	-9.68408
▁2009	-9.68432
▁starting	-9.68456
▁followed	-9.68539
▁shared	-9.68574
Applause	-9.6864
▁appear	-9.68651
▁controls	-9.68672
▁situations	-9.68867
▁standard	-9.68918
▁conduct	-9.68949
▁round	-9.69006
▁21	-9.69062
▁bad	-9.69201
ar	-9.69293
▁danger	-9.69409
▁ability	-9.6944
▁pollution	-9.69491
▁monitor	-9.69529
▁7	-9.69534
▁floor	-9.69543
▁involve	-9.69568
▁suffering	-9.69688
▁seeking	-9.69702
▁range	-9.69961
▁16	-9.69967
▁element	-9.70035
▁vehicles	-9.70087
▁diversity	-9.70107
▁judicial	-9.70151
▁competence	-9.7016
▁serve	-9.70294
▁subsidies	-9.70346
▁2005	-9.70362
▁Public	-9.70405
▁e	-9.70432
▁carefully	-9.7047
▁9	-9.70508
▁export	-9.70547
▁Belarus	-9.70627
▁communities	-9.70645
▁pre	-9.70724
▁reject	-9.70773
▁harmonisation	-9.70854
▁covered	-9.70881
▁explain	-9.71087
▁presence	-9.71124
▁July	-9.71341
▁meetings	-9.71368
▁thereby	-9.71374
▁safe	-9.71453
uestion	-9.71467
▁evaluation	-9.71494
▁committees	-9.7153
▁target	-9.71733
▁disease	-9.71763
p	-9.71843
▁voice	-9.71932
▁changed	-9.71978
▁delay	-9.71999
▁detailed	-9.72017
▁1999	-9.72035
▁While	-9.72122
▁spent	-9.72152
D	-9.72227
▁proposing	-9.72244
ment	-9.72265
k	-9.72275
▁criticism	-9.72726
▁structures	-9.72855
▁arms	-9.72916
▁drugs	-9.73022
▁late	-9.73066
▁Auditors	-9.73099
▁Do	-9.73168
▁detail	-9.73251
lo	-9.73256
▁Swedish	-9.73313
▁series	-9.73314
▁minority	-9.73316
▁50	-9.7333
▁designed	-9.73346
▁De	-9.73406
▁facilitate	-9.73482
▁Roma	-9.7357
▁binding	-9.73599
▁lower	-9.73601
▁Sea	-9.73829
▁oral	-9.73891
▁2020	-9.7392
▁Nos	-9.74173
▁consistent	-9.74222
▁immigrants	-9.74335
▁emphasis	-9.74434
▁participate	-9.74473
▁17	-9.74645
▁improvements	-9.74716
▁continues	-9.74764
▁recovery	-9.74773
h	-9.74836
▁representative	-9.74925
▁initial	-9.74969
▁expected	-9.7501
▁credibility	-9.75049
▁anyone	-9.7505
▁causes	-9.7507
▁affect	-9.75223
▁Greek	-9.75269
▁supports	-9.75281
▁ones	-9.75341
▁approval	-9.75349
▁inform	-9.75435
▁transfer	-9.75896
▁tourism	-9.75938
▁reasonable	-9.7601
▁naturally	-9.76059
▁professional	-9.76117
▁car	-9.76126
▁terrorist	-9.76131
▁Vice	-9.76288
▁Sweden	-9.76308
▁employees	-9.7632
▁religious	-9.76322
▁2003	-9.76345
▁nations	-9.76455
▁amongst	-9.76492
▁consumption	-9.76505
▁obtain	-9.76592
▁limits	-9.7665
▁Rule	-9.76786
il	-9.76888
▁April	-9.76912
▁goals	-9.76918
▁planning	-9.76952
▁entry	-9.76976
▁attacks	-9.77073
▁obligation	-9.77117
▁worth	-9.7715
▁ACP	-9.77162
▁Energy	-9.77231
▁source	-9.77307
▁otherwise	-9.77391
▁declaration	-9.77569
as	-9.77748
▁regulatory	-9.77822
EC	-9.77879
▁neither	-9.77905
▁taxation	-9.77934
▁Western	-9.77982
▁peoples	-9.78072
▁Czech	-9.78098
▁Such	-9.7823
▁factor	-9.78319
▁easier	-9.78356
▁Only	-9.78429
▁gave	-9.7855
▁session	-9.78583
▁started	-9.7884
▁path	-9.79065
▁PPE	-9.79085
▁domestic	-9.79135
▁2002	-9.79166
▁continent	-9.79259
▁modern	-9.79288
▁politicians	-9.7933
▁signal	-9.79363
▁rapid	-9.79412
▁hours	-9.79449
based	-9.79526
▁lies	-9.79577
▁maximum	-9.79592
▁factors	-9.79651
▁arrangements	-9.79714
▁generally	-9.79724
▁whilst	-9.79887
▁debt	-9.79892
▁solve	-9.79919
▁migration	-9.7992
▁rail	-9.79951
President	-9.80119
▁Market	-9.80151
▁Europeans	-9.80218
▁delighted	-9.80287
▁speaker	-9.80289
▁visa	-9.80292
▁encouraging	-9.80315
▁citizen	-9.80385
▁Eastern	-9.80465
▁banks	-9.80641
PT	-9.80714
▁fail	-9.80828
▁languages	-9.80951
▁compensation	-9.80983
▁permanent	-9.80994
▁post	-9.81058
▁Those	-9.81076
▁politics	-9.81397
▁From	-9.81443
▁contributions	-9.81469
▁Afghanistan	-9.81475
ion	-9.81499
▁appears	-9.8153
▁month	-9.81534
▁Socialist	-9.81537
▁freedoms	-9.81549
▁grounds	-9.81562
▁Legal	-9.81642
▁compliance	-9.81672
▁Agenda	-9.81709
▁partner	-9.8182
▁respected	-9.81838
H	-9.81846
ge	-9.81886
▁sent	-9.81914
ch	-9.81924
▁Stability	-9.82078
▁moving	-9.82125
▁manage	-9.82232
▁Research	-9.82245
▁scale	-9.82334
▁Copenhagen	-9.8238
IT	-9.82408
▁maritime	-9.82413
▁imposed	-9.82472
▁flexible	-9.82818
▁capable	-9.82854
▁NATO	-9.82869
▁constitutional	-9.83018
▁welfare	-9.83055
▁Agriculture	-9.83089
▁endorse	-9.83201
▁conflicts	-9.83408
▁D	-9.8353
▁negotiating	-9.83531
▁General	-9.83575
▁equally	-9.83766
▁reflect	-9.83785
▁crimes	-9.83863
▁requirement	-9.8388
▁Luxembourg	-9.84077
▁inclusion	-9.84077
▁forthcoming	-9.84111
u	-9.84128
▁proposes	-9.84209
ur	-9.84276
▁awareness	-9.84284
▁construction	-9.84318
▁guaranteed	-9.84399
▁safeguard	-9.84439
▁Action	-9.84578
▁realise	-9.84636
▁learn	-9.84653
▁man	-9.84667
▁fighting	-9.84744
▁numerous	-9.84764
▁helping	-9.84822
us	-9.84867
▁Balkans	-9.84967
▁Strasbourg	-9.84975
▁experts	-9.85008
▁restrictions	-9.85154
▁link	-9.85275
▁speed	-9.85563
▁disasters	-9.85656
▁spending	-9.85673
▁tobacco	-9.85699
▁century	-9.85887
▁separate	-9.85986
▁firm	-9.85996
▁lose	-9.86008
▁Netherlands	-9.86012
▁personally	-9.86043
▁investments	-9.86125
▁placed	-9.8613
▁tasks	-9.86149
▁approve	-9.8628
▁pension	-9.86404
▁impose	-9.86408
▁operations	-9.86408
▁sexual	-9.86469
▁evening	-9.86522
▁interested	-9.86534
▁resolved	-9.86671
▁truth	-9.86707
▁Framework	-9.86748
▁labelling	-9.86776
▁continued	-9.86867
▁purposes	-9.87076
▁payment	-9.87086
▁trading	-9.87187
O	-9.87217
▁defined	-9.87395
▁mission	-9.87417
▁examine	-9.87474
▁allowing	-9.87588
▁demonstrated	-9.87642
▁mass	-9.87715
▁demonstrate	-9.8772
▁diseases	-9.87838
▁H	-9.87877
▁space	-9.87879
▁existence	-9.87984
▁According	-9.88015
ul	-9.88044
▁appropriations	-9.88047
▁worse	-9.88128
▁option	-9.88133
▁Commissioners	-9.88134
▁referendum	-9.8827
▁vision	-9.88333
▁attack	-9.88338
▁corruption	-9.88395
▁letter	-9.88424
▁opinions	-9.88632
▁functioning	-9.88685
▁peaceful	-9.88737
▁voluntary	-9.88746
▁remarks	-9.88914
▁High	-9.89009
▁scheme	-9.89063
▁India	-9.89074
our	-9.89101
▁likely	-9.89124
▁traditional	-9.89178
▁protected	-9.89212
▁via	-9.89454
▁effectiveness	-9.89564
▁Portuguese	-9.896
▁ethnic	-9.89734
▁glad	-9.89805
▁assure	-9.89845
▁base	-9.9001
▁Another	-9.90109
▁occasions	-9.90202
▁II	-9.9029
▁operate	-9.90304
▁distribution	-9.90327
▁written	-9.90352
▁overcome	-9.90585
▁ultimately	-9.90634
de	-9.90667
▁material	-9.90782
▁Lastly	-9.90804
▁counter	-9.90813
▁Austria	-9.90832
▁Ombudsman	-9.90838
▁contained	-9.90901
▁legitimate	-9.90972
▁exists	-9.91121
▁Organisation	-9.91132
▁strict	-9.91156
▁average	-9.91205
▁New	-9.91257
▁USA	-9.91358
▁entitled	-9.9139
▁Chinese	-9.91463
▁justified	-9.91515
▁suggest	-9.91619
ri	-9.91634
▁officials	-9.91638
▁associated	-9.91674
▁cooperate	-9.91822
▁Not	-9.91968
F	-9.92059
▁passengers	-9.92115
▁operators	-9.92127
▁concluded	-9.92175
▁statistics	-9.92202
ro	-9.92355
▁tried	-9.92363
▁wide	-9.92384
▁electronic	-9.92422
▁L	-9.92544
▁millions	-9.92555
▁individuals	-9.92593
▁revision	-9.92725
▁difference	-9.92793
▁passed	-9.92832
▁dignity	-9.92835
▁primarily	-9.93022
▁decisive	-9.9313
▁constitution	-9.93137
▁played	-9.93217
▁visit	-9.93279
▁collective	-9.93312
▁agency	-9.9336
▁wonder	-9.93398
▁penalty	-9.93435
▁top	-9.935
▁Treaties	-9.9351
▁Despite	-9.93661
▁lay	-9.93692
▁d	-9.93737
▁court	-9.93762
▁prepare	-9.93765
▁appreciate	-9.93812
▁temporary	-9.93932
▁Dutch	-9.94
ES	-9.94047
▁Budgets	-9.9405
▁brief	-9.94103
▁technological	-9.9419
▁clause	-9.94234
▁February	-9.94269
▁amounts	-9.9434
▁allocated	-9.94695
▁firmly	-9.95004
▁substance	-9.95038
▁violations	-9.95044
▁vulnerable	-9.95064
▁treated	-9.9511
▁extended	-9.95212
▁emergency	-9.95217
▁involves	-9.95271
▁loss	-9.95275
▁Given	-9.95333
▁customs	-9.95391
▁got	-9.9552
▁nevertheless	-9.95716
ent	-9.95826
im	-9.95854
▁Financial	-9.9587
▁i	-9.96042
▁requested	-9.96101
▁centre	-9.96119
▁imports	-9.96479
▁CAP	-9.96486
▁1998	-9.96584
▁2001	-9.96611
▁please	-9.96678
▁Perhaps	-9.96682
▁Prodi	-9.96683
ne	-9.96755
▁whatever	-9.9684
▁obstacles	-9.96855
at	-9.96877
▁impression	-9.97033
▁normal	-9.97097
▁insurance	-9.9711
▁2007	-9.97133
▁ministers	-9.97299
▁latter	-9.97345
▁Baltic	-9.97383
▁planned	-9.97506
9	-9.97655
▁Head	-9.97669
▁preparing	-9.97775
▁excessive	-9.97806
▁abuse	-9.97839
▁Fundamental	-9.97893
▁succeed	-9.97937
▁highest	-9.97974
▁proceed	-9.98017
▁farming	-9.98064
▁hands	-9.98086
▁somewhat	-9.98093
▁property	-9.98098
▁gain	-9.98211
▁pursue	-9.9824
▁preventing	-9.98323
▁fulfil	-9.98395
▁contact	-9.98565
▁spoke	-9.98578
▁Report	-9.98644
▁phase	-9.98681
▁seven	-9.98791
▁behaviour	-9.98801
▁tool	-9.98837
▁extension	-9.98841
▁secondly	-9.98845
▁spoken	-9.98905
▁industries	-9.9892
▁Women	-9.98937
▁operational	-9.99008
▁processes	-9.99337
▁record	-9.99414
▁Assembly	-9.99438
▁confirm	-9.99483
▁examples	-9.99509
▁prove	-9.99615
▁O	-9.99633
▁gone	-9.9971
▁offers	-9.99786
ling	-9.99836
▁compared	-9.99972
▁urgently	-10.0002
▁constantly	-10.0004
▁considering	-10.0005
NL	-10.0015
▁unless	-10.0017
▁happens	-10.0019
▁stronger	-10.0021
▁inter	-10.0022
▁prosperity	-10.0028
▁Here	-10.003
▁Israeli	-10.0033
li	-10.005
ary	-10.0061
▁relates	-10.0063
▁W	-10.0064
ti	-10.0066
▁applying	-10.0068
▁announced	-10.0073
▁expectations	-10.0081
▁undoubtedly	-10.0085
▁Transport	-10.0089
el	-10.0091
▁occasion	-10.0091
▁precise	-10.0092
▁supervision	-10.0101
▁Asia	-10.0108
▁knows	-10.0108
▁100	-10.0113
▁drawing	-10.0113
▁Alliance	-10.0125
▁taxes	-10.0133
▁latest	-10.0151
▁pass	-10.0156
▁fuel	-10.0173
▁strategies	-10.019
▁insist	-10.0197
▁exclusion	-10.0198
▁fiscal	-10.0198
▁details	-10.02
▁courage	-10.0206
▁quotas	-10.0217
▁introducing	-10.0223
▁proceedings	-10.0229
▁welcomed	-10.023
▁described	-10.0233
▁strengthened	-10.0235
▁determined	-10.0239
▁keeping	-10.0241
▁historic	-10.0242
▁allows	-10.0242
▁noted	-10.0251
20	-10.0257
▁Fisheries	-10.0272
▁Croatia	-10.0275
▁barriers	-10.0277
▁Because	-10.0285
▁duties	-10.0289
▁pro	-10.0314
▁deliver	-10.0317
▁ratification	-10.0322
▁types	-10.0327
▁works	-10.0328
ised	-10.0332
▁operating	-10.0334
▁codecision	-10.0335
ry	-10.0337
▁stocks	-10.0343
▁NGOs	-10.0348
▁fishermen	-10.0351
▁CO	-10.0352
▁function	-10.038
▁minutes	-10.0383
▁sensible	-10.0384
▁exploitation	-10.0391
▁accounts	-10.0396
▁2006	-10.0396
▁leadership	-10.0397
▁largest	-10.0406
ise	-10.0419
▁coordinated	-10.0421
▁choose	-10.0422
▁clarify	-10.0423
▁confirmed	-10.043
and	-10.0431
▁pillar	-10.0433
▁Then	-10.0434
terinstitutional	-10.0437
▁represented	-10.0441
▁studies	-10.0447
▁equipment	-10.0451
▁fine	-10.0504
▁unfair	-10.0522
▁sub	-10.0537
▁association	-10.0541
▁submit	-10.0544
▁T	-10.0546
▁school	-10.0552
▁kept	-10.0553
▁Constitutional	-10.0554
ia	-10.0568
▁24	-10.0569
▁debating	-10.057
▁published	-10.0594
▁coherent	-10.0597
▁condemn	-10.0601
▁Re	-10.0616
▁nation	-10.0624
▁arguments	-10.0624
General	-10.0626
▁intends	-10.0629
▁briefly	-10.0631
▁shadow	-10.0642
▁Consumer	-10.0644
▁40	-10.0645
▁largely	-10.0646
▁patients	-10.0674
▁condition	-10.069
year	-10.0693
▁23	-10.0695
▁dis	-10.0701
▁maintaining	-10.0702
▁trans	-10.0705
▁united	-10.0707
▁materials	-10.0709
▁honour	-10.0711
▁sovereignty	-10.0711
▁ongoing	-10.0712
▁Protection	-10.0715
▁dependent	-10.0723
▁politically	-10.0724
▁perfectly	-10.0735
▁assess	-10.074
▁restructuring	-10.075
▁realistic	-10.075
▁near	-10.0758
▁enjoy	-10.0764
▁Serbia	-10.0765
ear	-10.0767
▁Employment	-10.0771
▁Instead	-10.0771
▁suffer	-10.078
▁learning	-10.0783
rs	-10.0785
▁undertaken	-10.0786
▁conciliation	-10.0802
▁significantly	-10.081
▁fields	-10.0816
▁amending	-10.0816
▁innovative	-10.0823
▁Hungarian	-10.0828
▁identity	-10.0832
▁regular	-10.0848
▁follows	-10.0852
▁finding	-10.0859
▁room	-10.0868
▁territorial	-10.0869
▁paper	-10.0873
▁offered	-10.0875
is	-10.088
▁Georgia	-10.0887
▁Protocol	-10.0893
T	-10.0909
▁contracts	-10.0917
▁invest	-10.0924
▁define	-10.0928
▁legally	-10.0968
▁Representative	-10.0973
▁waiting	-10.0975
▁advance	-10.098
▁wait	-10.0986
▁Control	-10.0995
▁answers	-10.1002
▁cars	-10.1003
▁highlighted	-10.1016
▁absence	-10.1017
▁transition	-10.1019
▁changing	-10.1019
▁formal	-10.1035
▁felt	-10.1039
▁urgency	-10.1039
▁accidents	-10.104
▁test	-10.1062
▁VAT	-10.1066
▁careful	-10.1067
▁Dur	-10.1068
▁release	-10.107
▁More	-10.1075
▁vessels	-10.1076
▁2008	-10.1088
▁argument	-10.1094
▁Food	-10.1102
▁concentrate	-10.1106
▁places	-10.1109
▁medical	-10.1115
▁brings	-10.1122
▁neighbours	-10.1128
▁milk	-10.1138
▁significance	-10.1147
▁acknowledge	-10.1147
out	-10.1154
▁stable	-10.1166
▁Austrian	-10.117
▁qualified	-10.1172
▁22	-10.1173
▁determination	-10.1176
▁understood	-10.1183
▁contain	-10.1187
▁negotiation	-10.1189
un	-10.1197
ma	-10.1206
▁disposal	-10.121
▁parliament	-10.1211
▁Last	-10.1219
▁electricity	-10.1233
▁wine	-10.1248
▁proved	-10.1252
▁sustainability	-10.1265
▁Latin	-10.1268
▁claim	-10.128
▁resulting	-10.1289
▁holding	-10.1314
▁difficulty	-10.1325
z	-10.1328
▁Safety	-10.1338
co	-10.134
▁Internal	-10.1342
▁genuinely	-10.1344
▁amended	-10.1344
▁primary	-10.1347
00	-10.1353
▁convergence	-10.1365
▁feed	-10.1374
po	-10.1377
▁valuable	-10.1384
▁deficit	-10.1392
▁referring	-10.1393
▁Before	-10.1398
▁figure	-10.1407
▁driving	-10.1422
▁Thursday	-10.1425
▁Cooperation	-10.1425
▁grant	-10.1428
▁Consequently	-10.143
▁willing	-10.1441
▁exports	-10.1454
▁extra	-10.1456
▁remove	-10.1458
▁daily	-10.1458
▁listen	-10.1459
one	-10.1463
▁destruction	-10.1476
▁neighbouring	-10.149
▁Can	-10.1497
▁investigation	-10.1513
Christian	-10.1543
▁aviation	-10.1546
▁universal	-10.1554
▁head	-10.1559
▁inadequate	-10.156
▁seeing	-10.1564
▁urban	-10.157
▁someone	-10.1579
▁built	-10.1589
x	-10.1593
▁actively	-10.1606
▁facts	-10.161
▁satisfactory	-10.1622
▁medicines	-10.1629
▁apart	-10.1629
▁2010	-10.1636
▁waters	-10.164
▁Common	-10.164
▁Time	-10.1645
▁zone	-10.1646
▁multilateral	-10.1649
▁assume	-10.1651
ve	-10.1659
▁friends	-10.1661
▁absolute	-10.1664
0	-10.1677
▁preparation	-10.1684
▁constitute	-10.1684
▁playing	-10.1686
▁code	-10.1691
▁J	-10.1698
▁ECU	-10.1708
ated	-10.1715
▁Regional	-10.1717
▁saw	-10.1718
▁leads	-10.172
▁depend	-10.172
▁GDP	-10.1733
▁Kyoto	-10.1733
man	-10.1736
▁suggested	-10.176
▁version	-10.176
mo	-10.176
▁Once	-10.1763
ra	-10.1766
▁wider	-10.1766
▁double	-10.1771
▁plant	-10.1784
▁moral	-10.1789
▁Greens	-10.1798
▁Pakistan	-10.1806
▁topic	-10.1807
▁budgets	-10.1827
▁K	-10.1828
ance	-10.184
ising	-10.1841
▁1997	-10.1842
▁running	-10.1848
▁maintained	-10.1851
▁sport	-10.1853
▁External	-10.186
▁speeches	-10.1861
RO	-10.1867
▁Nice	-10.1867
▁deep	-10.1868
▁opposite	-10.187
▁prisoners	-10.1879
▁users	-10.1881
▁bit	-10.1889
▁obliged	-10.189
▁West	-10.1898
▁requests	-10.1903
▁societies	-10.1904
▁enforcement	-10.1915
▁meat	-10.1916
▁launched	-10.1916
▁transitional	-10.1922
▁plants	-10.1923
ty	-10.1924
▁elsewhere	-10.1928
▁ports	-10.1937
▁massive	-10.1949
▁Without	-10.195
▁indicated	-10.1956
▁Thus	-10.1958
▁500	-10.1966
ant	-10.1968
▁identify	-10.1975
▁satisfied	-10.1983
▁Belgian	-10.1992
▁previously	-10.1994
▁tragic	-10.1996
▁check	-10.2
▁timetable	-10.2003
▁Britain	-10.2007
▁determine	-10.2007
▁Northern	-10.2011
ce	-10.2014
▁Hungary	-10.2021
▁dynamic	-10.2031
▁meant	-10.2038
ci	-10.2046
▁Are	-10.2048
▁proportion	-10.2049
age	-10.2052
▁sufficiently	-10.2053
▁spread	-10.2059
▁beings	-10.2064
▁greatly	-10.2067
▁adapt	-10.2073
▁White	-10.208
▁thanking	-10.2081
▁competent	-10.2085
▁considers	-10.2086
▁Budget	-10.2087
▁possibly	-10.209
▁oppose	-10.2091
▁suffered	-10.2094
▁Plan	-10.2095
ally	-10.2112
▁interpretation	-10.2115
▁moreover	-10.2115
▁etc	-10.2118
▁front	-10.2132
▁links	-10.2138
▁eight	-10.2142
▁Finland	-10.2145
▁identified	-10.2145
▁intellectual	-10.2145
▁stands	-10.2147
▁becomes	-10.2148
▁possibilities	-10.215
▁chosen	-10.2151
▁enhance	-10.2164
▁afternoon	-10.2165
▁stock	-10.2167
▁carrying	-10.2188
▁attempts	-10.2188
▁conducted	-10.2193
▁uniform	-10.2194
▁affects	-10.2195
▁partly	-10.2197
▁went	-10.2201
▁diplomatic	-10.2215
▁stake	-10.2216
▁poorest	-10.2216
▁Home	-10.2221
▁gap	-10.2225
▁hearing	-10.2226
▁background	-10.224
▁compulsory	-10.2243
ut	-10.2246
▁deserves	-10.2253
▁guaranteeing	-10.2254
▁spend	-10.2267
N	-10.2274
▁Secretary	-10.2281
▁rich	-10.2287
▁issued	-10.2289
▁himself	-10.229
▁seeks	-10.23
▁definitely	-10.2317
▁V	-10.2318
▁Having	-10.232
▁completed	-10.2323
▁van	-10.2334
▁proof	-10.2344
▁complicated	-10.2352
free	-10.2366
▁extreme	-10.2371
▁helped	-10.2377
▁options	-10.2382
▁prior	-10.239
▁replace	-10.2391
▁spite	-10.2392
ting	-10.2399
▁recall	-10.2399
▁debated	-10.24
▁species	-10.2403
▁National	-10.2412
ta	-10.2413
▁Partnership	-10.2417
▁implications	-10.2417
▁southern	-10.2427
▁sugar	-10.2438
j	-10.2444
▁believes	-10.245
▁secret	-10.2453
▁intentions	-10.2469
▁heavy	-10.2473
▁tragedy	-10.2473
▁Polish	-10.2479
▁addressing	-10.248
▁reconstruction	-10.2484
ol	-10.2491
am	-10.2499
▁skills	-10.2502
▁cities	-10.2505
▁ratified	-10.2515
▁facilities	-10.252
▁generation	-10.2527
▁reiterate	-10.2531
▁size	-10.2543
▁successfully	-10.2549
▁whereby	-10.255
▁worldwide	-10.255
▁openness	-10.2551
▁wealth	-10.2559
▁Danish	-10.2561
▁Barcelona	-10.2562
▁drug	-10.2566
▁taxpayers	-10.2569
▁schemes	-10.2571
▁mistake	-10.2572
EL	-10.2579
▁centres	-10.2579
▁Japan	-10.2583
E	-10.2583
▁multi	-10.2592
▁green	-10.2593
▁sets	-10.2596
▁surely	-10.2612
▁Korea	-10.2618
▁sorry	-10.2621
▁schools	-10.2633
▁pensions	-10.2657
▁assist	-10.2663
▁harmful	-10.2671
▁solely	-10.2673
▁Europol	-10.2681
▁Will	-10.2688
▁Growth	-10.2697
▁constant	-10.2697
▁prospects	-10.2706
▁charges	-10.2707
▁worrying	-10.2711
▁Subject	-10.2713
▁worst	-10.2718
▁quote	-10.2719
ad	-10.2719
▁extensive	-10.2724
▁healthy	-10.2727
▁exception	-10.273
▁...	-10.2734
ous	-10.2735
▁tools	-10.2737
G	-10.274
▁acting	-10.275
U	-10.2751
related	-10.2755
economic	-10.2756
▁phenomenon	-10.276
▁ECB	-10.2761
▁opened	-10.2764
▁proud	-10.2766
COM	-10.2773
▁Liberal	-10.2775
▁numbers	-10.2779
▁accident	-10.278
▁television	-10.2781
▁easily	-10.2787
▁Where	-10.2787
▁profits	-10.2791
▁demanding	-10.2794
ors	-10.2796
▁Under	-10.2813
▁players	-10.2815
scale	-10.2816
▁hundreds	-10.2825
▁advice	-10.2829
▁purely	-10.2831
▁producing	-10.2834
▁launch	-10.2849
▁advertising	-10.2856
▁depends	-10.286
▁crises	-10.2861
▁texts	-10.2872
▁core	-10.2886
▁emphasised	-10.2887
▁threats	-10.2888
ir	-10.2889
▁foremost	-10.2893
▁manufacturers	-10.29
▁decades	-10.2906
▁Socialists	-10.2913
▁essentially	-10.2917
▁correctly	-10.292
▁governing	-10.2926
▁extending	-10.2943
▁unanimously	-10.2946
▁stressed	-10.2947
▁Belgium	-10.2952
▁considerations	-10.2964
▁EC	-10.2967
ies	-10.2967
▁thorough	-10.2975
▁dispute	-10.2981
▁Both	-10.2985
▁reliable	-10.2996
▁enabling	-10.3001
▁claims	-10.3009
▁profit	-10.3017
▁geographical	-10.3024
▁rapidly	-10.3026
ating	-10.3027
▁suitable	-10.3034
▁31	-10.3042
▁Bosnia	-10.3051
▁achievement	-10.3061
▁break	-10.3064
R	-10.3064
▁granting	-10.3069
ntergovernmental	-10.307
▁experienced	-10.3073
▁sum	-10.3076
▁bureaucracy	-10.3077
▁strength	-10.3084
▁port	-10.309
▁certainty	-10.3109
▁environmentally	-10.3117
▁Does	-10.3119
▁powerful	-10.3121
▁competences	-10.3122
ate	-10.3132
▁26	-10.3133
▁focused	-10.3137
▁considerably	-10.3139
L	-10.3147
▁remaining	-10.3151
▁Nor	-10.3167
▁promised	-10.3169
▁applicable	-10.3171
▁passenger	-10.3172
▁feeling	-10.3174
▁clarity	-10.3176
▁bound	-10.3187
▁legitimacy	-10.3198
▁imagine	-10.3199
less	-10.32
sh	-10.3215
▁slow	-10.3219
▁performance	-10.322
▁regrettable	-10.322
▁Slovakia	-10.3221
▁paying	-10.3228
▁reaction	-10.3239
▁heritage	-10.3265
▁wording	-10.3265
▁heading	-10.327
▁declared	-10.328
▁article	-10.3284
tergovernmental	-10.3293
▁deals	-10.3297
▁Arab	-10.3309
▁violation	-10.3318
▁historical	-10.333
▁contributed	-10.3336
▁1996	-10.3339
▁Authority	-10.3343
▁ships	-10.3344
▁refers	-10.3344
▁engage	-10.3348
▁contract	-10.335
session	-10.3352
relatively	-10.3359
▁favourable	-10.3361
▁supposed	-10.3361
▁increases	-10.3364
▁advantages	-10.3366
▁Cuba	-10.3371
▁Left	-10.3377
▁protocol	-10.338
▁savings	-10.3384
▁succeeded	-10.3388
▁unnecessary	-10.3388
▁cuts	-10.3399
▁biggest	-10.3399
▁Just	-10.3405
▁Christian	-10.3406
▁commit	-10.3413
▁intervene	-10.3417
▁reflected	-10.3418
id	-10.3423
▁island	-10.3428
▁chairman	-10.3447
▁20%	-10.3451
▁airlines	-10.3461
▁encouraged	-10.3467
▁willingness	-10.3474
▁con	-10.3477
ities	-10.3489
▁admit	-10.3506
▁Parliamentary	-10.3507
▁healthcare	-10.3507
▁arise	-10.3509
▁fruit	-10.3522
▁negotiated	-10.3523
▁religion	-10.3523
▁save	-10.3525
▁constitutes	-10.3534
▁science	-10.3538
na	-10.3558
▁vast	-10.3558
▁doubts	-10.3566
▁hit	-10.3575
▁BSE	-10.3583
▁news	-10.36
▁Rur	-10.3602
▁cancer	-10.3604
▁affecting	-10.3614
02	-10.3615
▁consequence	-10.3615
▁sake	-10.3622
▁communications	-10.3632
▁removed	-10.3633
▁bank	-10.3636
▁patent	-10.3643
▁entered	-10.3655
▁courts	-10.366
▁Civil	-10.3662
▁negotiate	-10.3669
▁greenhouse	-10.3679
▁leader	-10.3686
▁reaching	-10.369
▁summer	-10.3692
▁utmost	-10.3697
▁eastern	-10.3707
▁buy	-10.3714
▁simplification	-10.3715
▁modified	-10.3717
▁Denmark	-10.372
ac	-10.3742
▁citizenship	-10.3744
▁eye	-10.3755
▁charge	-10.3765
▁Culture	-10.3768
▁piece	-10.3784
▁boost	-10.3785
▁weak	-10.3795
▁afraid	-10.3819
▁everybody	-10.3819
▁Joint	-10.3819
▁Berlin	-10.3823
▁regulate	-10.3831
▁applications	-10.3839
▁south	-10.3841
▁Industry	-10.3843
▁restore	-10.385
Parliament	-10.385
▁convention	-10.3854
▁clean	-10.3856
vo	-10.3859
▁prospect	-10.3859
▁28	-10.3866
▁Citizens	-10.3869
▁fairly	-10.3875
ine	-10.3881
▁deserve	-10.3887
▁reservations	-10.389
▁whereas	-10.3896
der	-10.3897
▁regarded	-10.3902
▁supplementary	-10.3914
▁author	-10.3917
▁targeted	-10.3917
▁deeply	-10.3926
▁Over	-10.3926
▁retain	-10.3931
▁battle	-10.3932
▁carbon	-10.3934
▁aside	-10.3937
▁leaving	-10.3938
ca	-10.3948
ot	-10.3958
▁explanation	-10.3964
▁applicant	-10.397
▁presenting	-10.3973
▁smaller	-10.3978
ful	-10.3979
▁armed	-10.3982
▁sought	-10.3993
ha	-10.3996
▁undertakings	-10.3997
▁200	-10.4002
▁treaties	-10.401
▁Macedonia	-10.4014
▁ordinary	-10.4021
▁m	-10.4023
▁Association	-10.4027
▁obtained	-10.403
▁respects	-10.4041
▁drafting	-10.4059
▁incorporated	-10.4061
▁60	-10.4068
▁suggestions	-10.407
um	-10.4074
▁eliminate	-10.4077
▁noon	-10.408
wide	-10.4084
▁representation	-10.4084
▁Follow	-10.4088
▁struggle	-10.4088
▁stay	-10.4101
▁bureaucratic	-10.4112
▁incentives	-10.4115
▁Tourism	-10.4124
▁raising	-10.4129
▁mark	-10.413
▁meaning	-10.4139
▁nationals	-10.4147
▁ethical	-10.4148
▁employers	-10.4167
▁declarations	-10.4175
▁importantly	-10.4197
▁1995	-10.4203
▁marketing	-10.4204
▁terrible	-10.4209
▁She	-10.4212
▁outstanding	-10.4214
▁jointly	-10.4214
▁settlement	-10.422
▁credible	-10.4221
▁pleasure	-10.4228
▁excluded	-10.4242
▁combined	-10.4249
▁radical	-10.4259
▁preserve	-10.426
▁complaints	-10.4264
w	-10.4272
▁harm	-10.4276
▁ambition	-10.4281
▁yes	-10.4285
▁register	-10.4287
▁forest	-10.4292
▁necessarily	-10.4301
▁shortcomings	-10.4302
▁electoral	-10.432
▁buildings	-10.4324
▁Act	-10.4344
▁29	-10.4346
▁repeatedly	-10.4355
▁underline	-10.4356
la	-10.4366
▁tests	-10.4368
▁eyes	-10.437
▁students	-10.4371
SV	-10.4382
▁justify	-10.4385
▁beef	-10.439
▁hopes	-10.4392
▁broader	-10.4395
con	-10.4397
▁educational	-10.44
▁showing	-10.44
▁candidates	-10.4404
▁amend	-10.4406
▁biodiversity	-10.4407
▁examined	-10.4412
▁familiar	-10.4413
▁shape	-10.4415
▁afford	-10.4417
▁revised	-10.4421
▁declare	-10.4427
▁surprised	-10.4429
▁percentage	-10.4438
▁firms	-10.4454
▁honest	-10.4456
▁Van	-10.4461
▁belong	-10.4474
▁exceptional	-10.4474
▁arrest	-10.4474
▁liberal	-10.4476
▁weight	-10.4482
▁motor	-10.4494
▁reflects	-10.4507
▁fewer	-10.4509
ni	-10.4515
▁undertake	-10.4519
▁creates	-10.4526
▁fleet	-10.4528
▁PSE	-10.4532
▁belief	-10.4533
▁nearly	-10.4533
▁checks	-10.4541
▁Bureau	-10.4545
▁Gaza	-10.4545
▁Burma	-10.4551
em	-10.4562
▁expressing	-10.4573
▁racism	-10.4577
▁foundations	-10.4577
▁count	-10.4586
▁suspended	-10.4586
▁turned	-10.4588
▁trend	-10.4591
▁Well	-10.4599
▁tonnes	-10.4602
▁fire	-10.4603
▁prison	-10.4612
▁prefer	-10.4613
▁expense	-10.4622
▁night	-10.4625
▁Free	-10.4627
▁picture	-10.4629
▁undermine	-10.4644
▁enhanced	-10.4646
▁widespread	-10.4647
▁grow	-10.465
ard	-10.4651
▁fresh	-10.4653
▁import	-10.4656
▁penalties	-10.4659
▁transactions	-10.4661
▁liability	-10.4666
▁aircraft	-10.4666
▁unique	-10.4679
▁deadline	-10.468
▁resulted	-10.4683
▁transatlantic	-10.4685
▁below	-10.4687
▁hardly	-10.469
▁subjects	-10.469
▁War	-10.469
▁disabled	-10.4691
▁qualifications	-10.47
▁unfortunate	-10.4706
▁stance	-10.4711
▁airports	-10.4712
▁bearing	-10.4724
▁physical	-10.4725
▁te	-10.4728
▁economically	-10.4728
▁unity	-10.4735
▁city	-10.4737
▁warmly	-10.474
▁disagree	-10.4749
▁Lithuania	-10.4755
▁youth	-10.4758
▁falls	-10.4759
▁relate	-10.476
▁terrorists	-10.4761
▁tackling	-10.4762
▁delays	-10.4767
▁abolition	-10.4775
▁faith	-10.4778
▁coordinate	-10.4784
▁repeated	-10.4789
▁civilian	-10.4799
▁procurement	-10.4808
▁red	-10.4808
▁Geneva	-10.4814
▁allocation	-10.4817
▁quota	-10.4824
▁English	-10.4834
▁track	-10.4834
▁raw	-10.484
▁invite	-10.4842
imbabwe	-10.4842
▁drafted	-10.4851
▁condemned	-10.4852
▁restrict	-10.4852
▁demographic	-10.4853
▁satisfaction	-10.4854
▁Albania	-10.4857
▁acquis	-10.4861
▁restricted	-10.4867
▁Islamic	-10.4875
lu	-10.4877
▁recommend	-10.4889
▁losses	-10.4896
▁team	-10.4896
▁lie	-10.4898
▁trial	-10.4913
▁treat	-10.4915
▁informal	-10.4918
ver	-10.4923
▁became	-10.4938
▁preparations	-10.4944
▁none	-10.4947
▁Palestinians	-10.4957
▁door	-10.4964
▁category	-10.4965
▁regulated	-10.497
▁nonetheless	-10.4971
▁receiving	-10.4971
▁uncertainty	-10.4971
▁digital	-10.4978
▁twenty	-10.4991
▁lasting	-10.5002
▁minute	-10.5007
▁expensive	-10.5011
▁insufficient	-10.5015
▁freely	-10.5017
▁collaboration	-10.5017
▁presentation	-10.5021
▁lessons	-10.5032
▁indicators	-10.5035
▁fast	-10.5041
▁kinds	-10.5048
om	-10.505
▁explained	-10.5068
▁regardless	-10.5076
do	-10.5079
▁organise	-10.5079
▁abstained	-10.5081
▁widely	-10.5093
▁larger	-10.5093
▁army	-10.5098
▁inflation	-10.5105
▁periods	-10.5109
▁Investment	-10.5124
▁withdraw	-10.5125
▁ignore	-10.5138
▁welcomes	-10.514
▁gradually	-10.5141
▁chain	-10.5143
ugoslavia	-10.5143
▁offering	-10.5145
▁indicate	-10.5145
▁sovereign	-10.5151
▁Morocco	-10.5152
▁push	-10.5152
▁extraordinary	-10.5165
▁processing	-10.5169
▁Ma	-10.5171
▁collection	-10.5172
▁generations	-10.5188
▁railway	-10.5191
▁unemployed	-10.5192
▁b	-10.5197
▁demonstrates	-10.5199
▁engaged	-10.5204
▁flow	-10.5205
me	-10.5209
▁listened	-10.521
▁occurred	-10.5212
▁severe	-10.5214
▁turning	-10.5225
▁Nonetheless	-10.5225
▁Maastricht	-10.5232
▁Clearly	-10.5232
▁protest	-10.5233
▁elderly	-10.5239
▁spring	-10.5239
ter	-10.5242
▁territories	-10.5245
▁financed	-10.5255
▁reflection	-10.5265
▁sphere	-10.5265
▁promises	-10.5266
▁strike	-10.5272
▁warning	-10.5279
▁outset	-10.528
▁unanimous	-10.5281
▁covers	-10.5287
▁torture	-10.5288
▁began	-10.5292
▁finances	-10.53
▁hence	-10.5302
▁killed	-10.5304
▁causing	-10.5307
▁drivers	-10.5318
▁Centre	-10.532
▁basically	-10.5322
ian	-10.5325
▁Obviously	-10.5327
▁promise	-10.5329
ial	-10.5334
▁react	-10.5337
▁2.	-10.5339
▁distinction	-10.5342
▁suggestion	-10.5342
▁Declaration	-10.5355
▁journalists	-10.5355
EU	-10.5357
▁permit	-10.5362
▁parents	-10.537
▁couple	-10.5371
▁blame	-10.5377
▁transit	-10.5383
▁undertaking	-10.5384
led	-10.5388
▁Office	-10.5396
level	-10.5398
▁OLAF	-10.5405
▁noise	-10.5408
▁populations	-10.5414
▁comparison	-10.5416
▁observed	-10.5421
▁Egypt	-10.5423
ho	-10.5429
▁Chechnya	-10.543
land	-10.5433
▁nobody	-10.5444
▁congratulations	-10.5444
▁ecological	-10.5446
▁reinforce	-10.5446
▁minister	-10.5473
▁promoted	-10.5476
▁section	-10.548
▁shares	-10.5482
▁necessity	-10.5486
▁viable	-10.5507
▁motions	-10.5508
▁Moldova	-10.5522
▁reserve	-10.5524
EEC	-10.553
▁tribute	-10.5534
▁Second	-10.5543
lecommunications	-10.5547
▁supplies	-10.5548
▁Americans	-10.5548
tic	-10.5549
time	-10.5549
▁forests	-10.5552
▁Most	-10.5556
▁alcohol	-10.557
V	-10.5571
▁harmonised	-10.558
▁parallel	-10.5597
▁compatible	-10.5599
▁deaths	-10.5599
▁mid	-10.5618
▁prevented	-10.5622
▁arising	-10.5633
▁associations	-10.5652
▁troops	-10.5654
▁enlarged	-10.5655
▁beneficial	-10.5661
▁sending	-10.5667
▁Every	-10.5675
▁solid	-10.5675
▁emerging	-10.5682
▁Canada	-10.5686
▁frequently	-10.5699
▁contacts	-10.571
▁observation	-10.5713
▁Any	-10.5718
▁marine	-10.5725
▁looked	-10.5735
▁forum	-10.5736
▁approximately	-10.5736
▁keen	-10.5739
▁Soviet	-10.5749
▁London	-10.5753
▁observe	-10.5761
udgetary	-10.5766
▁Service	-10.5778
▁revenue	-10.5778
▁occur	-10.5785
▁clearer	-10.5789
▁sincerely	-10.5793
01	-10.58
▁dumping	-10.58
ba	-10.581
▁Labour	-10.581
debate	-10.5815
▁accompanied	-10.5818
▁wage	-10.5828
ns	-10.5829
▁choices	-10.5832
▁talked	-10.5834
▁alongside	-10.5835
▁Also	-10.5839
▁banking	-10.584
▁efficiently	-10.5842
CS	-10.5857
▁moved	-10.5861
▁coherence	-10.5861
▁pact	-10.5869
▁accessible	-10.587
▁rejection	-10.5885
▁judgment	-10.5887
▁clarification	-10.5887
▁Their	-10.5892
▁shortly	-10.5892
▁divided	-10.5901
▁Rome	-10.5904
▁congratulating	-10.5904
▁exclusively	-10.5915
▁Finnish	-10.5919
▁simplify	-10.5929
▁division	-10.5931
▁evident	-10.5934
▁conventions	-10.5939
▁Single	-10.594
▁refuse	-10.5941
▁surrounding	-10.5942
▁tangible	-10.5955
▁jurisdiction	-10.5962
▁vehicle	-10.5969
▁ex	-10.5975
▁Petitions	-10.5977
▁Atlantic	-10.5977
▁friend	-10.5977
▁pursued	-10.5978
▁chemical	-10.5985
▁Communist	-10.5993
▁neighbourhood	-10.5999
▁defending	-10.6016
▁Cohesion	-10.6021
▁experiencing	-10.6021
▁opt	-10.6029
▁Statute	-10.6035
country	-10.6056
▁Like	-10.6058
▁host	-10.6058
▁surveillance	-10.6065
▁begun	-10.6065
ow	-10.6086
ph	-10.6088
▁Objective	-10.6094
▁2000,	-10.6106
▁compete	-10.6109
▁standing	-10.6111
vi	-10.6115
▁Malta	-10.6124
▁respecting	-10.6128
▁apparent	-10.6134
▁campaigns	-10.6137
▁ill	-10.6138
▁socio	-10.6144
▁1990	-10.6146
▁Palestine	-10.6147
ab	-10.6148
▁sharing	-10.615
▁statute	-10.6154
▁valid	-10.6165
▁occupation	-10.618
▁disappointed	-10.6184
▁timely	-10.6185
▁loans	-10.6186
▁pilot	-10.619
▁authorisation	-10.6191
▁perspectives	-10.6192
▁soil	-10.6194
▁image	-10.6198
Mediterranean	-10.6205
▁victim	-10.6205
▁route	-10.6205
▁resource	-10.622
▁friendly	-10.6225
▁Education	-10.6228
HU	-10.623
ex	-10.6239
▁Otherwise	-10.6258
▁mere	-10.6271
▁northern	-10.6273
▁Allow	-10.6274
▁strictly	-10.6276
▁Bar	-10.6279
▁murder	-10.628
▁design	-10.6283
ted	-10.6288
▁blood	-10.6293
▁ruling	-10.6296
op	-10.6304
ning	-10.6307
▁threatened	-10.6308
▁50%	-10.6311
▁drive	-10.6314
5-00	-10.6317
▁directed	-10.6318
▁textile	-10.6319
▁joined	-10.6325
▁yourself	-10.6326
▁unions	-10.6327
▁Defence	-10.6333
▁migrants	-10.6337
▁notice	-10.6341
▁Information	-10.6341
▁Two	-10.6341
▁traditions	-10.6354
▁rising	-10.6356
▁stations	-10.6361
▁replaced	-10.6363
▁desirable	-10.6364
▁usual	-10.6372
quality	-10.6376
▁crops	-10.6379
▁controversial	-10.6386
▁house	-10.6391
pa	-10.6394
▁roads	-10.6407
▁unanimity	-10.6409
▁farms	-10.6416
▁Solidarity	-10.6417
ect	-10.6421
ritten	-10.6432
▁justification	-10.6436
▁consulted	-10.6438
▁procedural	-10.644
▁alternatives	-10.6446
▁forgotten	-10.6447
▁nine	-10.6448
▁fourth	-10.6448
v	-10.6453
▁Great	-10.6455
▁defining	-10.6455
▁win	-10.646
▁excuse	-10.6463
he	-10.6481
ring	-10.6482
▁threshold	-10.6487
▁categories	-10.6493
▁housing	-10.6493
▁connected	-10.6495
▁N	-10.6516
outermost	-10.6517
▁examination	-10.652
▁hoped	-10.6533
▁sight	-10.6539
▁respective	-10.654
ke	-10.6545
▁refused	-10.6545
by	-10.6547
▁lacking	-10.6551
▁north	-10.656
ten	-10.6564
▁en	-10.657
▁contributing	-10.6571
▁permitted	-10.6571
▁net	-10.658
▁items	-10.6581
▁confusion	-10.6586
▁impetus	-10.6586
▁showed	-10.6587
▁tradition	-10.6593
▁puts	-10.6605
ka	-10.6608
▁mobile	-10.6612
▁highlights	-10.6612
▁Al	-10.6615
▁acceptance	-10.6632
off	-10.6639
▁equivalent	-10.6648
▁systematic	-10.6649
os	-10.665
▁scrutiny	-10.6656
bo	-10.6658
▁search	-10.666
▁conservation	-10.6664
▁integrity	-10.6664
si	-10.6665
▁universities	-10.6672
▁imposing	-10.6672
▁emission	-10.6675
ner	-10.6678
▁pursuan	-10.668
▁Criminal	-10.6687
▁consequently	-10.6688
▁slightly	-10.6689
▁breach	-10.669
▁joining	-10.6701
outh	-10.6706
▁warm	-10.6706
▁residence	-10.6719
▁logical	-10.6722
▁Le	-10.6724
▁characteristics	-10.6726
▁funded	-10.6728
▁worthy	-10.673
▁expansion	-10.6735
▁Brazil	-10.6736
▁arrive	-10.6737
▁reconciliation	-10.6742
▁signing	-10.6751
▁estimated	-10.6752
▁subsequently	-10.6755
▁ideal	-10.6758
fi	-10.6759
all	-10.6761
▁integrate	-10.6761
▁resumed	-10.6768
▁Doha	-10.677
▁achievements	-10.6774
▁underlying	-10.6774
▁dramatic	-10.6782
▁genetically	-10.6782
ts	-10.6791
▁chemicals	-10.6792
▁helpful	-10.6792
▁regularly	-10.6799
▁perfect	-10.6817
▁length	-10.6819
▁Regarding	-10.6821
▁flows	-10.6822
▁banned	-10.683
ll	-10.6832
▁thousand	-10.6834
▁assessments	-10.6835
▁notably	-10.6844
▁birth	-10.6845
▁Please	-10.6845
▁ambitions	-10.6847
▁raises	-10.6848
▁violent	-10.685
▁f	-10.6851
▁advocate	-10.6853
▁accordingly	-10.686
▁Sudan	-10.6861
▁managing	-10.6861
▁withdrawal	-10.6864
▁controlled	-10.6869
▁Co	-10.6869
▁observers	-10.6877
▁EMU	-10.6877
▁intensive	-10.6889
▁preventive	-10.689
▁railways	-10.6902
▁destroy	-10.6906
▁reported	-10.691
▁investors	-10.6913
ill	-10.6915
▁destroyed	-10.6917
▁contrast	-10.6917
▁block	-10.6919
▁representing	-10.6921
▁missing	-10.6922
▁whatsoever	-10.6925
▁judge	-10.693
Rule	-10.6936
governmental	-10.6938
▁approaches	-10.6945
▁providers	-10.6951
▁appointment	-10.6955
▁Iraqi	-10.6967
▁ratify	-10.6978
▁confident	-10.6984
▁delegations	-10.6989
▁August	-10.699
▁Monday	-10.699
▁System	-10.6998
▁Who	-10.6998
▁infringement	-10.7004
▁inhabitants	-10.7011
▁ALDE	-10.7014
▁resistance	-10.7014
▁losing	-10.7022
▁mandatory	-10.7022
▁coastal	-10.7032
▁imported	-10.7032
▁agrees	-10.7043
▁die	-10.7047
▁commend	-10.7054
▁interim	-10.7055
▁sentence	-10.7073
▁exchanges	-10.7077
▁hundred	-10.7077
▁tough	-10.7077
▁conviction	-10.7077
▁fires	-10.7078
▁advanced	-10.7079
▁subsequent	-10.7082
▁woman	-10.71
▁plays	-10.7103
▁distributed	-10.7113
▁failing	-10.7113
▁Friday	-10.712
▁Patten	-10.7128
▁supervisory	-10.7136
▁St	-10.7139
▁Services	-10.714
▁cultures	-10.7146
cing	-10.7153
▁inside	-10.7155
▁Solana	-10.7169
▁sales	-10.7172
▁eventually	-10.7187
ative	-10.7187
▁covering	-10.7188
▁safeguarding	-10.7188
▁black	-10.7189
▁executive	-10.7194
▁pretext	-10.7194
▁envisaged	-10.7204
▁mistakes	-10.7206
▁exceptions	-10.7212
▁ship	-10.7217
pe	-10.7218
▁freight	-10.7227
▁touch	-10.7227
ga	-10.723
▁gained	-10.7235
▁consent	-10.7235
▁grave	-10.7235
▁300	-10.7245
▁decent	-10.7248
▁error	-10.7251
▁preliminary	-10.7251
▁stakeholders	-10.7252
ud	-10.7254
▁absurd	-10.7259
▁participating	-10.726
ability	-10.726
vote	-10.7262
▁abroad	-10.7268
▁sit	-10.7273
▁chapter	-10.7284
▁Wednesday	-10.7285
▁c	-10.7285
▁expertise	-10.7285
▁2009.	-10.729
▁restrictive	-10.7294
▁founded	-10.7295
▁blind	-10.7301
▁furthermore	-10.7302
▁discipline	-10.7303
▁fixed	-10.7304
▁investigations	-10.731
▁rely	-10.7315
▁sad	-10.7325
▁tolerance	-10.7326
▁concentration	-10.7329
▁shift	-10.7332
▁disputes	-10.7334
▁modernisation	-10.7336
▁movements	-10.7343
▁foundation	-10.7348
▁registration	-10.7353
▁accountability	-10.7354
▁monitored	-10.7357
▁older	-10.7363
▁convince	-10.7363
▁Ashton	-10.7368
▁postal	-10.7374
▁regimes	-10.7384
▁exploit	-10.7385
▁abuses	-10.7386
way	-10.7387
reaching	-10.7389
▁IGC	-10.7393
▁2010.	-10.7395
▁humanity	-10.74
▁Millennium	-10.7402
▁anniversary	-10.7402
▁cent	-10.7412
▁Libya	-10.7413
▁micro	-10.7418
▁listening	-10.7423
▁incorporate	-10.7438
▁Tunisia	-10.7447
of	-10.7452
▁La	-10.7455
▁accounting	-10.7459
▁resolving	-10.7469
▁acknowledged	-10.747
▁actors	-10.7471
▁invited	-10.7475
▁farm	-10.7485
▁object	-10.7486
▁organic	-10.7487
wing	-10.7488
▁fit	-10.7488
▁Chairman	-10.7498
go	-10.7502
ish	-10.7503
▁Similarly	-10.7504
▁10%	-10.7505
▁attend	-10.7509
▁Or	-10.7516
▁dead	-10.7517
▁Reform	-10.7523
▁consistency	-10.7529
▁35	-10.7533
▁Romanian	-10.7538
▁Hence	-10.7538
▁card	-10.7542
▁fails	-10.7543
▁Democratic	-10.7543
▁Verheugen	-10.7546
▁fuels	-10.7549
▁suggests	-10.7557
▁assets	-10.7567
▁Ms	-10.7567
day	-10.7569
▁Liberals	-10.7573
▁EIB	-10.7575
▁character	-10.7588
▁autonomy	-10.7597
▁stringent	-10.7597
▁surprise	-10.7601
▁containing	-10.7602
▁proven	-10.7603
▁president	-10.7606
▁ignored	-10.7612
▁infrastructures	-10.7615
▁solved	-10.7618
▁functions	-10.7623
▁decline	-10.7627
▁marked	-10.7629
▁reductions	-10.763
▁sincere	-10.7643
ag	-10.7644
▁female	-10.7657
▁outlined	-10.766
5-01	-10.7675
▁finish	-10.769
▁compromises	-10.7701
▁Iranian	-10.7704
▁visible	-10.7709
▁meantime	-10.7712
▁fifth	-10.7713
▁denied	-10.7718
▁den	-10.7723
▁signs	-10.7724
▁immunity	-10.7727
▁Bush	-10.7728
line	-10.7737
▁evaluate	-10.7743
▁imperative	-10.7744
▁visited	-10.7745
▁rational	-10.7746
▁accepting	-10.775
▁Could	-10.7753
▁liked	-10.7753
ap	-10.7754
▁catch	-10.7771
▁coal	-10.7772
▁ageing	-10.7775
▁hour	-10.7779
▁visas	-10.7786
▁detention	-10.7796
▁albeit	-10.7805
▁2000.	-10.7815
▁entering	-10.7823
ists	-10.7825
▁wages	-10.7827
yes	-10.7836
▁consolidation	-10.784
▁recognises	-10.7843
▁incentive	-10.7844
▁popular	-10.7848
▁pursuing	-10.7849
▁fears	-10.785
▁ceiling	-10.7853
▁g	-10.7858
▁cast	-10.7859
▁dictatorship	-10.7862
▁foster	-10.7864
▁experiences	-10.7882
▁employed	-10.7884
▁died	-10.7887
▁falling	-10.7891
▁released	-10.7894
▁dangers	-10.7897
▁voters	-10.7906
▁answered	-10.7907
▁endorsed	-10.7914
▁backing	-10.7918
▁dossier	-10.7924
▁1.	-10.7926
▁train	-10.7932
▁Other	-10.7933
▁Decision	-10.7933
▁unilateral	-10.7941
▁closure	-10.7942
king	-10.7954
▁variety	-10.7964
▁fate	-10.7965
FI	-10.797
▁tonight	-10.797
be	-10.7973
▁models	-10.7975
ized	-10.7982
▁learned	-10.7993
▁concludes	-10.7996
▁disastrous	-10.8
▁r	-10.8
ence	-10.8007
▁Above	-10.8009
▁sympathy	-10.8009
▁hopefully	-10.8013
▁refugee	-10.8024
▁criterion	-10.8027
▁privacy	-10.8027
▁endeavour	-10.8031
▁maintenance	-10.8036
▁stages	-10.8039
▁sites	-10.8046
▁corresponding	-10.8051
▁collapse	-10.8058
res	-10.8063
▁renewed	-10.8065
▁gradual	-10.8067
▁fifteen	-10.8072
▁consistently	-10.8077
▁notion	-10.8078
▁badly	-10.8087
for	-10.8095
▁usually	-10.8104
▁inspection	-10.8105
▁cutting	-10.8107
▁seat	-10.8107
▁Syria	-10.8111
▁statistical	-10.8121
▁looks	-10.8121
▁offices	-10.8123
▁safeguards	-10.8124
W	-10.8127
▁argue	-10.8127
▁feature	-10.8132
▁criminals	-10.8133
we	-10.8134
▁Congo	-10.8135
▁assurance	-10.8141
▁adequately	-10.8142
▁scientists	-10.8143
▁acted	-10.8158
▁dream	-10.816
▁except	-10.8163
▁names	-10.8164
old	-10.8169
▁false	-10.8171
▁indication	-10.8178
▁book	-10.818
▁Brok	-10.818
▁prime	-10.8184
▁observations	-10.8185
▁explanations	-10.8186
5-	-10.8188
discrimination	-10.8189
▁OSCE	-10.8191
ants	-10.8196
▁consultations	-10.821
▁appointed	-10.8214
▁revolution	-10.8216
▁avoided	-10.8224
▁cope	-10.8233
▁Globalisation	-10.8235
▁punishment	-10.8236
▁game	-10.8242
▁substantially	-10.8242
▁essence	-10.8244
men	-10.8251
▁airport	-10.8261
▁clauses	-10.827
▁partnerships	-10.827
▁3.	-10.8278
▁Scotland	-10.8281
▁apparently	-10.8287
▁precautionary	-10.829
▁Switzerland	-10.8299
▁cr	-10.8299
▁emerged	-10.8303
▁wind	-10.8306
▁programming	-10.8308
▁conscience	-10.8317
%	-10.8322
▁Tibet	-10.8326
per	-10.8335
▁satellite	-10.8336
▁MEP	-10.8363
▁productivity	-10.8364
▁ch	-10.8365
▁class	-10.8375
▁silence	-10.8382
▁productive	-10.8387
▁straight	-10.8391
▁Whilst	-10.8391
▁1994	-10.8407
▁repression	-10.841
▁examining	-10.8412
ization	-10.8416
tra	-10.8425
▁Be	-10.8426
▁expert	-10.8428
▁Tampere	-10.8429
▁focusing	-10.8429
▁Stockholm	-10.8438
▁fought	-10.8438
▁features	-10.8441
▁consolidate	-10.8443
▁devoted	-10.8444
▁paragraphs	-10.8448
▁foot	-10.8449
▁borne	-10.845
▁Fischler	-10.8457
▁Naturally	-10.8457
▁lifelong	-10.8458
cu	-10.8461
▁tackled	-10.8463
▁distance	-10.8465
▁30%	-10.8467
▁initially	-10.8481
▁stick	-10.8483
▁explicitly	-10.8488
▁gross	-10.8489
▁democratically	-10.849
▁GMOs	-10.849
▁Annex	-10.8494
▁recommended	-10.8496
▁storage	-10.8504
▁reporting	-10.8513
▁vocational	-10.8513
friendly	-10.8514
▁virtually	-10.8515
▁personnel	-10.8517
ork	-10.8519
▁arrived	-10.852
▁completion	-10.8522
▁era	-10.8524
▁2006,	-10.8524
▁struck	-10.8532
medicinal	-10.8536
▁seekers	-10.8537
▁rigorous	-10.8546
▁Schulz	-10.856
min	-10.8561
▁leaves	-10.8564
▁adaptation	-10.8567
▁progressive	-10.8567
▁reserves	-10.8568
▁damaging	-10.857
▁irregularities	-10.857
▁flights	-10.857
▁80	-10.8572
▁pharmaceutical	-10.8579
▁everywhere	-10.858
▁planet	-10.8583
▁divide	-10.8586
ub	-10.8588
▁story	-10.8589
mb	-10.8589
▁orientation	-10.8598
over	-10.8602
▁inappropriate	-10.8603
▁attach	-10.8606
▁embargo	-10.8607
▁simplified	-10.8609
nt	-10.8611
▁heads	-10.8626
DA	-10.8627
▁harmonise	-10.8631
▁forestry	-10.8646
SK	-10.8649
▁sums	-10.8653
▁desired	-10.8654
▁soldiers	-10.8654
▁stimulate	-10.8679
▁Liberties	-10.8684
▁democratisation	-10.8684
hi	-10.8685
▁map	-10.8689
▁enables	-10.8693
▁autumn	-10.8693
▁cheap	-10.8695
▁exemption	-10.8695
▁accused	-10.8696
▁Latvia	-10.8696
▁investigate	-10.8698
▁innocent	-10.8703
▁criticise	-10.8708
▁minor	-10.8722
▁t	-10.8723
▁cycle	-10.8733
▁sections	-10.874
ical	-10.8741
▁middle	-10.8741
▁terror	-10.8749
▁inquiry	-10.8751
▁enshrined	-10.8752
▁volume	-10.8753
▁football	-10.876
▁ownership	-10.8761
▁v	-10.8764
▁ensured	-10.877
▁testing	-10.8776
▁fundamentally	-10.8785
▁complement	-10.8785
▁fulfilled	-10.879
▁exclusive	-10.8794
▁title	-10.8799
▁horizontal	-10.8799
▁laying	-10.88
▁component	-10.8801
▁exposed	-10.8811
ward	-10.8812
▁la	-10.8816
ak	-10.8822
▁hazardous	-10.8822
initiative	-10.8831
nd	-10.8832
▁adapted	-10.8834
gu	-10.8835
▁persecution	-10.8838
mi	-10.8854
▁Special	-10.8857
▁Would	-10.8857
▁removal	-10.8857
▁2007.	-10.8863
▁facility	-10.8867
▁sell	-10.8868
▁deny	-10.8869
▁repercussions	-10.8877
▁handling	-10.8882
▁attached	-10.8883
▁participants	-10.8886
▁enabled	-10.8888
ALE	-10.8899
so	-10.8899
▁disadvantaged	-10.89
▁sold	-10.8902
▁Mar	-10.8902
▁researchers	-10.8934
▁GUE	-10.8936
qu	-10.8938
▁strive	-10.8945
▁2007,	-10.8958
▁Galileo	-10.8965
▁pace	-10.8965
▁40%	-10.8966
▁fashion	-10.8975
▁attractive	-10.8984
▁USD	-10.8988
▁1992	-10.8995
▁wherever	-10.9004
▁Helsinki	-10.9004
▁shipping	-10.9005
▁cease	-10.901
▁delivered	-10.9013
di	-10.9014
▁parliamentarian	-10.9014
▁workplace	-10.9016
▁detriment	-10.9018
▁notes	-10.902
▁hunger	-10.9024
rate	-10.9025
▁2011	-10.9035
ure	-10.9037
▁presidential	-10.9044
▁80%	-10.9044
▁mental	-10.9045
▁meets	-10.9051
▁twice	-10.9054
▁fault	-10.9054
▁transferred	-10.9058
▁combine	-10.9059
▁rating	-10.9061
▁Lebanon	-10.9064
▁precedent	-10.9064
▁characterised	-10.9066
▁alarming	-10.907
▁logic	-10.9071
NGL	-10.9074
▁2008,	-10.9076
▁sole	-10.9079
▁2010,	-10.9079
▁narrow	-10.9094
fe	-10.9094
▁Mexico	-10.9096
▁inspections	-10.9107
▁mother	-10.9112
▁quick	-10.9116
▁2008.	-10.9128
▁openly	-10.9129
▁wholeheartedly	-10.9135
▁Car	-10.9145
▁differ	-10.9147
▁tape	-10.915
▁ideological	-10.9154
▁inequalities	-10.9154
▁floods	-10.9154
▁mine	-10.9156
▁deficits	-10.9157
▁initiated	-10.9158
▁won	-10.9158
placing	-10.9162
▁Me	-10.9169
▁warrant	-10.9169
▁Hamas	-10.9184
▁criticised	-10.9189
▁praise	-10.9189
▁islands	-10.9199
▁lists	-10.9203
use	-10.9204
▁race	-10.921
▁Ba	-10.9212
▁sports	-10.922
▁responses	-10.9221
ably	-10.923
▁Olympic	-10.9234
▁preparatory	-10.9244
▁obstacle	-10.925
▁linguistic	-10.9254
▁socially	-10.9257
▁patient	-10.926
▁draftsman	-10.9265
▁continuation	-10.9265
▁Everyone	-10.9275
tre	-10.9282
da	-10.9282
▁multiannual	-10.9285
ven	-10.9286
▁organizations	-10.9293
▁Dublin	-10.9295
▁sale	-10.9296
▁await	-10.9299
▁donors	-10.93
▁potentially	-10.93
▁assessing	-10.9302
▁Vienna	-10.9305
▁practically	-10.9306
iv	-10.9306
▁pressing	-10.9316
▁euros	-10.9317
▁accurate	-10.9321
▁composition	-10.9326
▁concessions	-10.9327
▁objections	-10.9329
employed	-10.933
▁civilians	-10.9332
▁missions	-10.9338
▁assured	-10.9339
▁fallen	-10.9339
▁originally	-10.9345
▁pillars	-10.9345
▁appalling	-10.9346
▁transposition	-10.9346
▁Day	-10.9348
▁Code	-10.9357
▁cod	-10.936
red	-10.9362
▁inevitably	-10.9366
▁Fourthly	-10.9368
▁generate	-10.9369
▁Verts	-10.9377
▁systematically	-10.9377
▁sex	-10.9378
▁foodstuffs	-10.9383
▁internationally	-10.9384
▁closing	-10.9387
▁routes	-10.9388
▁helps	-10.9391
▁ended	-10.9392
▁decade	-10.9394
▁70	-10.9402
▁demanded	-10.9404
▁publication	-10.9406
▁errors	-10.9408
▁western	-10.9411
▁Algeria	-10.9412
▁His	-10.9414
▁constraints	-10.9417
▁comparable	-10.9418
▁dependence	-10.942
ach	-10.942
▁telling	-10.9421
▁posts	-10.9424
▁incident	-10.9435
▁Federal	-10.9438
▁irrespective	-10.9438
▁intelligent	-10.9444
▁homes	-10.9447
▁announcement	-10.9454
▁modest	-10.9457
▁serves	-10.9461
▁biofuels	-10.9462
▁findings	-10.9463
▁adverse	-10.9475
▁saving	-10.9479
▁2013	-10.948
▁Mo	-10.9485
ions	-10.9488
▁Institute	-10.949
▁Guinea	-10.949
▁uphold	-10.9494
▁Black	-10.95
▁Saddam	-10.95
▁principal	-10.9506
▁thoroughly	-10.951
▁stating	-10.9511
▁remit	-10.9512
io	-10.9513
▁stricter	-10.9518
▁Law	-10.9522
▁audit	-10.9523
▁remained	-10.9523
ig	-10.9524
▁speculation	-10.9532
▁owe	-10.9534
▁producer	-10.9549
▁complied	-10.9552
va	-10.9553
▁stopped	-10.9554
▁Estonia	-10.9554
▁enterprise	-10.9561
▁bottom	-10.9563
▁disabilities	-10.9563
ction	-10.9564
▁Christians	-10.9567
ping	-10.9568
▁recorded	-10.9573
▁Resolution	-10.9573
▁assessed	-10.9582
▁automatically	-10.9584
▁consult	-10.9584
▁convey	-10.9587
▁refusal	-10.9594
▁abandon	-10.9606
▁broadly	-10.9607
▁Baroness	-10.9615
▁retirement	-10.9615
▁travelling	-10.9617
▁interference	-10.9618
▁authorised	-10.9618
▁constituency	-10.9626
▁deciding	-10.9626
▁Ra	-10.9626
ov	-10.9634
mer	-10.9638
▁Se	-10.9642
(1)	-10.965
qui	-10.9657
▁appreciation	-10.9657
▁2004.	-10.9663
▁deadlines	-10.9665
▁adjustment	-10.9667
▁lesson	-10.9667
▁comitology	-10.9668
pro	-10.9669
▁coordinating	-10.9679
▁tend	-10.9681
▁stem	-10.9682
▁subjected	-10.9685
ler	-10.9686
▁Timor	-10.9689
depth	-10.9696
▁abortion	-10.97
▁corporate	-10.9702
LT	-10.973
▁survival	-10.9731
▁grants	-10.9734
▁incidents	-10.9735
▁2006.	-10.9738
▁root	-10.9744
ton	-10.9745
▁monopoly	-10.9753
▁worried	-10.9753
▁wake	-10.9753
▁victory	-10.9753
▁references	-10.976
com	-10.976
▁realised	-10.9774
▁formally	-10.978
▁genocide	-10.9785
▁recycling	-10.9785
▁atmosphere	-10.9795
▁creative	-10.9795
▁relief	-10.9795
▁mis	-10.9798
▁relative	-10.9799
▁guilty	-10.9817
▁reminded	-10.9823
▁wished	-10.9824
▁tuna	-10.9827
▁protectionism	-10.9838
▁invitation	-10.9838
▁marks	-10.9842
▁obtaining	-10.9845
▁label	-10.9845
▁AIDS	-10.9848
▁delicate	-10.9849
▁pays	-10.985
▁di	-10.9854
▁symbol	-10.9854
▁camps	-10.9858
▁minds	-10.9861
▁Li	-10.9865
▁addresses	-10.9875
ite	-10.9878
▁beneficiaries	-10.9881
(	-10.9882
tro	-10.9886
▁analyse	-10.9888
▁imp	-10.9891
▁everyday	-10.9896
eg	-10.9901
▁unprecedented	-10.9903
▁topics	-10.991
▁strange	-10.9914
▁computer	-10.9914
side	-10.9918
))	-10.9921
▁remark	-10.9927
▁Federation	-10.9935
▁privatisation	-10.9935
▁indirect	-10.9938
fer	-10.9942
▁Presidents	-10.9943
les	-10.9954
▁wonderful	-10.9957
▁onto	-10.9962
▁topical	-10.9963
▁town	-10.997
▁rid	-10.9972
▁Slovenia	-10.9976
ie	-10.9977
▁withdrawn	-10.9983
ging	-10.9986
▁criticisms	-10.9996
▁remedy	-11.0001
▁unit	-11.0001
▁roll	-11.0008
▁vague	-11.0012
▁transfers	-11.0019
od	-11.002
▁isolation	-11.0022
▁scheduled	-11.0026
▁generous	-11.0028
▁trouble	-11.0029
▁facilitating	-11.0033
▁moratorium	-11.0033
▁2007-2013	-11.0034
▁presents	-11.0034
▁remarkable	-11.0034
▁offences	-11.0036
▁federal	-11.0049
▁banana	-11.0058
▁depth	-11.0059
▁bases	-11.0071
▁Asian	-11.0072
▁witnessed	-11.0072
▁U	-11.0073
▁combination	-11.0088
bi	-11.0089
uite	-11.0098
▁Democrat	-11.0098
▁avoiding	-11.01
COD	-11.01
▁workforce	-11.0101
▁born	-11.0105
▁drop	-11.011
▁clarified	-11.011
▁pragmatic	-11.0121
▁empty	-11.0121
▁stresses	-11.0124
▁Third	-11.0127
▁input	-11.0129
▁instability	-11.0132
▁neighbour	-11.0148
end	-11.0149
▁thirdly	-11.0153
▁Caucasus	-11.0155
▁diverse	-11.0155
▁zero	-11.0155
▁channels	-11.0156
▁enforce	-11.0159
▁recognising	-11.0166
▁dear	-11.0173
▁publish	-11.018
▁anywhere	-11.018
▁estimates	-11.0183
▁exclude	-11.0186
▁Should	-11.0188
▁contributes	-11.0189
▁reviewed	-11.0193
au	-11.0199
▁irresponsible	-11.0199
▁wise	-11.0204
▁condemnation	-11.0205
▁persuade	-11.0205
▁Kurdish	-11.021
▁contradiction	-11.0213
▁flag	-11.0215
▁passing	-11.0219
▁civilisation	-11.0219
▁heavily	-11.0221
▁abolish	-11.0224
▁articles	-11.0227
▁returned	-11.0235
▁arrested	-11.0235
▁disadvantage	-11.0242
▁posed	-11.0244
▁arises	-11.0246
▁investing	-11.025
▁demonstration	-11.0258
▁gases	-11.0265
▁arrangement	-11.0269
▁govern	-11.0279
▁integral	-11.0288
▁devote	-11.0294
▁reverse	-11.0295
▁disparities	-11.03
▁perform	-11.0302
▁reinforced	-11.0307
▁indispensable	-11.0311
▁phrase	-11.0311
ide	-11.0313
▁telephone	-11.0322
▁Through	-11.0333
▁resort	-11.0333
▁xenophobia	-11.0333
▁Eurostat	-11.0335
lic	-11.0336
▁Con	-11.0338
▁attempting	-11.0341
▁400	-11.0342
▁Congress	-11.0345
tor	-11.0346
▁emphasises	-11.0356
▁prerequisite	-11.036
ped	-11.0365
▁Frontex	-11.0367
▁Apart	-11.0369
▁2005.	-11.037
▁responding	-11.0386
▁differently	-11.0402
▁Hague	-11.0413
▁normally	-11.0416
▁genetic	-11.0424
▁towns	-11.0426
▁affair	-11.0428
▁rare	-11.0431
▁Arctic	-11.0435
▁livestock	-11.0436
▁dual	-11.0444
▁ultimate	-11.0444
▁patents	-11.0447
▁pesticides	-11.0452
▁governed	-11.0455
▁Blair	-11.0458
▁consists	-11.0463
▁abolished	-11.0466
▁registered	-11.0477
ru	-11.0478
▁radio	-11.0485
▁Among	-11.0485
▁served	-11.0488
state	-11.0492
▁shame	-11.0498
ice	-11.0498
▁cells	-11.0507
▁Directorate	-11.0507
▁illegally	-11.051
▁incomes	-11.0511
▁macro	-11.0515
pi	-11.0523
ize	-11.0527
▁sustained	-11.0532
tt	-11.0542
▁exert	-11.0542
pp	-11.0543
▁availability	-11.055
▁quantity	-11.055
▁describe	-11.0551
disproportionate	-11.0555
▁symbolic	-11.0556
▁w	-11.0561
▁HIV	-11.0562
▁indicates	-11.0564
▁emerge	-11.0566
▁expenses	-11.0571
▁assembly	-11.0573
▁recession	-11.0573
▁trends	-11.0581
▁removing	-11.0585
▁adding	-11.0587
▁Slovak	-11.0594
▁gratitude	-11.0596
▁whenever	-11.0616
▁monopolies	-11.0619
cur	-11.0624
▁donor	-11.0626
▁90	-11.0632
▁cl	-11.0632
▁problematic	-11.0633
▁Montenegro	-11.0633
▁footing	-11.0634
▁expand	-11.0635
▁Perspective	-11.0643
▁dairy	-11.0643
▁unlike	-11.065
▁Neighbourhood	-11.0654
▁inevitable	-11.0654
▁strikes	-11.0655
▁enjoyed	-11.0664
▁democracies	-11.0666
(2)	-11.0671
mp	-11.0672
▁maybe	-11.0673
ious	-11.0673
▁profound	-11.0684
▁survive	-11.0685
▁mo	-11.0688
▁remote	-11.07
▁Democracy	-11.0701
▁isolated	-11.0702
▁El	-11.071
ob	-11.071
15	-11.0711
▁Afghan	-11.0724
▁chair	-11.0727
▁solving	-11.0727
▁concepts	-11.0732
▁doors	-11.0734
oc	-11.0738
▁poorer	-11.0738
▁1%	-11.0742
▁believed	-11.0747
▁1993	-11.0748
sa	-11.0751
▁2012	-11.0751
▁lowest	-11.0752
▁Prize	-11.076
▁toxic	-11.0766
10	-11.0769
▁enthusiasm	-11.0771
ster	-11.0777
▁inequality	-11.0783
▁satisfy	-11.0784
▁warming	-11.0789
▁Against	-11.0796
ral	-11.0801
az	-11.0806
▁slaughter	-11.0811
▁wars	-11.0813
▁bill	-11.0814
▁translation	-11.0815
▁aspirations	-11.0817
▁publicly	-11.0819
▁Adjustment	-11.0819
▁transnational	-11.0819
▁pointing	-11.082
pol	-11.0827
und	-11.0831
▁interventions	-11.0832
▁location	-11.0834
▁bio	-11.0852
▁manufacturing	-11.0854
▁hide	-11.0854
ana	-11.0855
▁repair	-11.0866
▁match	-11.0868
▁smoking	-11.0871
▁32	-11.0873
▁energies	-11.0878
▁identification	-11.0878
▁securing	-11.0878
▁Until	-11.0878
▁Santer	-11.0878
▁focuses	-11.0882
ell	-11.0883
vis	-11.0886
▁steel	-11.089
▁Process	-11.089
▁broken	-11.0891
▁lend	-11.0891
▁CFSP	-11.0894
▁claimed	-11.0898
▁courageous	-11.0903
▁merit	-11.0903
▁purchase	-11.0906
gi	-11.0911
▁aiming	-11.0917
▁burdens	-11.0918
30	-11.0924
▁handled	-11.0934
▁relationships	-11.0936
▁Taiwan	-11.0938
▁caught	-11.0938
▁weaken	-11.0944
▁messages	-11.0948
▁disappointment	-11.095
▁limiting	-11.0953
▁appeared	-11.0958
▁doctors	-11.0958
▁petition	-11.0959
▁pick	-11.0967
von	-11.0969
▁advances	-11.0974
▁Neither	-11.0974
chi	-11.0978
▁Milosevic	-11.0986
ep	-11.0988
▁Martin	-11.099
▁definitive	-11.0993
▁45	-11.0998
▁threatening	-11.1
▁confirms	-11.1008
▁Frattini	-11.101
▁Nigeria	-11.1016
ick	-11.1022
▁earmarked	-11.1023
▁safer	-11.1029
▁swift	-11.1029
▁Freedoms	-11.1032
▁cooperative	-11.1034
▁requiring	-11.1034
▁audiovisual	-11.1034
▁Each	-11.1047
▁guide	-11.1054
▁multinationals	-11.1057
▁teachers	-11.1058
▁Kinnock	-11.1058
▁pose	-11.1063
▁player	-11.107
▁Goals	-11.1071
▁expressly	-11.1071
▁dedicated	-11.1072
▁wall	-11.1081
esterday	-11.1083
▁displaced	-11.1083
▁occupied	-11.1083
▁frankly	-11.1087
▁48	-11.1098
▁interpreted	-11.1102
▁tremendous	-11.1102
▁fleets	-11.1106
▁Conciliation	-11.1107
▁intelligence	-11.1107
▁philosophy	-11.1107
ranging	-11.1123
▁roots	-11.1125
▁4.	-11.1142
▁Hussein	-11.1144
▁elimination	-11.1144
▁judiciary	-11.1144
▁36	-11.1145
ations	-11.1149
▁emphasize	-11.1151
▁initiate	-11.1151
▁coast	-11.1152
▁overwhelming	-11.1153
dy	-11.1155
▁regulating	-11.116
▁split	-11.1168
CNS	-11.1168
▁Kong	-11.1168
▁recital	-11.1179
▁online	-11.1182
▁reproductive	-11.1182
wi	-11.1185
▁brutal	-11.1187
▁scandal	-11.1191
▁write	-11.1193
▁biological	-11.1193
5-03	-11.1193
▁reaffirm	-11.1197
▁Ka	-11.1209
▁update	-11.1209
▁concluding	-11.1217
▁delayed	-11.1224
▁tariff	-11.1228
▁Paris	-11.1229
▁indirectly	-11.1235
K	-11.1241
▁violated	-11.1245
▁censure	-11.1254
▁charter	-11.1256
▁1999.	-11.1265
▁sectoral	-11.1266
▁flight	-11.1266
▁eco	-11.1266
▁wave	-11.1266
▁Madrid	-11.1267
▁preferred	-11.1267
▁licences	-11.1276
▁suspension	-11.1279
accession	-11.1283
▁Na	-11.1285
▁exact	-11.1287
▁pipeline	-11.1291
▁postponed	-11.1296
▁art	-11.13
▁secondary	-11.13
▁Darfur	-11.1304
▁Peace	-11.1304
call	-11.1307
▁recognize	-11.1312
▁invested	-11.1314
▁Chancellor	-11.1316
▁convincing	-11.1316
▁conjunction	-11.1316
▁Hong	-11.1317
▁IMF	-11.1321
▁Monti	-11.1324
▁positively	-11.1328
▁faster	-11.1333
▁abandoned	-11.1338
cy	-11.1339
▁units	-11.134
▁Laeken	-11.1341
▁dioxide	-11.1341
▁feasible	-11.1341
▁driven	-11.1345
istic	-11.1349
▁interfere	-11.1354
▁electorate	-11.1354
▁exploited	-11.1365
▁integrating	-11.1366
▁2003.	-11.1369
▁pan	-11.137
▁Area	-11.1374
▁communicate	-11.1374
▁bold	-11.1379
05	-11.138
▁enforced	-11.1384
bu	-11.139
▁Cuban	-11.1392
ack	-11.1403
▁separation	-11.1416
▁pluralism	-11.1417
▁banning	-11.1418
▁uses	-11.1418
▁Ca	-11.1421
▁Swoboda	-11.1429
▁preference	-11.143
▁urged	-11.1431
▁encouragement	-11.1434
▁controlling	-11.1437
▁formula	-11.1437
des	-11.1439
▁belonging	-11.1439
▁2,	-11.1441
▁Danube	-11.1442
▁destination	-11.1442
▁Board	-11.1442
pr	-11.1449
▁SIS	-11.1449
▁coalition	-11.1454
▁stabilisation	-11.1456
▁simplifying	-11.1462
▁Colombia	-11.1463
tion	-11.1467
▁suspicion	-11.1467
▁promotes	-11.1469
ef	-11.1471
▁Canc	-11.1473
▁explicit	-11.1475
▁Rather	-11.148
▁platform	-11.148
misunderstanding	-11.1484
▁moves	-11.1491
▁veto	-11.1492
▁agents	-11.1493
▁unified	-11.1506
▁weaknesses	-11.1506
▁Ukrainian	-11.1506
▁2002.	-11.1513
▁generated	-11.1514
▁mobilisation	-11.1518
▁quantities	-11.1518
tu	-11.1524
ble	-11.1525
▁Indonesia	-11.1526
▁Climate	-11.153
▁university	-11.153
▁copyright	-11.1543
▁multinational	-11.1544
▁Mi	-11.1547
son	-11.155
drew	-11.1552
▁pity	-11.1552
▁37	-11.1556
▁understandable	-11.1557
▁l	-11.1565
▁Balkan	-11.157
▁reconsider	-11.1579
ier	-11.158
▁determining	-11.1581
▁Iceland	-11.1581
▁adjustments	-11.1583
▁supplement	-11.1588
▁n	-11.1588
▁components	-11.1591
▁o	-11.1594
if	-11.1595
▁kill	-11.1595
▁complaint	-11.1597
▁establishes	-11.1599
▁profile	-11.1601
▁spectrum	-11.1607
▁abstain	-11.1613
▁imbalances	-11.1615
▁escape	-11.1615
▁toys	-11.1616
▁shortage	-11.1626
▁faces	-11.1627
▁signals	-11.1632
▁Vietnam	-11.1634
▁airline	-11.1636
▁drinking	-11.1638
▁cofinancing	-11.1646
▁Thanks	-11.1647
ek	-11.165
▁earn	-11.165
▁disappear	-11.1651
/2003	-11.1653
▁quarter	-11.1655
▁organization	-11.166
▁zones	-11.167
▁Director	-11.167
▁33	-11.1673
▁foods	-11.1673
▁150	-11.1676
▁applaud	-11.1676
determination	-11.169
▁cloning	-11.1697
▁rescue	-11.1697
▁traceability	-11.1697
▁pensioners	-11.1701
las	-11.1703
dis	-11.1703
2005	-11.1706
▁prompt	-11.171
▁complexity	-11.1715
ja	-11.1715
▁backed	-11.172
▁threaten	-11.1724
▁Ar	-11.1725
▁OECD	-11.1726
▁Michel	-11.1736
▁enhancing	-11.1738
)).	-11.1739
▁demonstrations	-11.1745
▁Freedom	-11.1752
str	-11.1756
▁execution	-11.1765
▁professionals	-11.1771
▁rejecting	-11.1772
▁REACH	-11.1775
▁suppliers	-11.1778
▁administrations	-11.1781
▁painful	-11.1784
▁Barnier	-11.1788
▁specified	-11.1788
▁cattle	-11.1788
▁shoulder	-11.18
▁transmission	-11.1801
▁concentrated	-11.1801
ski	-11.1804
▁ad	-11.1808
▁prevail	-11.1811
▁Beijing	-11.1814
▁Washington	-11.1814
▁25%	-11.1815
▁runs	-11.1821
▁analyses	-11.1827
▁renewal	-11.1828
▁Equality	-11.1829
▁licence	-11.183
▁Forum	-11.1835
▁acquire	-11.1835
▁Communication	-11.184
▁breaches	-11.1843
▁DG	-11.1846
▁st	-11.185
▁3%	-11.1853
▁60%	-11.1854
▁Indian	-11.1861
▁Muslim	-11.1863
▁blow	-11.1867
▁continuous	-11.1875
▁salaries	-11.188
▁halt	-11.1887
▁holds	-11.189
▁implies	-11.1893
int	-11.1899
▁mines	-11.1899
▁Working	-11.19
▁reconcile	-11.1901
▁Poettering	-11.1906
▁fragile	-11.1906
▁entrepreneurs	-11.1909
▁journey	-11.191
▁seats	-11.1912
▁entails	-11.1914
▁adhere	-11.1914
▁Dr	-11.1915
▁mountain	-11.1917
▁substantive	-11.1919
▁preservation	-11.1919
▁defended	-11.1919
▁echo	-11.1919
▁Chair	-11.1924
▁disregard	-11.1926
▁Haiti	-11.1928
▁circulation	-11.1932
▁organising	-11.1933
▁selection	-11.1935
▁Political	-11.1946
ug	-11.1946
▁eligible	-11.1949
▁momentum	-11.1949
▁consolidated	-11.1952
▁Ko	-11.1958
▁apologise	-11.1959
▁located	-11.196
▁Sa	-11.1967
▁famous	-11.1972
▁encourages	-11.1973
▁deliberately	-11.1976
▁Ber	-11.1977
ator	-11.1978
▁ties	-11.198
▁detrimental	-11.198
▁compare	-11.1981
▁medicine	-11.199
▁east	-11.1995
▁bananas	-11.1997
ever	-11.1998
▁carriers	-11.1998
▁refrain	-11.1999
▁proactive	-11.1999
▁acquired	-11.2004
▁reactions	-11.2006
▁responded	-11.201
▁Certainly	-11.2015
ible	-11.2022
▁Anyone	-11.2026
▁Sch	-11.2029
▁autonomous	-11.2029
▁earthquake	-11.203
▁interpret	-11.2031
▁surplus	-11.2037
▁intolerable	-11.2039
▁advocates	-11.2045
▁tensions	-11.2045
▁Communities	-11.2052
▁Palacio	-11.2052
▁deplore	-11.2052
▁weekend	-11.2054
▁feels	-11.2055
▁engagement	-11.2055
▁owners	-11.2056
▁derogation	-11.2057
▁sadly	-11.206
▁reassure	-11.2061
▁earth	-11.2066
▁radioactive	-11.2066
▁fulfilling	-11.2067
ign	-11.2068
▁residents	-11.207
ck	-11.2073
▁postpone	-11.2073
▁entail	-11.2077
▁worker	-11.2085
▁definite	-11.2088
▁Ex	-11.2088
▁station	-11.2088
▁Gender	-11.2093
▁seas	-11.2094
▁Nordic	-11.21
▁knowing	-11.2101
▁bridge	-11.2104
▁Basque	-11.2106
▁eliminating	-11.2106
▁guidance	-11.2106
▁redundancies	-11.2106
▁margin	-11.2106
gen	-11.2117
ned	-11.2121
▁revealed	-11.2124
▁San	-11.2132
▁Bolkestein	-11.2133
▁Moscow	-11.2133
▁Paragraph	-11.2133
ber	-11.2134
▁prejudice	-11.2138
▁unite	-11.2142
▁accountable	-11.2142
sp	-11.2143
wa	-11.2157
▁manoeuvre	-11.216
▁Relations	-11.216
▁intense	-11.216
ran	-11.2161
▁girls	-11.2164
▁assumption	-11.2174
▁gets	-11.2174
▁arisen	-11.2179
▁confine	-11.2182
▁dare	-11.2185
▁College	-11.2187
▁infringements	-11.2191
▁deprived	-11.2192
▁swiftly	-11.2193
▁customers	-11.2193
▁existed	-11.2198
▁mobilise	-11.2198
▁demonstrating	-11.2201
▁Bulgarian	-11.2203
▁preserving	-11.2214
▁hoping	-11.2214
▁capacities	-11.2228
▁unsatisfactory	-11.2228
▁Islands	-11.2228
▁indications	-11.2232
▁wishing	-11.2235
▁definitions	-11.2236
▁derogations	-11.2236
▁learnt	-11.2237
▁macroeconomic	-11.2242
ugoslav	-11.2244
▁34	-11.2246
▁judges	-11.2247
▁bi	-11.2247
▁tabling	-11.2249
▁jeopardise	-11.2251
▁exemptions	-11.2253
▁career	-11.2255
▁harsh	-11.2255
▁Ecofin	-11.2255
▁ministerial	-11.2256
▁Regions	-11.2262
tal	-11.2262
▁officially	-11.2265
▁marking	-11.2267
▁Mugabe	-11.2269
▁approving	-11.2269
▁vigilant	-11.2269
▁optimistic	-11.2269
▁reforming	-11.2272
▁formulated	-11.2273
▁depending	-11.2274
6/	-11.2282
▁Round	-11.2283
▁counterfeiting	-11.2292
▁tariffs	-11.2298
▁suddenly	-11.2299
▁guard	-11.2302
▁smooth	-11.2305
▁prosecution	-11.231
▁misleading	-11.2313
▁delivery	-11.2317
▁venture	-11.2324
▁worthwhile	-11.2324
ay	-11.2327
▁grown	-11.2333
▁knew	-11.2338
▁Ho	-11.234
▁ho	-11.2341
▁noticed	-11.2346
▁surprising	-11.2346
lar	-11.2351
▁hypocrisy	-11.2351
▁God	-11.2353
▁meaningful	-11.2359
▁underlined	-11.2362
▁textiles	-11.2365
▁Ro	-11.2366
▁sensitivity	-11.2367
▁tension	-11.2374
▁listed	-11.2377
▁EP	-11.2379
▁redundant	-11.2379
▁nationality	-11.2383
▁neutral	-11.2384
▁Islam	-11.2385
▁proves	-11.239
▁transportation	-11.239
▁seemed	-11.2393
▁pursuit	-11.2393
▁issuing	-11.2393
▁prostitution	-11.2407
▁identifying	-11.2411
▁scenario	-11.2415
▁mix	-11.2415
▁settle	-11.2415
▁Christmas	-11.2421
▁catastrophe	-11.2421
▁undermining	-11.2421
known	-11.2429
▁ending	-11.2431
▁attended	-11.2433
▁Concerning	-11.2436
▁Albanian	-11.2448
▁continuity	-11.2448
▁propaganda	-11.2448
▁senior	-11.2448
▁5%	-11.2454
▁witness	-11.2455
▁Herzegovina	-11.2456
regulation	-11.2457
▁opponents	-11.2462
▁formed	-11.2464
4-00	-11.2465
ush	-11.2469
▁advocated	-11.2471
ries	-11.2472
▁Serbian	-11.2473
▁Tuesday	-11.2476
▁subsidy	-11.2479
▁teaching	-11.2482
▁insecurity	-11.2484
▁contradict	-11.249
▁diplomacy	-11.249
▁selling	-11.2493
▁inclusive	-11.2494
▁operates	-11.2499
ans	-11.2507
▁4,	-11.2509
▁handle	-11.2512
▁successes	-11.2512
▁merits	-11.2523
▁white	-11.2536
25	-11.2539
▁explanatory	-11.2547
▁injustice	-11.2547
oriented	-11.2547
▁disability	-11.2547
▁awaiting	-11.2548
▁distinguish	-11.2555
▁inspectors	-11.2561
▁newspaper	-11.257
▁thoughts	-11.2573
▁twelve	-11.2575
▁love	-11.2582
▁Natura	-11.2589
▁devastating	-11.2589
▁fruitful	-11.259
▁watch	-11.2598
▁distortions	-11.2598
▁objection	-11.2599
▁gaps	-11.2603
▁arbitrary	-11.2603
▁fishery	-11.2603
▁5.	-11.2603
▁Part	-11.261
▁compensate	-11.2612
ee	-11.2615
▁tendency	-11.2617
▁summary	-11.2617
▁alleged	-11.2626
▁disappointing	-11.2634
▁attract	-11.2635
▁Cotonou	-11.2646
▁Trans	-11.2646
av	-11.2648
ification	-11.265
▁frequent	-11.2655
▁Has	-11.2655
▁restriction	-11.2657
▁streets	-11.266
▁bears	-11.2665
▁minors	-11.2672
▁offence	-11.2672
▁allies	-11.2673
▁Southern	-11.2674
▁academic	-11.2674
▁moderate	-11.2675
▁Much	-11.2675
▁premature	-11.2688
▁ECHO	-11.2688
▁accepts	-11.27
▁Pa	-11.2702
▁sooner	-11.2702
▁mixed	-11.2711
▁expresses	-11.2711
productive	-11.2712
▁financially	-11.2721
▁socialist	-11.2721
▁reformed	-11.2722
▁supranational	-11.2726
port	-11.2728
▁protein	-11.2731
▁software	-11.2731
▁authors	-11.2739
▁killing	-11.274
▁theory	-11.2741
▁alliance	-11.2742
▁biotechnology	-11.2746
back	-11.2754
▁coins	-11.2754
▁condemning	-11.2755
▁blocked	-11.2759
▁Small	-11.276
▁robust	-11.276
▁olive	-11.276
▁reception	-11.276
▁bigger	-11.2761
▁constituents	-11.2766
uestions	-11.2772
ld	-11.2774
▁centuries	-11.2774
▁proportionality	-11.2775
▁officers	-11.2775
▁judgments	-11.278
right	-11.2781
▁domain	-11.2789
▁contradictory	-11.2789
▁caution	-11.2791
▁wholly	-11.2793
▁yield	-11.2795
▁weapon	-11.28
▁3,	-11.28
▁Articles	-11.2803
▁refusing	-11.2803
ev	-11.2816
▁indigenous	-11.2818
▁pull	-11.2824
▁partial	-11.2826
▁tolerate	-11.2827
everal	-11.2831
▁sentences	-11.2835
▁predict	-11.2838
▁se	-11.2843
▁eurozone	-11.2847
ib	-11.2851
▁adapting	-11.2851
ET	-11.2856
▁fill	-11.2857
▁classification	-11.2861
▁70%	-11.2862
▁complementary	-11.2862
▁recover	-11.2868
▁privileged	-11.287
▁ends	-11.2873
▁mutually	-11.2875
unt	-11.2875
▁packaging	-11.2876
being	-11.2885
▁permits	-11.289
▁automatic	-11.289
▁Surely	-11.289
▁virtue	-11.289
▁42	-11.2891
▁wanting	-11.2902
▁assert	-11.2904
▁structured	-11.2915
▁lawyers	-11.2916
▁scandalous	-11.292
▁transformation	-11.2922
lin	-11.2923
ki	-11.2934
▁38	-11.2944
Europe	-11.2944
▁undermined	-11.2945
▁Conservative	-11.2947
▁absent	-11.2949
▁rhetoric	-11.2953
▁judgement	-11.2955
▁eat	-11.2955
▁na	-11.2958
▁certification	-11.2963
▁Pro	-11.2964
▁bar	-11.2965
▁realities	-11.297
US	-11.2977
▁belongs	-11.2978
▁dates	-11.298
▁tested	-11.2981
▁imperialist	-11.2981
▁memory	-11.2993
▁finger	-11.2993
▁lengthy	-11.2997
▁Di	-11.3
▁slowly	-11.3006
▁Next	-11.3007
makers	-11.3016
▁cheaper	-11.3026
▁Seventh	-11.3037
▁decrease	-11.3047
▁deterioration	-11.3052
▁maternity	-11.3052
▁43	-11.3055
▁vitally	-11.3057
▁Accordingly	-11.3057
▁collected	-11.3058
▁clothing	-11.3066
▁alter	-11.3067
▁deregulation	-11.3068
▁III	-11.3071
sch	-11.3077
▁incompatible	-11.3079
▁evil	-11.3082
▁books	-11.3092
comprehensible	-11.3095
▁Sakharov	-11.3096
▁gesture	-11.3096
▁psychological	-11.3096
▁prohibition	-11.3099
▁Su	-11.3101
▁discovered	-11.3103
▁plus	-11.3103
▁immense	-11.3106
▁conditional	-11.311
▁capabilities	-11.3111
▁seriousness	-11.3116
▁newly	-11.312
▁Together	-11.3126
▁UEN	-11.3126
▁newspapers	-11.3131
operation	-11.3139
down	-11.3139
▁contamination	-11.3141
▁mercury	-11.3141
▁reunification	-11.3141
ient	-11.3144
pre	-11.3152
▁conventional	-11.3156
▁awarded	-11.3163
▁drought	-11.3171
▁recourse	-11.3171
sur	-11.3173
▁returning	-11.3173
▁flood	-11.3189
law	-11.319
▁transform	-11.3191
her	-11.3193
▁exempt	-11.3194
▁Un	-11.3209
▁Industrial	-11.3213
▁buying	-11.3215
▁Putin	-11.3216
▁impunity	-11.3216
▁reputation	-11.3216
▁warn	-11.3219
sion	-11.3226
standing	-11.3229
▁pain	-11.3233
aw	-11.3235
/2006	-11.3238
▁supporters	-11.3242
▁harmonization	-11.3246
▁continually	-11.3248
▁bid	-11.3248
▁switch	-11.325
▁expecting	-11.326
▁liberty	-11.3261
▁alert	-11.3262
▁throw	-11.3262
▁capitalist	-11.3265
uc	-11.3269
▁allocate	-11.3272
▁exceed	-11.3273
▁Jean	-11.3276
▁charged	-11.3288
▁unclear	-11.3292
▁attitudes	-11.3293
▁restricting	-11.3318
▁hearings	-11.3322
▁pending	-11.3323
▁tourist	-11.3324
▁organs	-11.3327
▁user	-11.3329
▁ensures	-11.3333
ndez	-11.3336
▁lift	-11.3337
▁CFP	-11.3337
▁appropriately	-11.3345
▁costly	-11.3347
▁voices	-11.3348
▁suspend	-11.3348
▁preferences	-11.3352
▁site	-11.3363
▁ideology	-11.3367
▁reinforcing	-11.3367
4-01	-11.3367
▁7.	-11.337
▁excessively	-11.3371
▁referendums	-11.3383
▁Mercosur	-11.3386
▁Aid	-11.3388
▁fairer	-11.3393
▁calm	-11.3393
▁Fortunately	-11.3398
▁ridiculous	-11.3398
▁silent	-11.3398
▁90%	-11.3399
▁decommissioning	-11.3401
▁schedule	-11.3409
▁drastic	-11.3413
▁Turning	-11.3413
▁liberties	-11.3413
▁outline	-11.3414
▁differing	-11.3416
▁frank	-11.3424
▁commerce	-11.3426
▁survey	-11.343
▁poses	-11.3432
▁Br	-11.3432
▁mentioning	-11.3436
▁departments	-11.3442
▁Azerbaijan	-11.3444
▁bomb	-11.3447
▁Erika	-11.3448
▁prisons	-11.3457
▁minimal	-11.346
▁qualitative	-11.346
▁launching	-11.3462
03	-11.3465
▁punished	-11.3466
▁Meanwhile	-11.3475
▁substitute	-11.3475
lez	-11.3476
▁severely	-11.3486
▁deliberations	-11.3487
▁weakness	-11.3491
▁cold	-11.3492
▁conceal	-11.3498
▁agreeing	-11.3498
▁disarmament	-11.3506
▁limitations	-11.3512
▁simpler	-11.3516
▁revise	-11.3517
how	-11.3517
▁hitherto	-11.3521
▁activists	-11.3522
▁Equal	-11.3531
▁formulate	-11.3533
▁petitions	-11.3541
tan	-11.3542
▁Cambodia	-11.3547
▁cooperating	-11.3553
▁prize	-11.3553
J	-11.3554
izing	-11.3554
▁hospital	-11.3555
▁geared	-11.3557
▁forecasts	-11.356
▁competitors	-11.3564
ship	-11.3566
▁excellence	-11.3568
▁exposure	-11.3568
3/	-11.3569
▁assent	-11.357
▁film	-11.3571
▁viewpoint	-11.3572
▁translated	-11.3573
▁1,	-11.358
▁Confedera	-11.3584
▁Posselt	-11.3584
▁dimensions	-11.3584
building	-11.3598
▁description	-11.3599
▁underlines	-11.3601
▁highlighting	-11.3602
▁Further	-11.3615
▁anybody	-11.3615
▁quantitative	-11.3615
▁murdered	-11.3616
▁inland	-11.3616
40	-11.3617
▁billions	-11.362
▁Sri	-11.3621
▁founding	-11.3622
▁countryside	-11.3625
▁breaking	-11.3626
▁Foundation	-11.3631
▁Gothenburg	-11.3631
▁promising	-11.3631
▁stood	-11.3631
▁argued	-11.3639
ast	-11.364
ip	-11.3643
▁Finance	-11.3646
▁2001.	-11.3648
ates	-11.3652
▁feelings	-11.3658
▁handed	-11.3659
▁sees	-11.3661
▁Go	-11.3672
▁Watson	-11.3678
▁harmonising	-11.3678
▁boundaries	-11.3678
▁Conservatives	-11.368
▁mothers	-11.368
▁tens	-11.3682
6%	-11.3683
▁modes	-11.3689
▁assumed	-11.3693
▁Three	-11.3694
▁Whether	-11.3694
▁abide	-11.3694
▁Norway	-11.3694
Maritime	-11.3695
har	-11.3697
▁pushing	-11.3705
▁Sahara	-11.3709
▁airspace	-11.3709
▁epidemic	-11.3709
▁tr	-11.3715
put	-11.3723
▁75	-11.3724
▁participated	-11.3733
date	-11.3738
▁finished	-11.3739
▁aggressive	-11.3741
▁incapable	-11.3741
▁recommends	-11.3749
11	-11.3751
ological	-11.3752
▁tight	-11.3754
▁debts	-11.3754
▁Vi	-11.3755
▁fell	-11.3757
▁Personally	-11.3757
▁Bo	-11.3758
▁allowances	-11.3767
▁profession	-11.3768
▁accord	-11.3769
▁manufacture	-11.377
▁guiding	-11.3773
▁broadcasting	-11.3781
▁judged	-11.3782
▁intent	-11.3785
ze	-11.3787
▁Far	-11.3791
▁papers	-11.3791
▁deemed	-11.3792
▁precondition	-11.3793
▁artificial	-11.38
▁Global	-11.3804
▁mentions	-11.381
▁settled	-11.381
▁overlook	-11.3815
▁viability	-11.3821
uring	-11.3823
rg	-11.3829
▁globalised	-11.383
▁welcoming	-11.3837
ang	-11.3837
▁100%	-11.3838
▁retained	-11.3842
▁subscribe	-11.3842
▁mainstreaming	-11.3842
▁disagreement	-11.3843
▁soft	-11.3844
▁instances	-11.3854
▁55	-11.3855
▁conducting	-11.3867
▁crossing	-11.3869
▁1989	-11.3869
vent	-11.3873
▁viewed	-11.3877
▁informing	-11.3879
▁accusations	-11.3883
▁scourge	-11.3885
▁entirety	-11.3888
▁profitable	-11.3888
▁persist	-11.389
▁totalitarian	-11.3901
3%	-11.3903
▁website	-11.3906
▁65	-11.391
▁speaks	-11.3912
▁anticipate	-11.3912
Russia	-11.392
den	-11.3927
▁professions	-11.3929
▁redress	-11.3933
▁Support	-11.3933
du	-11.3936
▁industrialised	-11.3937
▁organisms	-11.3938
▁advisory	-11.3947
▁Gulf	-11.3949
▁diversification	-11.3949
▁Good	-11.395
▁guardian	-11.3951
▁requesting	-11.3962
▁insisted	-11.3964
▁ingredients	-11.3965
▁Again	-11.3965
▁migratory	-11.3966
▁1991	-11.3966
bit	-11.3971
▁chose	-11.3979
▁injured	-11.3982
▁Jo	-11.3986
):	-11.3988
wn	-11.3994
▁suspect	-11.3996
▁touched	-11.3997
▁Johannesburg	-11.3998
▁dismantling	-11.3998
▁entities	-11.3998
▁Organization	-11.3998
▁Sixth	-11.3999
▁chapters	-11.3999
▁Sport	-11.4
▁attempted	-11.4001
▁ca	-11.4002
▁measured	-11.4004
▁guided	-11.4004
▁emphasising	-11.4009
▁Gu	-11.401
▁Monitoring	-11.4014
▁fossil	-11.4014
▁likewise	-11.4014
▁destroying	-11.4021
▁receives	-11.4026
▁imbalance	-11.4028
▁rigid	-11.403
▁distortion	-11.4038
▁formation	-11.4039
▁confront	-11.404
▁additives	-11.4043
▁nice	-11.4049
month	-11.405
board	-11.4051
▁separately	-11.4054
ina	-11.4058
▁ruled	-11.4058
▁excise	-11.4063
za	-11.4065
▁employ	-11.4066
▁conscious	-11.4068
▁mistaken	-11.4071
▁bus	-11.4076
96	-11.4077
▁cautious	-11.4078
▁Media	-11.408
▁secretariat	-11.4081
▁vaccination	-11.4083
▁technically	-11.4083
pproval	-11.4096
▁Network	-11.4096
▁wrote	-11.4096
▁sheep	-11.4098
▁worry	-11.4101
▁ineffective	-11.4101
▁discover	-11.4102
▁laundering	-11.4103
▁prohibited	-11.4103
▁ease	-11.4113
▁pride	-11.4113
▁relevance	-11.4113
▁departure	-11.4113
▁waiver	-11.4119
▁missed	-11.4119
▁austerity	-11.4129
▁striking	-11.4129
▁contents	-11.4134
▁spreading	-11.4134
▁correspond	-11.4141
▁protests	-11.4147
▁organized	-11.4147
▁techniques	-11.4153
▁database	-11.4153
▁discriminatory	-11.4154
▁600	-11.4155
▁sentenced	-11.4155
▁translate	-11.4158
▁Innovation	-11.4162
▁extradition	-11.4162
▁uncertain	-11.4178
▁supplied	-11.4179
▁precedence	-11.4179
▁hatred	-11.4179
▁Pack	-11.418
war	-11.418
▁counterfeit	-11.4184
▁advise	-11.4189
▁95	-11.419
▁asset	-11.4193
▁Corbett	-11.4195
▁Korean	-11.4201
▁plain	-11.4207
▁independently	-11.4207
par	-11.421
▁precarious	-11.4212
▁trialogue	-11.4212
▁award	-11.4215
▁Euratom	-11.4216
▁appreciated	-11.4217
ves	-11.4223
interoperability	-11.4223
▁delivering	-11.4224
▁duration	-11.4229
▁neo	-11.4229
▁im	-11.4229
▁vary	-11.4235
▁threatens	-11.4242
▁opposing	-11.4245
▁altogether	-11.4245
ual	-11.4248
/1999	-11.4258
▁6.	-11.426
▁identical	-11.4262
▁pornography	-11.4262
▁transposed	-11.4265
▁admitted	-11.4274
▁Jerusalem	-11.4279
national	-11.4282
▁attaches	-11.4282
▁sends	-11.4284
▁ILO	-11.4286
▁champion	-11.4295
▁exemplary	-11.4295
▁Eurojust	-11.4296
▁panel	-11.4296
▁somewhere	-11.43
9%	-11.4304
▁deepening	-11.4305
▁display	-11.431
▁Jarzembowski	-11.4312
▁unrealistic	-11.4312
▁conferences	-11.4313
ger	-11.4317
▁5,	-11.4324
che	-11.4328
▁thrust	-11.4329
▁Reding	-11.4338
▁Change	-11.4346
▁veterinary	-11.4346
▁Lu	-11.4346
▁replacing	-11.4349
▁perpetrators	-11.4357
▁super	-11.4365
▁globally	-11.4368
▁communist	-11.4374
▁forth	-11.4385
▁finds	-11.4387
▁theme	-11.4396
▁Initiative	-11.4396
▁master	-11.4396
▁annex	-11.4404
▁Lom	-11.4405
gar	-11.4407
▁typical	-11.4409
▁England	-11.4413
▁applause	-11.4413
▁15%	-11.4416
▁partially	-11.4419
▁taxpayer	-11.4423
▁lifting	-11.4426
▁Taliban	-11.443
▁impressive	-11.4431
emen	-11.4431
▁anyway	-11.4432
▁anticipated	-11.4435
▁lobby	-11.4436
▁screening	-11.4437
▁confronted	-11.4439
▁adjust	-11.4445
▁reciprocity	-11.4447
▁harassment	-11.4448
4-02	-11.4448
▁replacement	-11.4451
4/	-11.4452
▁outbreak	-11.4459
▁hinder	-11.4462
▁paramount	-11.4464
▁EGF	-11.4468
ey	-11.4468
ah	-11.4469
▁h	-11.447
gue	-11.4476
▁attain	-11.4477
▁prominent	-11.4482
▁Caribbean	-11.4483
▁strongest	-11.4492
▁resume	-11.4494
▁legislate	-11.4499
▁Pre	-11.4501
▁collect	-11.4504
▁al	-11.4507
▁Somalia	-11.4512
▁Customs	-11.4516
og	-11.4517
▁blue	-11.452
act	-11.4532
ny	-11.4546
▁letters	-11.455
▁mostly	-11.455
▁dependency	-11.455
▁cash	-11.4551
▁thinks	-11.4554
east	-11.4564
▁asks	-11.4566
▁visits	-11.4567
▁phenomena	-11.4567
▁preferential	-11.4567
▁unresolved	-11.4567
▁shameful	-11.4567
4%	-11.4574
▁wood	-11.4575
▁announce	-11.4577
▁modernise	-11.4582
▁reactors	-11.4583
▁plenty	-11.4585
▁repressive	-11.4585
▁organ	-11.4586
▁notification	-11.4586
▁privilege	-11.4591
▁deeper	-11.4593
▁racist	-11.4602
▁dark	-11.4602
▁perception	-11.4602
▁proliferation	-11.4603
work	-11.4604
▁Have	-11.4604
▁Da	-11.4607
▁EDF	-11.4619
▁stone	-11.462
▁installations	-11.462
▁equipped	-11.4624
▁disappeared	-11.463
han	-11.4631
▁secured	-11.4631
▁adult	-11.4631
mit	-11.4634
▁signatures	-11.4635
▁deployment	-11.4637
ory	-11.4641
▁confined	-11.4642
▁investigated	-11.4645
▁Anti	-11.465
▁44	-11.4651
▁dominant	-11.4654
▁exercising	-11.4671
▁internally	-11.4672
▁rape	-11.4684
▁luck	-11.4686
ified	-11.4688
rit	-11.4688
▁confused	-11.4692
▁Wallst	-11.4692
namo	-11.4701
▁spare	-11.4701
▁witnessing	-11.4703
ko	-11.4705
▁safeguarded	-11.4711
▁promptly	-11.4713
▁disadvantages	-11.4719
▁colonial	-11.472
▁Israelis	-11.4721
▁shut	-11.4723
▁expanding	-11.4723
▁permission	-11.4724
long	-11.4731
ition	-11.4735
▁speedy	-11.4735
nic	-11.4736
▁mining	-11.4741
▁Ferrero	-11.4741
ng	-11.4749
▁blocking	-11.4749
▁produces	-11.4752
▁teams	-11.4767
aries	-11.4771
▁250	-11.4773
▁Environmental	-11.4775
▁Jos	-11.4782
▁owing	-11.4794
▁standardisation	-11.4798
▁envisage	-11.4802
▁inability	-11.4808
▁Nobody	-11.4811
▁navigation	-11.4812
▁pushed	-11.4814
▁duly	-11.4815
class	-11.4819
▁facto	-11.4824
▁deficiencies	-11.4829
▁Water	-11.4829
▁stipulates	-11.483
▁specialist	-11.4837
▁ratio	-11.4838
▁records	-11.4843
▁processed	-11.4844
▁emphatically	-11.4847
▁Gr	-11.4854
▁successive	-11.4856
▁distort	-11.4862
▁salary	-11.4865
▁persistent	-11.4865
▁lived	-11.4866
▁upheld	-11.4867
▁cultivation	-11.4882
▁restoring	-11.4882
▁1980	-11.4883
99	-11.4883
▁tone	-11.4885
▁affordable	-11.4885
▁motivated	-11.4887
▁frontiers	-11.489
▁exercised	-11.4896
▁gaining	-11.4898
▁surface	-11.49
5-04	-11.4901
▁deliberate	-11.4913
▁Guant	-11.4918
▁optimism	-11.4919
cal	-11.4927
ria	-11.4934
▁arrival	-11.4936
▁presidencies	-11.4936
▁Japanese	-11.4936
▁coexistence	-11.4936
▁decentralised	-11.4937
▁eliminated	-11.495
▁sanction	-11.495
▁inherent	-11.4952
Waldner	-11.4954
▁insofar	-11.4954
▁afterwards	-11.4954
▁unification	-11.4955
▁Slovenian	-11.4959
ue	-11.4963
▁fairness	-11.4964
uff	-11.497
ham	-11.497
▁cruel	-11.4971
▁creativity	-11.4972
▁142)	-11.4972
▁alive	-11.4977
▁2%	-11.498
▁exceeded	-11.4981
2/	-11.4984
▁restored	-11.4986
▁complying	-11.4988
▁recruitment	-11.499
▁spot	-11.4991
▁peripheral	-11.5002
▁hoc	-11.5002
▁fo	-11.5004
▁purchasing	-11.5008
▁pressures	-11.501
▁Per	-11.501
▁divisions	-11.5014
▁trials	-11.5016
▁lacks	-11.5017
7%	-11.5017
▁encounter	-11.5018
▁exceptionally	-11.5023
▁incorporating	-11.5026
▁thirty	-11.5026
▁virus	-11.5026
▁oppression	-11.5026
▁music	-11.5026
▁submitting	-11.5027
▁managers	-11.5028
liberal	-11.5034
▁cure	-11.5038
▁vessel	-11.5041
▁Vitorino	-11.5044
▁radiation	-11.5044
▁splendid	-11.5044
▁assurances	-11.5049
▁Armenia	-11.5051
ire	-11.5053
lor	-11.5055
▁wasted	-11.5059
▁rigour	-11.5062
▁elite	-11.5062
ju	-11.5064
/2000	-11.5068
▁occurs	-11.5071
▁parameters	-11.5074
▁alarm	-11.5079
▁regain	-11.508
▁breast	-11.508
▁prosperous	-11.508
▁proportionate	-11.5081
▁suggesting	-11.5081
▁commission	-11.5087
▁Chernobyl	-11.5098
▁verify	-11.5098
▁adjourned	-11.5099
▁Chad	-11.51
▁assisting	-11.5101
▁protectionist	-11.5106
▁barrier	-11.5114
▁hypocritical	-11.5116
▁wisdom	-11.5116
▁entity	-11.5116
▁Pi	-11.5117
▁Very	-11.5117
▁weaker	-11.5124
▁benefited	-11.5133
▁Nuclear	-11.5134
▁prosecutor	-11.5134
▁boats	-11.5135
nce	-11.5135
▁incidentally	-11.5135
▁updated	-11.5141
▁endeavours	-11.5141
▁channel	-11.515
▁appoint	-11.5151
▁utterly	-11.5156
looking	-11.5158
▁acute	-11.5166
SA	-11.517
▁Fa	-11.5172
minded	-11.5172
▁simultaneously	-11.5173
▁obligatory	-11.5173
▁inspired	-11.5174
made	-11.5177
fully	-11.5179
entrepreneurship	-11.5184
▁suicide	-11.5189
▁chances	-11.519
▁benefiting	-11.5192
ff	-11.5203
▁Besides	-11.5208
▁accompanying	-11.5208
▁thrown	-11.521
▁journalist	-11.5214
RE	-11.5216
▁innovations	-11.5221
▁circle	-11.5224
▁opens	-11.5227
ari	-11.524
▁resist	-11.5243
▁overcoming	-11.5244
▁gains	-11.5245
hy	-11.5247
▁Erasmus	-11.5248
▁confrontation	-11.5249
8%	-11.5249
▁sporting	-11.5251
uartet	-11.5252
▁servants	-11.5261
▁Berlusconi	-11.5263
▁Sarkozy	-11.5263
▁emergence	-11.5263
▁classes	-11.5267
▁alike	-11.5271
▁excess	-11.5279
▁incredibly	-11.5281
▁shipbuilding	-11.5282
▁Socrates	-11.5282
▁ASEAN	-11.5285
▁linking	-11.5287
ties	-11.5287
▁COM	-11.5299
▁anxious	-11.53
Bendit	-11.53
▁MEDA	-11.53
▁pave	-11.5301
▁mouth	-11.5307
▁incorrect	-11.5313
▁Cohn	-11.5318
▁curb	-11.5318
▁Nothing	-11.5318
▁command	-11.5318
▁multiple	-11.5319
▁complain	-11.5322
▁settlements	-11.5324
▁Inter	-11.5324
▁evaluating	-11.5337
▁evolution	-11.5337
▁Up	-11.5345
▁Belarusian	-11.5347
▁39	-11.5349
▁store	-11.5351
▁Pacific	-11.5356
▁machinery	-11.5356
▁passive	-11.5359
▁affirm	-11.5363
rt	-11.5363
rat	-11.5369
▁Roth	-11.5372
▁copy	-11.5374
▁piracy	-11.5374
cha	-11.538
▁Games	-11.5393
▁crop	-11.5394
▁imprisoned	-11.5394
▁intensify	-11.54
▁river	-11.5404
▁behave	-11.5407
▁poultry	-11.5412
▁1998.	-11.5413
▁dollar	-11.5417
ple	-11.5423
▁retail	-11.5429
▁street	-11.543
▁ignoring	-11.543
▁PNR	-11.5436
▁introduces	-11.5443
gram	-11.5444
▁Lukashenko	-11.5449
▁cornerstone	-11.5449
▁brain	-11.5449
▁relocation	-11.545
▁damaged	-11.5451
▁denounce	-11.5463
▁par	-11.5465
▁pricing	-11.5468
▁Tibetan	-11.547
▁Ta	-11.5472
50	-11.5479
▁John	-11.5485
▁Lehne	-11.5487
▁politician	-11.5487
▁pure	-11.5504
▁evaluated	-11.5516
▁Progress	-11.5524
▁individually	-11.5526
▁recognized	-11.5532
▁Mann	-11.5533
▁unlikely	-11.5533
ade	-11.5534
▁sharp	-11.5539
▁houses	-11.5542
▁hidden	-11.5544
▁smart	-11.5544
▁alleviate	-11.5544
▁Workers	-11.5545
▁Fi	-11.5552
▁arm	-11.5552
▁margins	-11.5555
gent	-11.5557
▁challenging	-11.5563
▁uranium	-11.5563
06	-11.5567
▁120	-11.5568
▁selected	-11.5571
▁bans	-11.5576
▁straightforward	-11.5582
▁admission	-11.5582
▁vis	-11.5582
▁groundwater	-11.5582
▁dramatically	-11.5583
▁scene	-11.5583
▁goodwill	-11.5584
▁kilometres	-11.5585
▁ethics	-11.5587
ik	-11.5589
▁allegations	-11.5595
▁restoration	-11.5601
▁fees	-11.5602
▁signature	-11.5602
▁consulting	-11.5603
▁cards	-11.5617
▁Chile	-11.5618
tur	-11.5619
▁Enlargement	-11.562
▁League	-11.562
▁consolidating	-11.562
▁compliment	-11.5621
▁risen	-11.5622
▁neglected	-11.5627
▁humane	-11.5631
cent	-11.5636
▁beautiful	-11.5639
▁gambling	-11.5639
▁unjustified	-11.5639
▁grass	-11.5642
▁vigorously	-11.5643
▁fines	-11.5651
▁Australia	-11.5652
▁seize	-11.5655
▁Unless	-11.5659
▁deposit	-11.566
▁devices	-11.5663
▁workable	-11.567
▁gr	-11.5671
▁render	-11.5671
▁loud	-11.5673
▁sustain	-11.5676
▁selective	-11.5678
▁score	-11.5678
▁dying	-11.5678
▁permanently	-11.5687
▁flying	-11.5688
tar	-11.5691
▁Annual	-11.5697
▁forefront	-11.5697
▁brave	-11.5697
▁perceived	-11.5699
▁stipulated	-11.5701
▁applicants	-11.5708
▁celebrate	-11.5711
▁reiterated	-11.5714
▁advocating	-11.5716
▁completing	-11.5716
▁hygiene	-11.5716
▁Sometimes	-11.5716
2%	-11.5716
▁fundamentalism	-11.572
▁CE	-11.5722
▁observer	-11.5723
▁disturbing	-11.5724
que	-11.5725
ration	-11.5727
▁acknowledges	-11.5729
▁Burmese	-11.5735
▁frustration	-11.5735
▁striving	-11.5735
▁Lamy	-11.5736
▁th	-11.5743
▁Cypriot	-11.5743
log	-11.5747
▁nationalism	-11.5747
▁vegetables	-11.5752
▁rehabilitation	-11.5755
▁Costa	-11.5755
▁camp	-11.5759
ris	-11.5759
ments	-11.5761
▁dominated	-11.5762
▁specify	-11.5763
▁democrats	-11.5764
terrorism	-11.5767
▁strengthens	-11.5768
2008	-11.577
art	-11.577
▁accommodate	-11.5774
▁disappearance	-11.5775
▁overview	-11.5776
hand	-11.5776
▁marginal	-11.5781
▁occupational	-11.5784
▁decides	-11.5785
▁distinct	-11.5791
▁prohibit	-11.5793
▁Oomen	-11.5794
▁horse	-11.5794
▁millennium	-11.5794
▁timber	-11.5794
▁maintains	-11.5794
▁forgetting	-11.5797
▁punish	-11.581
▁summits	-11.5811
mouth	-11.5812
▁currencies	-11.5813
▁smuggling	-11.5813
▁abolishing	-11.5814
▁detained	-11.5815
▁Te	-11.5823
▁lifted	-11.5823
▁checked	-11.5825
lat	-11.5825
carbon	-11.5826
active	-11.5828
▁saved	-11.5829
▁occurring	-11.5833
▁Tak	-11.5834
▁br	-11.5841
▁Angola	-11.5847
▁imprisonment	-11.5852
▁vegetable	-11.5855
▁7,	-11.5857
▁catches	-11.5857
▁Section	-11.5857
▁defeat	-11.5864
▁counting	-11.5868
▁dictator	-11.5875
▁centralised	-11.5877
▁suspected	-11.5881
▁insult	-11.5882
sen	-11.5882
EN	-11.5882
▁Work	-11.5883
▁Scientific	-11.5892
rm	-11.5894
▁reasonably	-11.5897
▁page	-11.5897
▁trained	-11.5901
rum	-11.5911
▁slavery	-11.5912
▁codes	-11.5912
▁concerted	-11.5913
▁coverage	-11.5914
▁46	-11.5914
▁confirmation	-11.5916
load	-11.5917
lan	-11.5918
▁miss	-11.5921
(3)	-11.5922
▁prevents	-11.5928
▁Rehn	-11.5931
▁competing	-11.5931
▁embrace	-11.5931
▁timing	-11.5931
▁conversion	-11.5931
▁fa	-11.5939
▁smoke	-11.5942
2009	-11.5946
▁cap	-11.5947
▁weather	-11.5951
▁spell	-11.5951
▁vice	-11.5951
▁fortunately	-11.5954
▁adults	-11.5957
point	-11.5958
▁sun	-11.5958
▁analysed	-11.5959
▁Pe	-11.596
▁accelerate	-11.5966
ening	-11.5968
▁backwards	-11.5968
▁Crespo	-11.5971
▁aquaculture	-11.5971
▁breakthrough	-11.5971
/2004	-11.5974
▁holiday	-11.5975
sl	-11.5975
▁seal	-11.5976
▁transported	-11.5977
▁coup	-11.5977
▁49	-11.5987
▁draws	-11.5988
▁ELDR	-11.599
▁visibility	-11.599
▁eve	-11.6008
▁Instrument	-11.601
▁landscape	-11.601
▁deadlock	-11.601
▁lawyer	-11.6015
ya	-11.6017
rac	-11.6024
▁approaching	-11.6025
ps	-11.6025
▁treating	-11.6025
▁hot	-11.6027
▁700	-11.6028
▁Cor	-11.603
▁undermines	-11.6045
▁contempt	-11.605
▁gallery	-11.605
▁roadmap	-11.605
▁window	-11.6051
▁TV	-11.6051
▁conservative	-11.6053
▁Muslims	-11.6065
Ruijten	-11.607
▁Harbour	-11.607
▁Spring	-11.607
▁legislators	-11.6076
▁poorly	-11.6079
sided	-11.6079
▁claiming	-11.608
▁Agreements	-11.6084
▁conform	-11.6089
▁assuming	-11.609
▁retention	-11.609
▁postponement	-11.6092
▁corrected	-11.6095
▁GM	-11.6097
sk	-11.6099
▁k	-11.6099
▁shocking	-11.61
DEM	-11.6103
▁47	-11.6104
speed	-11.6105
▁communautaire	-11.611
▁unequal	-11.611
▁internet	-11.6111
▁attacked	-11.6114
▁stepping	-11.6115
▁repeating	-11.6116
▁800	-11.6118
ys	-11.612
ult	-11.6128
▁Swiss	-11.613
▁incurred	-11.613
▁liable	-11.613
▁neoliberal	-11.613
▁Mu	-11.6133
▁contractual	-11.6138
gg	-11.6143
▁weakened	-11.6144
▁unambiguous	-11.6146
▁replied	-11.6151
▁studied	-11.6151
▁Regulations	-11.6151
win	-11.6153
▁Right	-11.6157
▁deployed	-11.6157
▁41	-11.6161
▁Her	-11.6162
▁underway	-11.6164
▁havens	-11.6165
▁contradictions	-11.6166
▁Russians	-11.6169
▁Agricultural	-11.6171
▁pointless	-11.6175
developed	-11.618
▁exporting	-11.6187
▁imposition	-11.6191
▁Accession	-11.6196
ok	-11.6199
▁capitalism	-11.62
ric	-11.6205
▁flags	-11.6206
▁explaining	-11.6207
ile	-11.6209
▁Administration	-11.6211
▁Executive	-11.6211
▁Liikanen	-11.6211
▁replies	-11.6211
▁taught	-11.6211
▁drain	-11.6211
▁validity	-11.6214
We	-11.6224
▁begins	-11.6232
▁stimulating	-11.6232
▁tender	-11.6234
▁harder	-11.6239
▁illustrates	-11.6241
▁obstruct	-11.6246
▁ruin	-11.6248
▁chocolate	-11.6252
▁dubious	-11.6252
▁extremism	-11.6252
▁lorries	-11.6252
▁Men	-11.6253
▁provisional	-11.6254
▁encountered	-11.6261
08	-11.6263
▁minimise	-11.6266
▁eradicate	-11.6268
▁underestimate	-11.6268
▁radically	-11.6268
nder	-11.627
99)	-11.6271
▁Professor	-11.6272
▁diagnosis	-11.6272
▁proving	-11.6272
▁Barrot	-11.6293
▁Madeira	-11.6293
▁Mauritania	-11.6293
▁Ministry	-11.6293
▁Opportunities	-11.6293
▁shareholders	-11.6295
▁IND	-11.6296
▁derive	-11.63
▁driver	-11.6304
▁Ethiopia	-11.6307
▁corrupt	-11.6313
▁wild	-11.6313
▁aggression	-11.6313
▁chaos	-11.6313
▁tune	-11.6313
▁derived	-11.6321
7/	-11.6326
▁Sunday	-11.6334
▁analysing	-11.6334
▁incredible	-11.6334
▁antibiotics	-11.6335
▁formulation	-11.6336
▁Non	-11.6336
tat	-11.6343
▁enormously	-11.6354
▁Scottish	-11.6354
▁lobbyists	-11.6355
▁carries	-11.6355
▁Independent	-11.636
▁legality	-11.6362
▁Dis	-11.6364
▁expanded	-11.6368
▁stabilise	-11.637
▁doctor	-11.6373
▁geopolitical	-11.6375
▁farmer	-11.6376
▁accessibility	-11.6377
▁violate	-11.6378
▁modification	-11.6382
▁Lanka	-11.6391
▁artists	-11.6391
▁phasing	-11.6396
▁male	-11.6396
▁diet	-11.6396
▁scarcely	-11.6398
▁convictions	-11.64
▁reward	-11.6401
97	-11.6403
ene	-11.6404
▁federalist	-11.6406
▁deepen	-11.6407
▁prevailing	-11.6414
▁coincide	-11.6416
▁imminent	-11.6416
▁urging	-11.6416
▁readmission	-11.6417
▁unknown	-11.6418
big	-11.6418
▁occupying	-11.6424
▁coordinator	-11.6424
▁unilaterally	-11.6428
▁executions	-11.6433
▁allowance	-11.6435
▁cereals	-11.6437
▁distant	-11.6437
▁Air	-11.6437
▁illness	-11.6438
▁undemocratic	-11.6438
▁assistants	-11.6439
▁barely	-11.6439
▁calculated	-11.6439
▁flu	-11.6445
IS	-11.6449
▁preserved	-11.6453
minute	-11.6454
▁quoted	-11.6456
1%	-11.646
establish	-11.6466
▁quo	-11.6474
▁Sharon	-11.6479
▁intolerance	-11.6479
▁reliability	-11.6479
▁architecture	-11.6479
▁Ha	-11.6483
▁coin	-11.6483
▁mergers	-11.6484
▁Bay	-11.6485
▁expects	-11.6486
▁equity	-11.65
▁legislature	-11.65
▁Gonz	-11.65
▁Si	-11.65
▁Whatever	-11.6505
▁blocks	-11.6507
▁voiced	-11.6511
▁ascertain	-11.6521
▁Sadly	-11.6521
▁sick	-11.6527
▁clarifying	-11.6536
car	-11.654
▁gather	-11.6543
▁tries	-11.6544
▁Consumers	-11.6552
are	-11.6557
▁rejects	-11.6562
▁compatibility	-11.6563
2002	-11.6564
▁estimate	-11.6567
▁2011.	-11.657
▁Everything	-11.6576
▁fatal	-11.6579
▁bloc	-11.6583
▁Which	-11.6584
▁eradication	-11.6584
▁tunnel	-11.6593
▁Mart	-11.6595
ology	-11.6595
▁serving	-11.6599
▁ecosystems	-11.6599
▁secrecy	-11.6605
▁sceptical	-11.6605
▁Serbs	-11.6611
▁insisting	-11.6621
▁underpin	-11.6625
▁supportive	-11.6626
▁Catholic	-11.6626
▁temptation	-11.6626
ied	-11.6626
▁committing	-11.6627
▁peacekeeping	-11.6628
party	-11.6635
▁crew	-11.6636
▁passport	-11.6636
▁Ad	-11.6638
▁questionable	-11.6642
4-03	-11.6647
▁eligibility	-11.6647
gra	-11.6649
▁persecuted	-11.665
▁electrical	-11.6656
▁exported	-11.666
▁sixth	-11.666
▁unusual	-11.6663
▁fabric	-11.6668
▁patience	-11.6668
▁pretty	-11.6668
▁walk	-11.6668
▁trip	-11.667
▁stressing	-11.6672
▁GSP	-11.6674
▁submission	-11.6677
▁delete	-11.6685
▁commodity	-11.669
▁mankind	-11.669
▁readiness	-11.669
▁Malmst	-11.669
▁interaction	-11.669
sighted	-11.6693
▁denying	-11.6693
▁2020.	-11.6703
▁reserved	-11.6704
▁flooding	-11.6706
▁2013.	-11.6711
▁Robert	-11.6711
▁appearance	-11.6713
▁fly	-11.6717
▁fathers	-11.6718
▁specialised	-11.672
▁counterparts	-11.6721
▁beg	-11.6723
18	-11.6731
house	-11.6732
▁cotton	-11.6732
▁facilitation	-11.6732
▁herself	-11.6733
▁bombs	-11.6733
▁reviewing	-11.6733
▁turns	-11.6738
ung	-11.6746
▁List	-11.6747
▁refunds	-11.6748
▁honestly	-11.6749
▁watching	-11.6749
SL	-11.6752
▁Delegation	-11.6754
▁dreadful	-11.6754
▁slogan	-11.6754
▁6,	-11.6754
.5%	-11.6757
▁desperate	-11.677
▁offensive	-11.6775
▁factories	-11.6777
▁2015	-11.6779
mar	-11.6782
▁organisational	-11.6783
▁defenders	-11.6794
▁David	-11.6797
▁milestone	-11.6797
▁occurrence	-11.6797
▁duplication	-11.6797
▁confidentiality	-11.6797
▁restraint	-11.68
regional	-11.6805
air	-11.6808
▁roles	-11.6814
intensive	-11.6815
mber	-11.6827
▁councils	-11.6828
▁migrant	-11.6829
▁SME	-11.6829
▁forecast	-11.6829
ong	-11.6834
▁Wall	-11.6837
trade	-11.6839
▁Dimension	-11.684
▁Jacques	-11.684
▁earliest	-11.684
▁indicating	-11.684
▁Cross	-11.684
▁lagging	-11.684
▁liberalization	-11.684
▁methodology	-11.6841
▁Annan	-11.6841
▁lastly	-11.6845
▁honesty	-11.6847
▁proceeding	-11.6848
INI	-11.685
▁council	-11.6851
▁elect	-11.6853
▁explore	-11.6857
▁damages	-11.6858
▁capita	-11.6859
▁imply	-11.6871
ert	-11.6875
▁grasp	-11.6875
table	-11.6878
▁suit	-11.6882
▁secular	-11.6883
▁failures	-11.6888
▁thematic	-11.6902
▁Medina	-11.6905
▁countless	-11.6906
let	-11.691
▁illustrate	-11.6912
▁condolences	-11.6912
▁Hu	-11.692
▁ICT	-11.6923
▁authorise	-11.6924
▁McCreevy	-11.6927
▁responsibly	-11.6927
▁stamp	-11.6927
▁capability	-11.6927
▁appeals	-11.6931
▁possess	-11.6943
▁symbols	-11.6948
▁prudent	-11.6948
▁Technology	-11.6948
▁excluding	-11.6948
▁incorporation	-11.6948
▁engines	-11.6952
▁8.	-11.6955
▁quarters	-11.6956
▁consist	-11.6963
▁functional	-11.6963
▁hospitals	-11.6966
▁horror	-11.697
▁shop	-11.698
yn	-11.699
▁outlook	-11.6992
▁overseas	-11.6992
▁ceasefire	-11.6992
▁frontier	-11.6994
▁mar	-11.6996
▁frame	-11.6996
▁collectively	-11.6999
▁relaunch	-11.7003
▁box	-11.7007
▁Business	-11.7012
▁weakening	-11.7014
▁comparative	-11.7014
▁worries	-11.7014
▁Kurds	-11.7014
▁shipyards	-11.7022
▁broadcast	-11.7024
PA	-11.7025
cro	-11.7035
▁boosting	-11.7035
▁Azores	-11.7036
▁tongue	-11.7036
▁perpetrated	-11.7038
▁opted	-11.7038
▁embark	-11.7039
▁designated	-11.7039
case	-11.7048
▁meal	-11.7052
▁cite	-11.7054
rr	-11.7057
▁PHARE	-11.7058
▁Seville	-11.7058
▁concentrating	-11.7058
▁dissemination	-11.7058
▁reluctant	-11.7058
▁somebody	-11.7058
▁blackmail	-11.7059
▁ballot	-11.7059
▁Stand	-11.706
▁forming	-11.7066
▁distinguished	-11.7071
fa	-11.7072
▁indicative	-11.708
▁intra	-11.7085
▁sorts	-11.7086
fu	-11.709
▁collecting	-11.7095
▁arena	-11.7101
▁harmony	-11.7103
▁passage	-11.7105
▁preferable	-11.7106
▁shocked	-11.711
▁heat	-11.711
life	-11.7117
▁hamper	-11.7117
▁hostage	-11.7117
▁square	-11.7125
▁verification	-11.7125
mail	-11.7127
tern	-11.713
▁annually	-11.7131
▁corner	-11.7133
▁52	-11.7134
ROM	-11.7135
▁slight	-11.7145
East	-11.7146
▁Competition	-11.7147
▁revising	-11.7147
▁shaping	-11.7147
▁updating	-11.7147
▁understands	-11.715
▁neglect	-11.715
▁Egyptian	-11.7153
▁penalise	-11.7165
proliferation	-11.7168
bre	-11.7169
▁investigating	-11.7169
▁bitter	-11.7171
van	-11.7177
fire	-11.7179
tech	-11.7182
▁lobbying	-11.7184
▁plea	-11.7185
▁reveal	-11.7187
▁unequivocal	-11.7187
▁pages	-11.7188
▁extremists	-11.7189
▁impartial	-11.7191
▁Moroccan	-11.7192
▁struggling	-11.7192
▁Children	-11.7192
▁engineering	-11.7195
▁Take	-11.72
▁remembered	-11.7204
▁loan	-11.7206
▁father	-11.7206
▁employee	-11.7206
▁discretion	-11.7214
▁unreasonable	-11.7214
▁leap	-11.7214
▁mortality	-11.7214
▁feet	-11.7216
▁visitors	-11.7216
▁packages	-11.7222
▁prop	-11.7222
▁performed	-11.723
▁honoured	-11.7232
▁misuse	-11.7232
water	-11.7235
▁catastrophic	-11.7237
ew	-11.7239
▁director	-11.7248
▁resident	-11.7257
GA	-11.7258
▁lending	-11.7258
▁Cologne	-11.7259
▁charging	-11.7259
▁expulsion	-11.7259
▁reveals	-11.7267
hold	-11.7268
▁predecessor	-11.7274
▁student	-11.7274
▁vigorous	-11.7277
▁eleven	-11.7281
▁biometric	-11.7282
▁transferr	-11.7282
▁limitation	-11.7284
▁Cox	-11.7284
07	-11.7285
atory	-11.7292
▁growers	-11.7294
▁Algerian	-11.7295
▁somehow	-11.7295
▁pieces	-11.73
▁None	-11.7301
▁levy	-11.7304
▁resolutely	-11.7308
▁possession	-11.7308
▁abused	-11.7311
▁Jordan	-11.7327
▁invasion	-11.7327
▁visiting	-11.7328
▁checking	-11.7334
▁Ten	-11.7335
form	-11.7337
▁Red	-11.7339
▁upper	-11.734
▁tourists	-11.7349
▁Alzheimer	-11.735
▁cancellation	-11.735
▁inspiration	-11.735
▁childcare	-11.735
▁onwards	-11.7351
lit	-11.7352
▁reacted	-11.7353
▁tied	-11.7353
▁connections	-11.7357
▁Ga	-11.7367
▁disgraceful	-11.7368
▁chamber	-11.7373
▁75%	-11.7373
▁mediation	-11.7374
▁approached	-11.7375
▁starts	-11.738
▁nowhere	-11.7381
▁trains	-11.7383
ron	-11.7388
▁Georgian	-11.7391
▁bought	-11.7395
track	-11.7396
▁classified	-11.7396
▁brand	-11.7396
▁factory	-11.7399
▁paint	-11.74
BG	-11.7407
▁equitable	-11.7418
▁Management	-11.7418
▁Saudi	-11.7418
democratic	-11.7418
▁Lithuanian	-11.7421
▁commendable	-11.7421
empt	-11.7424
▁refuses	-11.7426
9/	-11.7426
▁Bangladesh	-11.7441
▁Fontaine	-11.7441
▁Mandelson	-11.7441
▁regrettably	-11.7441
▁wheel	-11.7453
▁advised	-11.7456
▁adds	-11.7458
▁devise	-11.746
▁Pen	-11.7461
▁divorce	-11.7464
▁tragedies	-11.7464
▁Obama	-11.7464
▁certificates	-11.7467
▁sacrifice	-11.7476
▁Sir	-11.7478
▁legislator	-11.7481
▁Po	-11.7482
lle	-11.7483
▁realisation	-11.7487
▁uncontrolled	-11.7488
19	-11.7488
▁53	-11.7489
▁Garc	-11.7491
▁sessions	-11.7494
▁regulators	-11.7497
▁storm	-11.7504
▁shock	-11.7508
▁nonsense	-11.751
▁nowadays	-11.751
▁seminar	-11.751
▁endanger	-11.7514
▁stepped	-11.7515
▁attending	-11.7518
▁embryos	-11.752
omic	-11.7522
▁institute	-11.7523
▁wines	-11.7528
▁sudden	-11.7529
▁refuge	-11.7529
▁eating	-11.7531
▁authoritarian	-11.7532
▁Arafat	-11.7534
▁Poverty	-11.7534
▁Prosecutor	-11.7534
▁dioxin	-11.7534
▁resignation	-11.7535
▁forgive	-11.7536
▁influenced	-11.7537
▁tighten	-11.7539
▁craft	-11.7542
▁favoured	-11.7544
▁detect	-11.7548
▁prioritise	-11.7552
▁stretch	-11.7557
▁Cardiff	-11.7557
▁engaging	-11.7557
▁misery	-11.7557
▁broadband	-11.7557
▁standpoint	-11.7558
▁religions	-11.756
▁IV	-11.7564
▁51	-11.7565
ending	-11.7568
fold	-11.7574
▁donation	-11.7575
lia	-11.7578
▁choosing	-11.758
▁cluster	-11.758
▁lifestyle	-11.7582
▁weakest	-11.7583
with	-11.7583
▁gathering	-11.7593
▁Galicia	-11.7596
▁province	-11.7598
tain	-11.76
▁supposedly	-11.76
▁cell	-11.7603
▁Nepal	-11.7603
▁Wogau	-11.7603
▁aforementioned	-11.7603
▁congestion	-11.7603
▁headquarters	-11.7603
▁breeding	-11.7608
▁reflecting	-11.7611
▁rush	-11.7619
▁pollutants	-11.7621
▁transaction	-11.7621
ili	-11.7623
▁Countries	-11.7627
▁controversy	-11.7627
▁reciprocal	-11.763
▁lesser	-11.7631
▁personality	-11.7639
▁Applause	-11.7642
▁arrests	-11.7649
▁hesitate	-11.765
▁poison	-11.765
▁foreseen	-11.7652
▁ball	-11.7661
▁protective	-11.7663
ren	-11.7673
▁Bangemann	-11.7674
▁Byrne	-11.7674
▁atrocities	-11.7674
▁college	-11.7674
▁harvest	-11.7674
▁Life	-11.7674
Community	-11.7675
▁illnesses	-11.7676
▁ring	-11.7676
▁cow	-11.7678
▁accorded	-11.7685
▁Governments	-11.7688
kin	-11.7694
▁stimulus	-11.7697
▁unlawful	-11.7697
oli	-11.7702
▁deleted	-11.7702
▁privileges	-11.7706
▁rarely	-11.7707
▁du	-11.772
▁measuring	-11.7721
▁tuberculosis	-11.7721
▁Looking	-11.7727
▁Former	-11.7728
▁polluter	-11.7731
run	-11.7735
▁vaccines	-11.7743
▁licensing	-11.7744
▁ozone	-11.7744
▁labels	-11.7744
head	-11.7746
▁games	-11.7749
▁birds	-11.7755
shop	-11.7756
▁villages	-11.7756
▁Venezuela	-11.7763
▁Merkel	-11.7768
▁inconsistent	-11.7768
▁Rothley	-11.7768
▁fragmentation	-11.7768
rk	-11.7774
▁headings	-11.778
press	-11.7789
▁Gross	-11.7792
▁149)	-11.7792
▁allocating	-11.7792
▁breakdown	-11.7792
▁slip	-11.7793
ini	-11.7794
▁inhumane	-11.7794
▁contaminated	-11.7797
ller	-11.7802
▁54	-11.7803
▁overlooked	-11.7803
▁manufacturer	-11.7814
▁auspices	-11.7816
▁modulation	-11.7816
▁temperature	-11.7816
social	-11.7817
▁Canary	-11.7818
▁disgrace	-11.782
▁displayed	-11.7827
▁instructions	-11.7839
▁Belgrade	-11.7839
▁Kenya	-11.7839
▁LIFE	-11.7839
▁convenience	-11.7839
▁enemy	-11.7839
▁varied	-11.7839
▁nomination	-11.7839
▁Voting	-11.784
▁conformity	-11.7841
▁interconnection	-11.7841
▁shorter	-11.7841
▁rose	-11.7841
▁Equally	-11.7847
▁suited	-11.7848
▁civilised	-11.7849
▁extends	-11.7851
new	-11.7856
▁engine	-11.7856
▁seed	-11.7864
▁warnings	-11.7864
▁km	-11.7867
▁desperately	-11.7869
▁Gra	-11.7874
▁rebuild	-11.7876
▁counts	-11.7882
▁locally	-11.7883
▁Inquiry	-11.7887
▁Thessaloniki	-11.7887
▁verdict	-11.7887
▁Evans	-11.7887
▁referenda	-11.7887
▁spheres	-11.7889
▁premiums	-11.789
▁Lama	-11.7891
-20	-11.7892
▁fostering	-11.7894
matic	-11.7898
7-0	-11.7908
▁Com	-11.7911
▁GNP	-11.7911
▁Lulling	-11.7911
▁backdrop	-11.7911
▁combining	-11.7911
▁harmonious	-11.7911
▁landfill	-11.7911
▁qualify	-11.7911
Ivoire	-11.7911
▁reimbursement	-11.7911
▁defines	-11.7912
▁Recently	-11.7916
▁sittings	-11.7919
▁congratulated	-11.7923
▁successor	-11.7931
▁calculation	-11.7933
▁ECR	-11.7933
▁dynamism	-11.7935
AC	-11.7938
▁adhered	-11.7944
▁Ti	-11.7951
▁deploy	-11.7951
▁bl	-11.7953
▁unconditional	-11.7955
▁premium	-11.7957
▁Juncker	-11.796
▁diesel	-11.796
▁negotiators	-11.7965
▁reminder	-11.7968
▁revenues	-11.7972
▁1.5	-11.7974
▁adopts	-11.7975
▁Certain	-11.7979
▁accede	-11.7979
▁traders	-11.7983
▁Uzbekistan	-11.7984
▁influx	-11.7984
▁readily	-11.7985
▁winter	-11.7985
▁executed	-11.7985
▁neutrality	-11.7986
compliance	-11.7987
hood	-11.7989
▁decisively	-11.7991
▁smoothly	-11.7993
not	-11.7993
▁tri	-11.7995
▁finalised	-11.7997
cut	-11.8
▁flat	-11.8001
Behrendt	-11.8008
▁WHO	-11.8008
▁fifty	-11.8008
keeping	-11.8008
AIDS	-11.8011
▁8,	-11.8017
▁9.	-11.802
ash	-11.8024
93	-11.8025
▁1997.	-11.8029
▁concur	-11.8031
▁Aviation	-11.8032
▁Chechen	-11.8032
▁Kazakhstan	-11.8032
▁Prestige	-11.8032
▁decree	-11.8032
▁feasibility	-11.8032
▁rain	-11.8032
▁dollars	-11.8033
▁unjust	-11.8033
▁besides	-11.8034
▁entrusted	-11.8037
▁objectively	-11.805
▁Lo	-11.8055
▁UCLAF	-11.8057
▁arguing	-11.8057
▁Sudanese	-11.8057
▁interpreters	-11.8059
▁fragmented	-11.806
▁Post	-11.8063
▁emotional	-11.8067
five	-11.8067
▁prerogatives	-11.8068
can	-11.807
▁Ne	-11.8072
aire	-11.8074
▁preconditions	-11.8074
▁immigrant	-11.8079
▁Mulder	-11.8081
▁drift	-11.8081
▁synergies	-11.8081
▁edge	-11.8082
▁employer	-11.8083
▁Four	-11.8085
▁disruption	-11.8085
▁traditionally	-11.8091
wo	-11.8096
ivity	-11.8097
▁Mal	-11.8099
▁assigned	-11.8104
▁injuries	-11.8106
▁rectify	-11.8106
▁CIA	-11.8106
▁Currently	-11.8108
nu	-11.8109
▁reinforcement	-11.811
▁younger	-11.8112
efficient	-11.8113
▁generating	-11.8118
TA	-11.8128
▁56	-11.8129
▁ultra	-11.813
▁Society	-11.813
▁pandemic	-11.813
▁interview	-11.813
▁labelled	-11.8131
▁deeds	-11.8131
▁unequivocally	-11.8136
val	-11.8136
▁offset	-11.8141
late	-11.8149
fin	-11.8149
dit	-11.8151
▁Supervisor	-11.8155
▁legacy	-11.8155
▁TACIS	-11.8155
▁biomass	-11.8155
No	-11.8156
ify	-11.8157
financing	-11.8158
▁renew	-11.8159
▁dictatorships	-11.8168
▁condemns	-11.8169
bro	-11.8172
hen	-11.818
▁Ortega	-11.818
▁Something	-11.818
▁Ri	-11.818
▁Rio	-11.8183
▁manufactured	-11.8187
▁exploiting	-11.8189
▁cleaner	-11.8189
▁warned	-11.8195
mat	-11.8198
▁improves	-11.82
▁Coelho	-11.8204
▁Nielson	-11.8204
▁capture	-11.8204
▁heed	-11.8205
4-04	-11.8205
list	-11.8206
▁sand	-11.8208
▁Har	-11.8217
▁Ju	-11.8218
▁gear	-11.8223
medi	-11.8223
▁bulk	-11.8229
▁temporarily	-11.8229
▁Delors	-11.8229
▁themes	-11.823
market	-11.8234
▁discriminated	-11.8234
ane	-11.8235
▁passports	-11.8243
▁thresholds	-11.8249
▁Cypriots	-11.8251
▁Bonino	-11.8254
▁Measures	-11.8254
▁acquisition	-11.8255
▁TEN	-11.8255
▁Nobel	-11.8256
tter	-11.8257
▁socialists	-11.8258
▁fulfilment	-11.8258
▁fur	-11.8259
aging	-11.826
▁worsening	-11.8261
▁speeding	-11.8261
▁west	-11.8262
▁gathered	-11.8263
▁protects	-11.8265
▁documentation	-11.8268
▁frameworks	-11.827
▁boat	-11.8279
▁Schreyer	-11.8279
▁remuneration	-11.8279
▁experiment	-11.8279
▁images	-11.8281
▁loopholes	-11.8287
▁file	-11.8299
▁massacre	-11.8304
▁Tomorrow	-11.8304
▁arriving	-11.8304
▁hedge	-11.8304
▁deprive	-11.8305
▁IT	-11.8306
▁da	-11.8307
commerce	-11.8308
▁reaches	-11.831
▁Du	-11.8317
ium	-11.8318
▁fat	-11.8318
▁quiet	-11.8324
▁glass	-11.8329
Plath	-11.8329
▁modernising	-11.8332
▁sulphur	-11.8333
producing	-11.8333
pen	-11.8335
▁incineration	-11.8338
▁fan	-11.8338
▁agri	-11.8343
▁Randzio	-11.8354
▁evasion	-11.8354
▁unchanged	-11.8354
▁Overall	-11.8355
▁En	-11.8361
▁studying	-11.8364
▁alia	-11.8365
cor	-11.8368
ying	-11.8372
▁upset	-11.8374
▁extraordinarily	-11.8379
▁maize	-11.8379
▁petrol	-11.8379
▁auction	-11.8379
▁11.30	-11.8379
▁reservation	-11.838
▁experiments	-11.838
▁contracting	-11.838
▁skilled	-11.8394
35	-11.8395
▁credits	-11.8398
▁Castro	-11.8405
▁precious	-11.8405
▁operator	-11.8405
hu	-11.8412
▁Armenian	-11.8419
ink	-11.8426
▁sheet	-11.8429
▁Tribunal	-11.843
▁dilemma	-11.843
itarian	-11.8431
▁specifications	-11.8437
▁admittedly	-11.8437
▁breath	-11.8444
▁evidently	-11.8447
▁Sustainable	-11.8455
▁beneficiary	-11.8455
▁Wales	-11.8456
▁blockade	-11.8456
▁dropped	-11.8456
▁season	-11.8456
first	-11.846
col	-11.8466
▁expectation	-11.847
handed	-11.8471
balanced	-11.8471
▁basin	-11.8473
▁trace	-11.8476
▁correction	-11.8476
some	-11.8476
▁Ni	-11.8479
jo	-11.8479
▁Tr	-11.8479
▁automotive	-11.8481
▁obsolete	-11.8481
▁shed	-11.8481
▁marriage	-11.8482
round	-11.8482
▁penalised	-11.8487
▁ideals	-11.8494
▁Dell	-11.8496
▁chief	-11.8501
▁clubs	-11.8504
▁constructively	-11.8506
▁Dalai	-11.8506
▁Valencia	-11.8506
▁speculative	-11.8506
▁exhaustive	-11.8507
eu	-11.8509
▁endless	-11.851
▁polluting	-11.8513
▁tolerated	-11.8515
▁balances	-11.8517
▁holdings	-11.8517
▁aspire	-11.8519
▁chaired	-11.8523
ight	-11.8525
▁pledge	-11.8529
▁cohesive	-11.8532
▁juncture	-11.8532
▁statutory	-11.8532
▁construct	-11.8537
▁corresponds	-11.8546
▁safely	-11.8548
▁versions	-11.8549
▁inventions	-11.8553
▁Tunisian	-11.8553
▁urges	-11.8555
▁municipal	-11.8557
▁Sierra	-11.8558
▁superfluous	-11.8558
▁Combat	-11.8558
▁fed	-11.8558
▁foreseeable	-11.8559
▁manifest	-11.8563
food	-11.8563
▁forwarded	-11.857
2010	-11.8572
▁penal	-11.8573
▁confuse	-11.8579
COS	-11.8579
ez	-11.858
▁Ankara	-11.8583
▁Bourlanges	-11.8583
▁Secretariat	-11.8583
▁cynical	-11.8583
▁talent	-11.8583
▁1970	-11.8584
▁Data	-11.8584
decision	-11.8588
political	-11.8589
▁continuously	-11.8593
▁Par	-11.8595
▁Ch	-11.8596
ret	-11.8596
▁modify	-11.8598
▁Too	-11.86
wer	-11.8601
▁landing	-11.8601
ker	-11.8603
▁Official	-11.8609
▁exchanging	-11.8609
▁dwell	-11.8609
▁qua	-11.861
▁accelerated	-11.8615
▁ceilings	-11.8623
risk	-11.863
▁reads	-11.8631
▁explains	-11.8631
▁continents	-11.8633
▁buses	-11.8638
▁format	-11.8638
evident	-11.8641
▁amounting	-11.8642
lessly	-11.8642
raising	-11.8644
▁conflicting	-11.8645
▁pupils	-11.8646
▁feeding	-11.8647
▁nationalist	-11.8649
▁rein	-11.8651
▁respectively	-11.8651
▁exacerbate	-11.8656
vert	-11.8657
sponsor	-11.8661
▁Guatemala	-11.8661
▁Uganda	-11.8661
▁contravene	-11.8661
▁intimidation	-11.8661
▁rethink	-11.8661
▁vacuum	-11.8661
▁giant	-11.8661
▁slightest	-11.8662
▁liquidity	-11.8662
▁profitability	-11.8662
▁EPP	-11.8662
▁liberalising	-11.8662
▁machine	-11.8663
part	-11.8664
▁Man	-11.8668
▁backward	-11.867
▁keeps	-11.868
tation	-11.8685
▁Nabucco	-11.8687
▁SWIFT	-11.8687
▁demonstrators	-11.8687
▁undesirable	-11.8687
▁novel	-11.8687
▁club	-11.869
▁renewables	-11.8692
▁strain	-11.8695
SE	-11.8697
▁virtual	-11.8708
▁beliefs	-11.871
▁destructive	-11.8713
▁dividing	-11.8713
▁shot	-11.8713
▁coincidence	-11.8713
▁performing	-11.8713
▁endorses	-11.8714
▁insistence	-11.8714
▁Ja	-11.8716
▁odd	-11.8716
▁characteristic	-11.8716
▁Langen	-11.8716
elected	-11.8719
▁130	-11.8721
▁bonds	-11.8731
▁nets	-11.8731
▁9,	-11.8732
▁relatives	-11.8734
▁Temporary	-11.8739
▁Karas	-11.8739
▁extremist	-11.8742
▁specialists	-11.8751
▁principally	-11.8751
▁withdrawing	-11.8757
▁rulings	-11.8764
▁literally	-11.8765
▁Basel	-11.8765
▁traffickers	-11.8765
app	-11.8765
▁abandoning	-11.8767
▁delegated	-11.8769
▁corporations	-11.877
▁liberalised	-11.8771
ON	-11.8772
▁dealings	-11.8773
▁heating	-11.8775
ifying	-11.8779
▁assertion	-11.878
▁modifications	-11.8782
▁Category	-11.8791
▁Dialogue	-11.8791
▁Rwanda	-11.8791
▁tsunami	-11.8791
▁enjoys	-11.8798
▁hearts	-11.8798
ica	-11.8804
▁Church	-11.8817
▁asbestos	-11.8818
▁boycott	-11.8818
▁stupid	-11.8818
▁friendship	-11.8818
▁insight	-11.8819
▁habits	-11.882
▁cited	-11.8823
In	-11.8828
▁accurately	-11.883
▁electric	-11.8832
aside	-11.8836
▁quest	-11.8843
▁Daphne	-11.8844
▁motivation	-11.8844
▁relocations	-11.8844
▁district	-11.8844
▁generic	-11.8844
▁gold	-11.885
▁reminding	-11.8858
ake	-11.8863
▁transpose	-11.8866
zi	-11.8867
▁foresee	-11.8868
▁abundant	-11.887
▁Faced	-11.887
▁commodities	-11.887
▁malaria	-11.887
▁churches	-11.8872
plan	-11.8874
▁Bear	-11.8882
cher	-11.889
▁incumbent	-11.8897
▁mutilation	-11.8897
▁redistribution	-11.8897
▁cancelled	-11.8897
▁subordinate	-11.8897
▁revive	-11.8897
▁mad	-11.8898
▁department	-11.8898
▁colour	-11.89
▁associate	-11.8902
▁afforded	-11.8904
ath	-11.891
22	-11.891
▁peacefully	-11.891
gy	-11.8918
▁discriminate	-11.8919
▁practise	-11.8919
▁slave	-11.8923
▁securities	-11.8924
▁synergy	-11.8924
▁famine	-11.8924
▁named	-11.8927
▁beforehand	-11.893
ER	-11.8933
▁responds	-11.8946
▁Incidentally	-11.895
▁ambiguous	-11.895
▁frozen	-11.895
▁outrageous	-11.8951
▁iron	-11.8958
value	-11.8959
▁Bali	-11.897
▁Recent	-11.8973
like	-11.8974
take	-11.8974
▁liquid	-11.8976
▁Velzen	-11.8977
▁curious	-11.8977
▁overdue	-11.8977
▁ancient	-11.8977
▁wondering	-11.8978
▁parental	-11.8979
light	-11.8979
eo	-11.898
▁ha	-11.8981
bal	-11.8982
uck	-11.8994
▁inspire	-11.9002
▁sky	-11.9002
▁Chapter	-11.9004
▁grand	-11.9004
▁calculations	-11.9007
▁justifies	-11.901
▁accomplished	-11.9011
iz	-11.9019
▁lowering	-11.9023
▁disrupt	-11.9023
ai	-11.9023
▁Florenz	-11.9031
▁enforcing	-11.9031
▁escalation	-11.9031
▁mitigate	-11.9031
▁spiral	-11.9031
▁Seattle	-11.9031
▁Kyi	-11.9031
▁Force	-11.9038
financial	-11.9039
▁undergoing	-11.9047
▁Ossetia	-11.9058
▁Ultimately	-11.9058
▁58	-11.9061
▁populated	-11.9069
▁%.	-11.9069
▁Albanians	-11.907
▁Ben	-11.9071
▁steer	-11.9073
▁trigger	-11.9077
▁murders	-11.9083
▁Presidencies	-11.9085
▁unexpected	-11.9085
▁Athens	-11.9085
▁Prevention	-11.9085
▁Sh	-11.9089
▁grips	-11.9094
▁impacts	-11.9107
▁Arabia	-11.9109
ulation	-11.911
▁incomplete	-11.9112
▁termed	-11.9118
▁Fourth	-11.9135
going	-11.9136
▁regrets	-11.9137
▁unwilling	-11.9138
▁Kashmir	-11.9139
▁barbaric	-11.9139
▁satisfactorily	-11.9139
▁decoupling	-11.9139
▁varies	-11.9139
▁questioned	-11.9144
);	-11.9145
▁profoundly	-11.915
▁wrongly	-11.9152
▁recipients	-11.916
▁summarise	-11.9162
upreme	-11.9162
-04	-11.9162
▁shortages	-11.9163
▁Patent	-11.9166
▁Cup	-11.9168
uch	-11.9171
▁proportions	-11.9172
▁recipient	-11.9173
ethnic	-11.9175
▁ally	-11.9183
step	-11.919
▁fl	-11.9191
▁hesitation	-11.9194
▁Unlike	-11.9194
▁arose	-11.9194
▁Vigo	-11.9194
far	-11.9195
▁2050	-11.9195
▁freeze	-11.92
▁ecosystem	-11.92
ically	-11.9201
▁imposes	-11.9203
▁insists	-11.9205
▁reasoning	-11.9205
▁el	-11.9206
▁norms	-11.9211
▁liberalise	-11.9218
▁don	-11.9219
▁bombing	-11.9221
▁Wa	-11.9221
▁acknowledging	-11.9221
▁elaborate	-11.9221
▁observing	-11.9221
▁racial	-11.9221
▁yourselves	-11.9221
▁twin	-11.9221
▁rice	-11.9221
▁Maybe	-11.9224
▁fix	-11.9229
▁hectares	-11.9237
▁pertain	-11.9239
▁varying	-11.924
13	-11.9244
▁odds	-11.9245
▁strand	-11.9248
▁Verhofstadt	-11.9248
▁discrepancies	-11.9248
▁conferred	-11.9249
▁Staff	-11.9249
▁frequency	-11.9253
▁realize	-11.9257
▁reaffirmed	-11.9266
RC	-11.9267
sceptic	-11.9274
▁equip	-11.9275
shore	-11.9276
▁Sky	-11.9276
▁Likewise	-11.9276
▁solar	-11.9279
▁usefulness	-11.9287
▁Adam	-11.9288
taking	-11.9291
▁2014	-11.9293
45	-11.9296
▁theoretical	-11.9299
▁troika	-11.9304
▁Suu	-11.9305
▁2012.	-11.9305
▁Greenland	-11.9307
lessness	-11.9309
▁moments	-11.931
growing	-11.9313
▁relying	-11.9314
▁knock	-11.9331
▁Canadian	-11.9331
▁Fifteen	-11.9331
▁circumvent	-11.9331
▁feedingstuffs	-11.9331
▁routine	-11.9331
▁Lord	-11.9331
▁upholding	-11.9334
16	-11.9349
nen	-11.9354
▁110	-11.9358
ransatlantic	-11.9359
▁diversify	-11.9359
▁pregnant	-11.9359
▁surrender	-11.9359
▁honey	-11.9359
▁portfolio	-11.9367
▁reduces	-11.9386
▁Universal	-11.9387
▁University	-11.9387
▁addiction	-11.9387
▁incidence	-11.9387
▁manipulation	-11.9387
▁shipowners	-11.9387
ily	-11.9388
▁0	-11.9391
fish	-11.9394
specific	-11.9397
▁Others	-11.94
▁supplemented	-11.9404
tabilisation	-11.941
▁drink	-11.9412
▁outcomes	-11.9413
▁infected	-11.9415
▁unstable	-11.9415
▁bone	-11.9417
▁foreigners	-11.9417
▁directors	-11.9417
▁circles	-11.9417
/2007	-11.9418
bar	-11.942
▁practised	-11.942
▁Sal	-11.9421
▁mobilised	-11.9424
▁shops	-11.9428
▁assisted	-11.9428
▁cat	-11.9431
▁closest	-11.9433
▁Eritrea	-11.9443
▁signatories	-11.9443
▁publishing	-11.9444
▁devised	-11.9449
▁Aung	-11.9449
▁operated	-11.9451
▁trap	-11.9452
55	-11.9458
lk	-11.9461
▁reap	-11.9464
▁fortunate	-11.9466
▁85	-11.947
▁retaining	-11.947
▁Cashman	-11.9471
▁Leonardo	-11.9471
▁detainees	-11.9471
▁exciting	-11.9471
▁observance	-11.9471
▁unnecessarily	-11.9471
▁metres	-11.9474
nationalisation	-11.948
parliamentary	-11.9481
12	-11.9485
▁broaden	-11.9489
▁administer	-11.9491
harm	-11.9495
▁63	-11.9497
▁Amnesty	-11.9499
▁Transparency	-11.9499
▁calendar	-11.9499
▁celebration	-11.9499
▁stabilising	-11.9499
▁Dimas	-11.9499
▁grey	-11.9499
8/	-11.9502
rable	-11.9503
▁exacerbated	-11.9504
▁household	-11.9506
▁convert	-11.9508
▁Tri	-11.9509
▁distorted	-11.9512
▁discourage	-11.9523
▁confidential	-11.9527
▁advisable	-11.9527
▁unreservedly	-11.9529
▁Bu	-11.9537
▁adjusted	-11.954
▁57	-11.9549
▁inhuman	-11.9554
▁assassination	-11.9556
▁depleted	-11.9556
▁unaware	-11.9556
▁Movement	-11.9556
▁originating	-11.956
▁premises	-11.9561
▁Indonesian	-11.9564
▁describes	-11.9571
▁recommending	-11.9577
▁mature	-11.9584
▁comprehensible	-11.9587
▁stopping	-11.9587
▁toll	-11.9588
▁seventh	-11.9592
▁endeavouring	-11.9592
▁appealing	-11.9612
▁multilingualism	-11.9613
▁zu	-11.9613
▁plight	-11.9614
▁mini	-11.9621
▁notified	-11.9623
▁2011,	-11.9624
▁combated	-11.9624
▁altered	-11.9628
▁dozens	-11.9632
▁importing	-11.9635
▁blatant	-11.9636
▁Kaliningrad	-11.9641
▁explosive	-11.9641
▁unavoidable	-11.9641
▁Chirac	-11.9641
▁chairmen	-11.9642
▁Titley	-11.9643
▁touches	-11.9648
ians	-11.9654
▁designation	-11.9655
▁recast	-11.9658
▁Blokland	-11.967
▁ECOFIN	-11.967
▁undertook	-11.967
▁Thailand	-11.967
▁ETA	-11.9671
▁cargo	-11.9672
▁timeframe	-11.9673
thirds	-11.9674
▁summ	-11.9676
▁oblige	-11.9676
annual	-11.9678
▁broker	-11.9684
▁useless	-11.9697
▁reintegration	-11.9699
▁denial	-11.9699
▁takeover	-11.9701
hull	-11.9702
▁Min	-11.9708
▁norm	-11.9711
▁factual	-11.9713
designate	-11.9716
▁output	-11.9718
established	-11.9721
▁Baringdorf	-11.9727
▁Sterckx	-11.9727
▁balancing	-11.9727
▁fraudulent	-11.9727
▁hierarchy	-11.9727
▁intensified	-11.9727
▁justifiable	-11.9727
▁automobile	-11.9727
▁bankruptcy	-11.9727
▁missile	-11.9728
▁Wallis	-11.9728
rig	-11.9734
▁illustrated	-11.9734
▁differentiated	-11.9734
17	-11.9734
▁illusion	-11.9739
▁winners	-11.9742
▁leg	-11.9751
▁tendencies	-11.9756
▁unsustainable	-11.9757
▁Out	-11.9759
▁separated	-11.9766
rv	-11.9766
90	-11.9768
catch	-11.9769
▁journeys	-11.9776
▁criticising	-11.9785
▁taste	-11.9785
▁exile	-11.9786
mes	-11.9788
▁homeland	-11.9789
▁select	-11.9797
▁publicity	-11.9797
needed	-11.9798
▁GMO	-11.9798
ich	-11.9807
▁targeting	-11.9808
14	-11.981
▁cigarettes	-11.9812
▁esteem	-11.9814
▁Almunia	-11.9814
▁chicken	-11.9814
▁overhaul	-11.9814
▁tribunal	-11.9814
Saharan	-11.9816
000	-11.9836
▁inefficient	-11.9839
▁Recommendation	-11.9843
▁resettlement	-11.9844
▁shelter	-11.9844
▁outrage	-11.9847
▁bargaining	-11.9848
▁screen	-11.9848
▁skill	-11.985
election	-11.9852
▁ticket	-11.9856
▁indicator	-11.9856
▁teach	-11.9857
IC	-11.986
▁Leone	-11.9861
zy	-11.9861
For	-11.9865
▁patterns	-11.9867
▁courses	-11.9868
▁utter	-11.9868
▁Abkhazia	-11.9873
▁Assistance	-11.9873
▁Capital	-11.9873
▁Malaysia	-11.9873
▁celebrating	-11.9873
▁memorandum	-11.9873
▁emerges	-11.9888
▁nutrition	-11.9889
▁households	-11.9892
ique	-11.9893
▁expressions	-11.9896
▁resolute	-11.9897
▁oversee	-11.9898
▁distress	-11.9899
▁Graefe	-11.9902
▁Oostlander	-11.9902
▁anxiety	-11.9902
▁expectancy	-11.9902
▁federation	-11.9902
▁gift	-11.9902
▁travellers	-11.9902
▁outdated	-11.9902
▁resumption	-11.9902
▁convicted	-11.9903
▁Ford	-11.9907
▁Gas	-11.9908
▁widening	-11.9912
Nordic	-11.9915
increasing	-11.9915
▁phone	-11.9915
▁rooted	-11.9921
▁96	-11.9923
▁Fifth	-11.9927
▁1996.	-11.9931
▁complies	-11.9931
▁Paul	-11.9933
▁referral	-11.9934
▁recitals	-11.9935
▁exceeding	-11.9954
grade	-11.9954
▁policing	-11.9961
▁drastically	-11.9962
▁supplying	-11.9966
lov	-11.9967
▁corridors	-11.9969
▁disturb	-11.9971
nez	-11.9972
which	-11.9974
▁pig	-11.9979
▁accomplish	-11.9983
hour	-11.9983
▁Mon	-11.9984
▁2001/	-11.9989
▁waterways	-11.9989
▁City	-11.999
▁approximation	-11.9991
oung	-11.9991
▁interpretations	-11.9994
ED	-11.9994
▁holders	-11.9995
▁realism	-11.9996
▁scrap	-11.9999
▁benchmarks	-12.0001
bra	-12.0003
▁supporter	-12.0005
▁tightening	-12.0005
▁pool	-12.0009
▁62	-12.0011
48	-12.0014
effective	-12.0019
▁Argentina	-12.002
pidla	-12.002
▁Che	-12.0021
▁angle	-12.0022
▁rests	-12.0023
▁pet	-12.0024
▁pledged	-12.0026
til	-12.0027
▁importers	-12.0032
▁wealthy	-12.0033
Herzegovina	-12.0034
people	-12.0034
lay	-12.0036
pers	-12.0037
▁optional	-12.0045
▁Val	-12.0047
ibility	-12.0047
▁soul	-12.005
▁destiny	-12.005
▁seafarers	-12.005
6-02	-12.0051
▁tends	-12.0053
▁turnover	-12.0053
▁tougher	-12.0059
▁downward	-12.0059
▁Kar	-12.0059
▁Region	-12.0061
▁questioning	-12.0063
▁rigorously	-12.0066
▁hole	-12.0066
09	-12.007
▁delaying	-12.0073
rd	-12.0073
▁exporters	-12.0076
▁Aznar	-12.008
▁Feira	-12.008
▁deplorable	-12.008
▁desertification	-12.008
▁flagrant	-12.008
▁kick	-12.008
▁defer	-12.0083
▁multilateralism	-12.0085
▁Nazi	-12.0087
▁Croatian	-12.0089
▁Ru	-12.0091
▁persuaded	-12.0092
04	-12.0093
▁absorb	-12.0093
book	-12.0094
eng	-12.0097
▁historically	-12.0109
style	-12.0109
▁horizon	-12.011
▁Child	-12.011
▁confusing	-12.011
▁indifferent	-12.011
▁unfounded	-12.0111
▁del	-12.0122
▁similarly	-12.0123
▁educated	-12.0124
▁degrees	-12.0125
▁rebuilding	-12.0128
dict	-12.0131
▁web	-12.0136
▁winner	-12.0138
▁Hautala	-12.014
▁Saturday	-12.014
▁pertinent	-12.014
▁brother	-12.014
▁discredit	-12.014
▁prescribed	-12.0144
▁underestimated	-12.0147
interest	-12.0155
sector	-12.0156
▁prompted	-12.0158
▁ranging	-12.0163
▁dam	-12.0169
▁Wynn	-12.017
▁ambiguity	-12.017
▁catalogue	-12.017
▁illicit	-12.017
▁jeopardising	-12.017
▁optimum	-12.017
▁pleasant	-12.017
▁repatriation	-12.017
▁chronic	-12.017
▁Bonn	-12.017
▁Progressive	-12.0171
▁subsidised	-12.0173
decentralisation	-12.0176
▁lively	-12.0177
▁endorsement	-12.0178
development	-12.0182
▁rivers	-12.0183
▁democrat	-12.0188
MS	-12.0188
zo	-12.0191
▁consume	-12.0193
▁comfort	-12.0199
▁Asylum	-12.02
▁Hopefully	-12.02
▁freezing	-12.02
▁native	-12.0201
▁surpluses	-12.0204
▁phased	-12.0205
▁recalled	-12.0211
▁ratifying	-12.0213
▁dossiers	-12.0215
▁transformed	-12.0216
▁infringe	-12.022
▁enact	-12.0223
▁avail	-12.0229
▁Bowis	-12.023
▁doctrine	-12.023
▁envoy	-12.023
▁explosion	-12.023
▁harbour	-12.023
▁mortgage	-12.023
▁steady	-12.023
▁laugh	-12.0231
▁Almost	-12.0231
▁uncertainties	-12.0231
tag	-12.0235
lli	-12.0238
▁undergo	-12.024
discriminatory	-12.0245
▁village	-12.0246
▁measurement	-12.0249
post	-12.0252
▁hopeful	-12.0254
ese	-12.0255
▁Jewish	-12.0261
▁Lampedusa	-12.0261
▁Radical	-12.0261
▁Elles	-12.0261
▁makers	-12.028
▁enrich	-12.0283
▁films	-12.0286
▁mode	-12.0288
onourable	-12.0291
▁despair	-12.0291
▁generosity	-12.0291
▁mobilising	-12.0291
▁qualities	-12.0291
▁synthetic	-12.0291
▁vicious	-12.0291
▁vigilance	-12.0291
▁voluntarily	-12.0291
▁Senate	-12.0291
▁Based	-12.0291
▁attendance	-12.0293
▁pockets	-12.0294
avier	-12.0294
▁scandals	-12.0295
▁sacrificed	-12.0297
▁standardised	-12.0298
▁Opening	-12.0298
▁filled	-12.0308
▁headed	-12.0312
cho	-12.0313
pla	-12.0313
CI	-12.0316
▁suppose	-12.0317
▁progressing	-12.0319
▁Admittedly	-12.0322
▁Lamfalussy	-12.0322
▁Leinen	-12.0322
▁impasse	-12.0322
▁baby	-12.0322
▁Daul	-12.0323
my	-12.0325
▁mess	-12.0325
▁scientifically	-12.0328
▁hunting	-12.0332
▁protocols	-12.0332
▁seized	-12.0332
▁provider	-12.0335
hr	-12.0337
ement	-12.0337
private	-12.0337
existent	-12.0339
▁confirming	-12.0348
▁Gebhardt	-12.0353
▁destined	-12.0353
▁imagination	-12.0353
▁likelihood	-12.0353
▁ENP	-12.0353
▁transmitted	-12.0353
▁unused	-12.0353
▁deaf	-12.0354
▁Ki	-12.0354
▁suffers	-12.036
▁bloody	-12.0362
▁contributors	-12.0367
▁enthusiastic	-12.0368
▁66	-12.037
▁tickets	-12.037
▁deter	-12.038
▁church	-12.0381
▁Draft	-12.0383
▁crucially	-12.0385
▁Germans	-12.0393
amp	-12.0397
▁band	-12.0398
je	-12.04
▁constituent	-12.0401
ctor	-12.0402
▁connect	-12.0402
▁pretend	-12.0403
▁Hans	-12.0413
▁obesity	-12.0414
▁Due	-12.0419
▁y	-12.0419
ux	-12.0424
▁differs	-12.043
sharing	-12.043
▁catalyst	-12.0445
▁deforestation	-12.0445
▁marginalised	-12.0446
▁tactics	-12.0447
▁allegedly	-12.0456
▁grassroots	-12.0463
▁Pri	-12.0464
▁resign	-12.0466
▁originate	-12.0468
▁expose	-12.0471
▁extract	-12.0476
▁GBP	-12.0476
▁Regrettably	-12.0476
▁stories	-12.0476
▁plane	-12.0478
▁exit	-12.0479
▁Berg	-12.0485
CO	-12.0487
lam	-12.0488
▁consisting	-12.0492
▁tenth	-12.0493
▁customer	-12.0496
▁4%	-12.0499
▁distribute	-12.0503
▁heartfelt	-12.0507
▁miracle	-12.0507
▁impressed	-12.051
▁chiefly	-12.0513
▁forever	-12.0523
▁exerted	-12.0529
ency	-12.053
▁sounds	-12.0531
compensatory	-12.0539
▁Animal	-12.0539
▁fierce	-12.0539
▁spill	-12.0539
▁volatility	-12.0539
▁Police	-12.0539
▁composed	-12.0539
▁vain	-12.054
▁embarked	-12.055
ani	-12.055
▁align	-12.0554
▁Needles	-12.0554
▁Fischer	-12.057
▁solemn	-12.057
▁violating	-12.057
▁oversight	-12.057
▁inviting	-12.057
ches	-12.0571
▁quicker	-12.0577
▁stream	-12.0584
ui	-12.0584
▁ratings	-12.0588
▁violates	-12.059
▁breaks	-12.0594
▁outright	-12.0594
▁continental	-12.0594
▁prolong	-12.0594
cum	-12.0595
▁confess	-12.0597
▁noble	-12.0598
▁Pirker	-12.0601
▁Prague	-12.0601
▁Technological	-12.0601
▁assault	-12.0601
▁deteriorating	-12.0601
▁irreversible	-12.0601
▁mafia	-12.0601
▁Haug	-12.0602
del	-12.0602
▁counteract	-12.0602
▁overnight	-12.0604
▁facilitated	-12.0618
where	-12.0618
benefit	-12.0619
1(	-12.0621
▁evaluations	-12.0624
▁Jan	-12.0631
row	-12.0631
-2013	-12.0633
▁Alexander	-12.0633
▁Rompuy	-12.0633
▁illustration	-12.0633
▁influenza	-12.0633
▁jail	-12.0633
▁obscure	-12.0633
▁coasts	-12.0638
▁sacrifices	-12.0641
▁changeover	-12.0645
generation	-12.0645
▁Abu	-12.0647
▁richer	-12.0648
▁Institutions	-12.065
▁coordinators	-12.0653
▁occupy	-12.0653
▁forums	-12.0655
af	-12.0657
▁mu	-12.0658
▁enlarge	-12.0659
▁2015.	-12.0662
▁clash	-12.0663
▁reluctance	-12.0665
▁undeniable	-12.0665
▁unrest	-12.0665
▁brake	-12.0665
▁Conduct	-12.0665
▁passionate	-12.0665
turn	-12.0669
iest	-12.0675
▁timescale	-12.0676
▁reside	-12.0682
personnel	-12.0682
▁disregarded	-12.0683
owned	-12.0686
▁spouses	-12.0689
▁Front	-12.0696
▁salmon	-12.0696
(2001)	-12.0696
▁Doyle	-12.0696
▁Ludford	-12.0696
▁Violence	-12.0696
▁accommodation	-12.0696
▁intervening	-12.0696
▁notwithstanding	-12.0696
▁joy	-12.0696
▁dedication	-12.0696
▁Warrant	-12.0697
▁Parties	-12.0697
▁forge	-12.0699
▁overly	-12.0699
▁attacking	-12.0702
▁benchmark	-12.0705
▁1999/	-12.0706
human	-12.0717
▁guideline	-12.0717
▁Eurodac	-12.0728
▁Lannoye	-12.0728
▁Transnistria	-12.0728
▁denominator	-12.0728
▁intermediate	-12.0728
▁injury	-12.0728
▁rocket	-12.0729
▁Herman	-12.0733
▁Tra	-12.0735
▁midst	-12.0743
▁predicted	-12.0745
▁awarding	-12.0751
▁para	-12.0752
▁eventual	-12.0756
▁paradox	-12.076
▁acceding	-12.076
▁allotted	-12.076
▁interfering	-12.076
▁Oslo	-12.076
▁preceded	-12.0761
▁Poles	-12.0762
▁refine	-12.0762
▁dry	-12.0764
▁richest	-12.0764
0%	-12.0769
▁backs	-12.077
▁King	-12.0771
outs	-12.0774
▁trees	-12.0776
nov	-12.0777
▁myth	-12.0779
▁Statement	-12.0784
▁intensity	-12.0792
▁tantamount	-12.0792
▁intercultural	-12.0793
▁universally	-12.0794
▁occasionally	-12.0797
favoured	-12.0811
▁qualification	-12.0813
SS	-12.0815
▁investor	-12.0821
▁Burundi	-12.0824
▁Duisenberg	-12.0824
▁collaborate	-12.0824
▁degradation	-12.0824
▁dignified	-12.0824
▁undeclared	-12.0824
▁hostile	-12.0825
▁naive	-12.0826
▁killings	-12.0832
94	-12.0834
(4)	-12.0835
▁communicated	-12.0836
ssel	-12.084
rap	-12.0849
print	-12.085
ifies	-12.085
▁disciplinary	-12.0853
▁reconciling	-12.0857
▁tropical	-12.0857
▁inquiries	-12.0857
▁ignores	-12.0863
▁2.5	-12.0864
vil	-12.0873
▁progressively	-12.0873
▁challenged	-12.0877
▁grip	-12.0879
21	-12.0885
▁Access	-12.0888
▁Arrest	-12.0889
▁Speaking	-12.0889
▁ignorance	-12.0889
▁populist	-12.0889
▁divergence	-12.0889
▁annum	-12.0889
nchez	-12.0889
▁stuck	-12.0889
▁grid	-12.089
▁lawmaking	-12.089
▁abandonment	-12.0891
▁authorising	-12.0891
▁accessing	-12.0896
▁alien	-12.0905
▁accompany	-12.091
▁doubled	-12.0921
▁leak	-12.0921
▁ASEM	-12.0921
▁climatic	-12.0921
▁upcoming	-12.0921
▁scoreboard	-12.0922
▁2000-2006	-12.0922
▁preventative	-12.0928
▁meaningless	-12.0933
▁emphasized	-12.0934
hm	-12.0941
PS	-12.0941
▁conduc	-12.0941
▁avert	-12.0944
▁fulfils	-12.0952
9(	-12.0953
▁cancel	-12.0953
▁Brittan	-12.0954
▁improper	-12.0954
▁magnificent	-12.0954
▁Jackson	-12.0954
▁School	-12.0954
▁aftermath	-12.0954
▁militarisation	-12.0954
▁starch	-12.0954
▁ashamed	-12.0954
▁Specifically	-12.0954
▁awful	-12.0955
▁headway	-12.0956
▁predictable	-12.0956
▁returns	-12.0959
▁prevails	-12.0979
▁hugely	-12.098
▁Savary	-12.0987
▁Training	-12.0987
▁erosion	-12.0987
▁indignation	-12.0987
▁taboo	-12.0987
▁rebate	-12.0987
▁contemporary	-12.0987
q	-12.0989
▁busy	-12.0992
▁seeds	-12.0997
▁watered	-12.1001
▁wisely	-12.1001
▁59	-12.1004
▁anger	-12.1016
▁emergencies	-12.1019
▁inadmissible	-12.1019
▁remedies	-12.1019
▁Throughout	-12.1021
▁hydrogen	-12.1021
▁cosmetics	-12.1022
CT	-12.1024
▁Ministerial	-12.1027
▁Level	-12.1029
▁hydro	-12.103
▁Documents	-12.1035
▁mainstream	-12.1042
▁doping	-12.1042
▁dictators	-12.1047
▁Lange	-12.1048
▁computers	-12.1051
▁provocation	-12.1052
▁Functioning	-12.1052
▁equilibrium	-12.1052
▁Mitchell	-12.1052
▁Tax	-12.1052
▁confer	-12.1053
▁depart	-12.1053
▁67	-12.1054
▁tear	-12.1057
▁Fifthly	-12.1058
▁seconds	-12.1059
▁Terrorism	-12.106
80	-12.1062
▁gene	-12.1071
roots	-12.1072
▁Cast	-12.108
▁Ver	-12.1081
▁Salafranca	-12.1085
▁comprising	-12.1085
▁entrepreneurial	-12.1085
▁misgivings	-12.1085
▁motto	-12.1085
▁postponing	-12.1085
▁unhappy	-12.1085
▁differentiation	-12.1085
▁scenarios	-12.1099
▁motives	-12.11
▁sat	-12.1101
open	-12.1103
▁databases	-12.1104
dumping	-12.1106
fall	-12.1108
▁NGO	-12.1109
▁Gibraltar	-12.1118
▁Nassauer	-12.1118
▁inclined	-12.1118
▁scepticism	-12.1118
▁suffice	-12.1118
▁channelled	-12.1119
▁shopping	-12.112
▁percent	-12.112
▁panic	-12.1121
▁passion	-12.1123
▁Hungarians	-12.1124
fr	-12.1128
▁representations	-12.1135
24	-12.1142
▁doubtless	-12.1142
▁merger	-12.1144
▁surveys	-12.1148
▁SOLVIT	-12.1152
▁Technical	-12.1152
▁identifies	-12.1152
▁admire	-12.1152
▁authentic	-12.1152
▁conditionality	-12.1154
▁Cold	-12.1159
▁forcefully	-12.116
▁capitals	-12.116
▁envisages	-12.1161
▁origins	-12.1161
▁detected	-12.1163
▁140	-12.1178
▁favours	-12.1181
▁outlines	-12.1182
▁load	-12.1184
▁devastated	-12.1185
▁steadily	-12.1185
▁fool	-12.1185
▁proportional	-12.1186
▁350	-12.1191
▁trick	-12.1197
▁Latvian	-12.1209
▁supplier	-12.121
▁staying	-12.1215
▁Did	-12.1215
▁arrange	-12.1216
▁bypass	-12.1216
▁token	-12.1218
introductory	-12.1218
▁hiding	-12.1218
Various	-12.1219
▁Things	-12.1219
▁massacres	-12.1219
▁distances	-12.122
▁timetables	-12.1228
▁intensively	-12.1239
▁enjoying	-12.124
▁tortured	-12.1242
South	-12.1243
▁staffing	-12.1245
▁appearing	-12.1248
▁gun	-12.1249
▁McKenna	-12.1252
▁absorption	-12.1252
▁batteries	-12.1252
▁irrelevant	-12.1252
▁repetition	-12.1252
▁betray	-12.1252
▁conception	-12.1253
▁Card	-12.1257
▁donations	-12.126
▁Pakistani	-12.1261
▁passes	-12.1268
▁tele	-12.1271
but	-12.1273
▁dominate	-12.1281
▁couples	-12.1283
▁transplant	-12.1284
▁Broek	-12.1286
▁prescription	-12.1286
▁upgrading	-12.1286
▁miles	-12.1286
▁coach	-12.1287
▁butter	-12.1289
▁sexes	-12.1292
▁Directives	-12.1298
ute	-12.1299
▁tankers	-12.1299
▁reinforces	-12.1314
▁platforms	-12.1318
▁Between	-12.132
▁describing	-12.132
▁identities	-12.132
▁tempted	-12.132
▁triumph	-12.132
▁artistic	-12.132
▁shores	-12.132
/21	-12.1321
west	-12.1323
60	-12.1329
▁61	-12.1339
▁faithful	-12.1344
▁presently	-12.1347
▁perceive	-12.1349
▁Er	-12.1349
▁Experience	-12.1353
▁Experts	-12.1353
▁Ferber	-12.1353
▁Haarder	-12.1353
▁complementarity	-12.1353
▁laudable	-12.1353
▁tiny	-12.1355
▁park	-12.1356
▁attributed	-12.1357
▁feared	-12.1358
▁parent	-12.1359
▁height	-12.136
▁Forest	-12.1363
▁maximise	-12.137
▁scr	-12.1371
▁allocations	-12.1372
▁Leon	-12.1376
▁88	-12.1384
▁loyal	-12.1387
▁logistics	-12.1387
▁sleep	-12.1387
▁unlimited	-12.1387
▁unsafe	-12.1388
funded	-12.1388
▁detection	-12.1388
▁utilisation	-12.1395
▁acknowledgement	-12.1395
▁stored	-12.1396
blo	-12.1403
▁indiscriminate	-12.1405
▁pigs	-12.1406
▁coupled	-12.1411
working	-12.1416
▁Buitenweg	-12.1422
▁Turkmenistan	-12.1422
▁clinical	-12.1422
▁variable	-12.1422
▁grain	-12.1422
▁Particularly	-12.1425
95	-12.143
▁fitting	-12.1433
▁polls	-12.144
▁Am	-12.1443
vez	-12.1446
stay	-12.1446
speaking	-12.1448
▁premise	-12.1449
▁transparently	-12.1456
▁Recital	-12.1456
▁adherence	-12.1456
5-05	-12.1456
gate	-12.146
▁consumed	-12.1461
▁directions	-12.1463
▁letting	-12.1469
▁prevailed	-12.1476
general	-12.1479
AR	-12.1484
▁recording	-12.1485
▁68	-12.1489
▁backbone	-12.149
▁mismanagement	-12.149
▁fronts	-12.1493
ched	-12.1497
▁doubtful	-12.1497
▁arranged	-12.1498
▁triggered	-12.15
▁generates	-12.1502
hal	-12.1513
▁Along	-12.1514
▁fits	-12.1515
CA	-12.1524
▁bull	-12.1524
▁ESDP	-12.1525
▁Frassoni	-12.1525
▁advancing	-12.1525
▁fantastic	-12.1525
▁gulf	-12.1525
▁horrific	-12.1525
▁orphan	-12.1525
▁cleansing	-12.1525
▁crack	-12.1525
▁stir	-12.1526
▁ensu	-12.1526
▁hate	-12.1527
▁travelled	-12.1528
▁walls	-12.1531
2(	-12.1533
▁minimis	-12.1536
PE	-12.1536
▁Us	-12.1542
power	-12.1548
paid	-12.1549
just	-12.155
▁wound	-12.1551
ost	-12.1552
etting	-12.1553
▁78	-12.1554
▁deem	-12.1559
▁bankrupt	-12.1559
▁achievable	-12.1559
▁therapeutic	-12.1559
▁lip	-12.156
▁flawed	-12.1563
6(	-12.1567
▁ordered	-12.1567
▁bridges	-12.158
▁volumes	-12.1587
▁fundamentalist	-12.159
▁aged	-12.159
mann	-12.1592
▁dogma	-12.1594
▁Strip	-12.1594
▁Tajani	-12.1594
▁believing	-12.1594
▁enemies	-12.1594
▁globe	-12.1594
▁presume	-12.1594
▁contend	-12.1594
▁5.30	-12.1594
▁suppression	-12.1595
▁livelihoods	-12.1595
▁Mission	-12.1595
▁corrections	-12.1595
4(	-12.1604
▁poll	-12.1609
▁diminish	-12.161
▁wellbeing	-12.1611
▁websites	-12.1617
▁infection	-12.1623
▁concession	-12.1623
▁dismantle	-12.1624
consuming	-12.1629
▁Lebanese	-12.1629
▁Twenty	-12.1629
▁civic	-12.1629
▁genital	-12.1629
▁extraction	-12.1631
▁clients	-12.1632
▁endangered	-12.1641
MA	-12.1645
▁march	-12.1647
▁answering	-12.1651
▁comprises	-12.1652
inter	-12.1653
▁ice	-12.1655
▁Sp	-12.1659
▁supplements	-12.1659
▁Communism	-12.1664
▁Competitiveness	-12.1664
▁PVC	-12.1664
▁Philippines	-12.1664
▁Racism	-12.1664
▁brilliant	-12.1664
▁subsidiary	-12.1664
▁unregulated	-12.1664
▁suspects	-12.1686
business	-12.1688
Re	-12.1688
▁homosexuals	-12.1689
▁levelled	-12.1692
▁patenting	-12.1698
▁filter	-12.1699
hrkop	-12.1699
▁ECSC	-12.1699
▁files	-12.1699
▁hotel	-12.17
▁advantageous	-12.1703
ara	-12.1704
ami	-12.1711
▁broke	-12.1714
▁Read	-12.1716
▁realising	-12.1719
aff	-12.1721
▁hunt	-12.1723
American	-12.1723
2002)	-12.1724
▁pledges	-12.1732
ttering	-12.1732
▁cocoa	-12.1734
▁derivatives	-12.1734
▁indifference	-12.1734
▁loose	-12.1734
▁lever	-12.1734
▁evade	-12.1734
▁situated	-12.1734
▁mediator	-12.1737
▁auditing	-12.1737
▁Nord	-12.1738
▁eminent	-12.1742
▁bathing	-12.1743
Alba	-12.1744
▁compensated	-12.1746
▁locations	-12.1746
▁layer	-12.1747
▁earned	-12.1755
DP	-12.1757
▁Libyan	-12.1759
top	-12.176
▁dictate	-12.1761
▁Airbus	-12.1769
▁Colleagues	-12.1769
▁Fatuzzo	-12.1769
▁Guarantee	-12.1769
▁Izquierdo	-12.1769
▁proximity	-12.1769
▁burning	-12.1778
▁64	-12.1778
▁Better	-12.178
mark	-12.1781
liness	-12.1784
▁reopen	-12.1788
▁ranks	-12.1788
▁exhaust	-12.1792
China	-12.1794
▁certificate	-12.1801
▁machines	-12.1801
lla	-12.1803
▁ESF	-12.1805
▁Review	-12.1805
▁customary	-12.1805
▁bail	-12.1805
▁Farmers	-12.1805
▁impede	-12.1815
▁holidays	-12.1833
▁bat	-12.1837
▁6%	-12.1839
▁Six	-12.184
▁tissue	-12.184
▁Cairo	-12.184
▁moderation	-12.1841
▁leverage	-12.1841
▁coastline	-12.1841
▁Road	-12.1841
▁Order	-12.1842
▁categorically	-12.1842
▁registers	-12.1845
▁Being	-12.1849
▁purchases	-12.1851
see	-12.1853
7(	-12.1854
▁defects	-12.1875
▁Revolution	-12.1876
▁Trichet	-12.1876
▁declining	-12.1876
▁pregnancy	-12.1876
▁Institutional	-12.188
ional	-12.1882
▁constructed	-12.1887
▁gladly	-12.1889
▁Refugees	-12.189
▁instrumental	-12.1891
▁commissioned	-12.1892
▁homework	-12.1895
▁rationale	-12.1902
gged	-12.1905
▁evolve	-12.1907
▁characterise	-12.1909
▁Collins	-12.1912
▁Singapore	-12.1912
▁crude	-12.1912
▁Basically	-12.1912
▁Whitehead	-12.1913
ney	-12.1915
▁lament	-12.1917
70	-12.1917
▁Ali	-12.1919
iev	-12.192
▁institutes	-12.1921
used	-12.1922
▁breathe	-12.1928
▁commun	-12.1935
▁rises	-12.1935
▁History	-12.1948
▁Hughes	-12.1948
▁Lamassoure	-12.1948
▁Position	-12.1948
▁disclosure	-12.1948
▁vulnerability	-12.1948
lent	-12.1949
▁authorisations	-12.1951
ail	-12.1958
▁Bill	-12.1958
▁86	-12.1959
▁lag	-12.1961
▁bordering	-12.1968
anc	-12.1968
▁forty	-12.1969
fo	-12.1972
▁suppress	-12.1976
▁habit	-12.198
▁Andersson	-12.1984
▁Howitt	-12.1984
▁fingerprints	-12.1984
▁Monnet	-12.1984
▁consultative	-12.1985
▁winning	-12.1985
▁sham	-12.1988
▁Mont	-12.1988
using	-12.1994
▁halv	-12.1997
▁8%	-12.2007
▁Syrian	-12.2009
defined	-12.2015
▁incorporates	-12.2017
01)	-12.2017
▁cosmetic	-12.2018
sufficiency	-12.202
▁Kallas	-12.202
▁critics	-12.202
▁whoever	-12.2024
Loud	-12.2029
AT	-12.203
▁administered	-12.203
cide	-12.2032
low	-12.2032
▁appointments	-12.2033
uaestors	-12.2036
▁classic	-12.2038
▁style	-12.204
▁clearing	-12.2043
pan	-12.2051
▁systemic	-12.2053
▁Title	-12.2054
▁FAO	-12.2057
▁Jews	-12.2057
▁cinema	-12.2057
▁junta	-12.2057
▁negligence	-12.2057
▁distributing	-12.2057
▁embryonic	-12.2057
▁mistrust	-12.2057
▁waves	-12.2059
▁branch	-12.2062
▁audits	-12.2064
27	-12.2068
▁benchmarking	-12.207
▁fee	-12.2075
▁preach	-12.2075
▁row	-12.208
▁flourish	-12.2082
▁employing	-12.2082
▁contest	-12.2085
▁installation	-12.2092
▁overlap	-12.2093
▁Alpine	-12.2093
▁Crowley	-12.2093
▁Either	-12.2093
▁Napolitano	-12.2093
▁Situation	-12.2093
▁contemplate	-12.2093
▁spectacular	-12.2093
▁trivial	-12.2093
▁crystal	-12.2093
▁impair	-12.2094
▁lax	-12.2095
▁Pan	-12.2097
▁plead	-12.2101
▁valued	-12.2113
net	-12.2115
▁Peter	-12.2115
▁Drugs	-12.2123
▁constitutions	-12.2128
▁exceeds	-12.2129
▁Clinton	-12.213
▁Morillon	-12.213
▁deportation	-12.213
▁luxury	-12.213
▁unduly	-12.213
▁concede	-12.213
▁flame	-12.213
▁preferably	-12.2131
▁clashes	-12.2132
▁Est	-12.2133
more	-12.2143
▁hardest	-12.2144
▁gangs	-12.2145
▁adversely	-12.2147
▁risky	-12.2152
▁tables	-12.2156
▁establishments	-12.2159
▁stipulate	-12.2162
▁discards	-12.2165
▁concentrations	-12.2166
▁segment	-12.2167
▁superpower	-12.2167
atic	-12.2174
▁exhausted	-12.2175
▁attracted	-12.2187
pho	-12.2199
▁lawful	-12.22
▁Company	-12.2203
▁decreasing	-12.2203
▁unpleasant	-12.2203
▁guest	-12.2203
Myanmar	-12.2203
▁Eurogroup	-12.2204
▁contentious	-12.2206
5%	-12.2213
▁fleeing	-12.2214
▁EPAs	-12.2214
▁decreased	-12.2215
▁Colombian	-12.2215
▁shifting	-12.2217
aving	-12.2229
rry	-12.223
▁dismiss	-12.2233
▁modu	-12.2235
▁offend	-12.2235
▁wreck	-12.224
▁Contrary	-12.2241
▁Country	-12.2241
▁calculating	-12.2241
▁declaring	-12.2241
▁initiating	-12.2241
▁intrinsic	-12.2241
▁liaison	-12.2241
▁militia	-12.2241
▁overriding	-12.2241
script	-12.2241
EF	-12.2242
▁setback	-12.2251
▁ages	-12.2255
rian	-12.2259
46	-12.2264
▁civilisations	-12.2268
▁objects	-12.2271
visual	-12.2272
▁livelihood	-12.2277
▁Ambassador	-12.2278
▁Correction	-12.2278
▁Department	-12.2278
▁Reconstruction	-12.2278
▁Recovery	-12.2278
▁Senegal	-12.2278
▁fusion	-12.2278
▁intermodal	-12.2278
▁lorry	-12.2278
▁maturity	-12.2278
▁receipt	-12.2278
▁IMO	-12.2278
▁diplomats	-12.2278
▁carcinogenic	-12.2278
▁speedily	-12.2278
▁tie	-12.2279
▁smallest	-12.2279
▁reign	-12.2283
▁tighter	-12.2283
▁sticking	-12.2286
▁Franco	-12.2286
▁careers	-12.2287
▁catching	-12.2289
▁heated	-12.229
▁favourably	-12.2293
▁Pr	-12.2296
▁generalised	-12.2305
mentioned	-12.2306
▁wipe	-12.2307
▁Fr	-12.2309
▁drama	-12.2315
▁shield	-12.2315
▁disarm	-12.2315
▁hake	-12.2315
▁undergone	-12.2316
▁formulating	-12.2317
▁witnesses	-12.232
5(	-12.2327
▁legitimately	-12.2328
▁sentiments	-12.2338
▁hang	-12.2342
efficiency	-12.2344
▁volunteers	-12.2347
bel	-12.2348
EP	-12.2348
(97)	-12.2352
▁Baghdad	-12.2352
▁Ocean	-12.2352
▁deterrent	-12.2352
▁libraries	-12.2352
▁Theato	-12.2353
▁peer	-12.2353
▁accuse	-12.2354
▁roughly	-12.2357
▁auditors	-12.2361
▁finishing	-12.2364
▁pot	-12.2368
Africa	-12.2379
founded	-12.2384
ened	-12.2386
▁advertise	-12.239
▁Stream	-12.239
▁admiration	-12.239
▁vested	-12.239
▁exaggerated	-12.2392
▁branches	-12.2392
▁Tony	-12.2395
▁tailored	-12.2395
▁supreme	-12.2396
other	-12.24
▁plainly	-12.2401
▁va	-12.2403
room	-12.241
▁relax	-12.2418
type	-12.2422
▁interpreting	-12.2422
ona	-12.2425
▁Implementation	-12.2428
▁correlation	-12.2428
▁Minsk	-12.2428
▁cereal	-12.2428
▁codification	-12.2428
▁infant	-12.243
▁celebrated	-12.2437
23	-12.2438
▁motorways	-12.2443
bert	-12.2446
▁dissidents	-12.2448
nik	-12.2449
ero	-12.2449
▁prohibiting	-12.245
▁soya	-12.2455
service	-12.2457
LE	-12.2459
▁habitats	-12.2461
▁prescribe	-12.2461
▁precautions	-12.2463
▁Maghreb	-12.2466
▁abilities	-12.2466
▁arrogance	-12.2466
▁coffee	-12.2466
▁gravity	-12.2466
▁landmines	-12.2466
▁reproduction	-12.2467
3(	-12.2471
▁denounced	-12.2475
1/2001	-12.2478
▁tightened	-12.2479
▁cleared	-12.2486
uk	-12.2488
▁450	-12.2501
▁Deputy	-12.2504
▁astonishing	-12.2504
▁detract	-12.2504
▁lecture	-12.2504
▁magnitude	-12.2504
▁crash	-12.2504
▁discard	-12.2505
▁mentality	-12.2507
dvisory	-12.251
▁skin	-12.2511
▁Don	-12.2513
▁dreams	-12.2514
cyclical	-12.2514
▁Sub	-12.2522
▁Arms	-12.2529
▁traps	-12.253
▁Kyrgyzstan	-12.2542
▁bolster	-12.2542
▁cheque	-12.2542
▁wife	-12.2542
▁seasonal	-12.2546
8(	-12.2548
▁scare	-12.255
▁crews	-12.2563
ita	-12.2578
▁weigh	-12.2579
▁George	-12.258
▁preamble	-12.258
▁recipe	-12.258
▁sophisticated	-12.258
▁compelled	-12.258
▁scrapping	-12.258
▁Klaus	-12.2581
nar	-12.2581
▁carrier	-12.2582
▁indefinitely	-12.2582
assi	-12.2583
▁wing	-12.2592
▁fluctuations	-12.2592
▁thin	-12.2593
▁obliges	-12.2604
mper	-12.2605
nate	-12.2606
Euro	-12.2611
▁extensively	-12.2616
▁Cunha	-12.2619
▁Maltese	-12.2619
▁Mozambique	-12.2619
▁abstract	-12.2619
▁deletion	-12.2619
▁notorious	-12.2619
stedt	-12.2619
▁tonne	-12.2621
▁waterway	-12.2626
▁Five	-12.2629
ley	-12.2633
▁Roman	-12.2633
FO	-12.2634
▁reversed	-12.2635
care	-12.2641
nia	-12.2643
EGF	-12.265
informed	-12.265
▁exerting	-12.2657
▁Future	-12.2657
▁Tannock	-12.2657
▁corps	-12.2657
▁monies	-12.2657
▁domination	-12.2657
▁magic	-12.2657
▁expelled	-12.2657
89	-12.2659
▁Bos	-12.2661
▁downturn	-12.2661
cost	-12.2663
▁failings	-12.2666
▁1988	-12.2667
▁hostages	-12.2672
▁nutritional	-12.2674
▁Tu	-12.2675
▁Govern	-12.2679
▁encompass	-12.2683
▁commissioners	-12.2683
military	-12.2689
Member	-12.2689
▁scarce	-12.2691
▁rough	-12.2691
▁favouring	-12.2692
▁Gradin	-12.2696
▁Hatzidakis	-12.2696
▁destabilise	-12.2696
▁gratifying	-12.2696
▁revisit	-12.2696
▁tripartite	-12.2696
▁video	-12.2696
▁Lucas	-12.2696
▁bluefin	-12.2696
▁Burg	-12.2696
▁offenders	-12.2697
▁stems	-12.27
▁losers	-12.2701
ock	-12.2705
link	-12.2707
▁sorted	-12.271
▁manifestation	-12.2711
pur	-12.2715
pel	-12.2721
65	-12.2728
rating	-12.273
▁insignificant	-12.2731
▁GATT	-12.2735
▁Kosovar	-12.2735
▁Proposal	-12.2735
▁defensive	-12.2735
▁roaming	-12.2735
▁timid	-12.2735
▁unfavourable	-12.2735
▁terminal	-12.2735
▁12.00	-12.2735
▁Alps	-12.2735
▁owner	-12.2737
▁shortfall	-12.2737
▁vaccine	-12.2738
▁prosecuted	-12.2739
hip	-12.275
▁exercises	-12.2751
▁worded	-12.2752
▁Generally	-12.2752
▁monthly	-12.2753
▁Fo	-12.2755
▁isolate	-12.2769
▁UNHCR	-12.2774
▁invaluable	-12.2774
fledged	-12.2774
▁permissible	-12.2774
▁eastward	-12.2774
▁fin	-12.2775
▁cigarette	-12.2777
▁rebel	-12.2779
▁Ban	-12.278
▁pill	-12.278
-19	-12.2784
▁Vol	-12.2789
read	-12.2793
▁recovered	-12.2795
▁Th	-12.2801
▁compromised	-12.2802
▁commence	-12.2808
rop	-12.2812
▁Goebbels	-12.2813
▁happily	-12.2813
▁tanks	-12.2813
▁reassess	-12.2814
▁totalitarianism	-12.2815
▁omission	-12.2817
arm	-12.2818
▁matches	-12.282
▁teacher	-12.282
▁dictated	-12.282
uri	-12.2822
▁shocks	-12.2823
gress	-12.2832
▁turnout	-12.2833
▁prerequisites	-12.2839
▁officer	-12.284
▁inspect	-12.2844
mission	-12.2845
field	-12.2846
▁geographic	-12.285
▁cleaning	-12.285
▁consequent	-12.285
holders	-12.2851
▁reproach	-12.2853
▁Lambert	-12.2853
▁Schroedter	-12.2853
▁anticipation	-12.2853
▁daughter	-12.2853
▁specifies	-12.2853
▁standstill	-12.2853
▁sympathetic	-12.2853
▁Martens	-12.2853
▁Laos	-12.2854
▁strategically	-12.286
34	-12.2861
▁Gil	-12.2866
▁dealers	-12.2872
▁powerless	-12.2873
▁Comp	-12.2876
▁1.2	-12.2877
▁hormones	-12.2878
cycle	-12.2884
paragraph	-12.2886
▁abstaining	-12.2888
▁prestige	-12.2892
▁unthinkable	-12.2892
▁meanwhile	-12.2892
▁Fava	-12.2893
▁Schr	-12.2894
▁listing	-12.2897
fra	-12.2899
▁censorship	-12.2899
▁comprehensively	-12.2899
▁annexed	-12.291
titu	-12.291
▁Nigerian	-12.2912
▁semi	-12.2916
▁ironic	-12.2918
▁wasting	-12.292
▁throwing	-12.2922
▁72	-12.2923
▁curtail	-12.2924
▁continual	-12.2927
▁CITES	-12.2932
▁Dupuis	-12.2932
▁Helms	-12.2932
▁Trakatellis	-12.2932
▁tired	-12.2932
6-03	-12.2932
▁incoming	-12.2933
▁Product	-12.2936
▁disposed	-12.2939
(5)	-12.294
ature	-12.2943
dra	-12.2944
▁barr	-12.2945
▁rear	-12.295
ada	-12.2951
non	-12.2953
posing	-12.2962
omposition	-12.2962
▁proclaim	-12.2964
▁Bio	-12.2966
▁fibre	-12.2972
▁superficial	-12.2972
▁mercy	-12.2972
▁dissatisfaction	-12.2972
▁River	-12.2973
▁mountains	-12.2978
▁commissioner	-12.2993
ough	-12.2993
▁commented	-12.2997
▁borrow	-12.3
▁sail	-12.3006
▁attentive	-12.3007
▁restructure	-12.3008
vin	-12.3011
▁cyber	-12.3012
▁Belder	-12.3012
▁Mechanism	-12.3012
▁Nicaragua	-12.3012
▁mixture	-12.3012
▁2000/0	-12.3013
▁revolutionary	-12.3013
TS	-12.3014
▁predominantly	-12.3014
▁remembering	-12.3019
▁inflicted	-12.3021
▁bills	-12.3026
29	-12.3027
▁Mor	-12.3043
public	-12.3044
▁eager	-12.3047
▁paradoxical	-12.3047
▁desert	-12.3052
▁Cultural	-12.3052
▁Earth	-12.3052
▁Lancker	-12.3052
▁Piebalgs	-12.3052
▁Welcome	-12.3052
▁substitution	-12.3052
▁multifunctional	-12.3052
▁communism	-12.3053
▁rolling	-12.3054
rew	-12.3055
▁thereof	-12.3056
▁groupings	-12.3058
▁Karl	-12.306
▁corrective	-12.3063
Oil	-12.3066
▁VI	-12.3067
▁definitively	-12.3068
▁flee	-12.3074
lex	-12.3075
▁appointing	-12.3077
ua	-12.3082
word	-12.3082
▁Works	-12.3085
▁son	-12.3088
▁Buzek	-12.3092
▁Cappato	-12.3092
▁cumbersome	-12.3092
▁empire	-12.3092
▁munitions	-12.3092
▁obey	-12.3092
▁rapprochement	-12.3092
▁xenophobic	-12.3092
▁settling	-12.3092
▁fats	-12.3094
▁spiritual	-12.3099
▁Mat	-12.3102
▁sharply	-12.3103
▁reactor	-12.3104
▁proclaimed	-12.3106
cious	-12.3118
▁drinks	-12.312
green	-12.3127
▁insert	-12.3128
▁Port	-12.3132
▁Real	-12.3132
▁envelope	-12.3133
▁Closure	-12.3133
▁Thyssen	-12.3133
▁cloud	-12.3133
▁aspiration	-12.3138
▁accusation	-12.3139
▁misused	-12.3141
ala	-12.3149
▁Decisions	-12.3151
▁Dam	-12.3152
▁criminality	-12.3156
▁waged	-12.3159
▁dock	-12.3163
▁supervise	-12.3169
▁Breyer	-12.3173
▁apologies	-12.3173
▁cabotage	-12.3173
▁discrepancy	-12.3173
▁expiry	-12.3173
▁Eurocontrol	-12.3173
▁Sepp	-12.3174
▁pronounced	-12.3176
▁artificially	-12.3186
▁exempted	-12.3194
competitive	-12.3208
rapporteur	-12.3209
▁invoke	-12.3209
▁irregular	-12.3213
▁proceeds	-12.3213
▁critically	-12.3213
▁Staes	-12.3214
▁eradicating	-12.3214
▁relies	-12.3214
▁transcend	-12.3214
▁uprising	-12.3214
▁Liese	-12.3214
▁flagship	-12.3215
▁mood	-12.3215
▁golden	-12.3215
▁emit	-12.3215
▁Duff	-12.3215
▁Marco	-12.3221
▁shorten	-12.3221
▁Wise	-12.3222
▁fled	-12.3227
▁Bi	-12.3229
▁fixing	-12.3231
▁repeal	-12.3236
ida	-12.3238
▁82	-12.3241
▁relieve	-12.3246
member	-12.3248
▁provoke	-12.325
▁Sam	-12.3253
▁Mexican	-12.3255
▁logistical	-12.3255
▁unrestricted	-12.3255
▁equate	-12.3255
▁divergent	-12.3255
▁Rocard	-12.3255
▁transposing	-12.3255
▁municipalities	-12.3256
▁offshore	-12.3257
▁reactionary	-12.3258
▁lying	-12.3261
▁dismissed	-12.3264
▁forceful	-12.3265
▁sin	-12.3269
1999	-12.3275
hle	-12.3276
products	-12.3281
rous	-12.3284
Mr	-12.3285
▁pen	-12.3288
▁rebels	-12.3293
EE	-12.3293
▁transporting	-12.3295
▁Eurobarometer	-12.3296
▁Sellafield	-12.3296
▁influential	-12.3296
▁jump	-12.3296
▁revival	-12.3296
▁pray	-12.3296
▁dispel	-12.3297
▁signatory	-12.3297
▁belt	-12.3302
sessions	-12.3303
▁abstention	-12.3303
▁renounce	-12.3304
▁outgoing	-12.3313
▁conceived	-12.3317
▁collapsed	-12.3318
98)	-12.3324
fly	-12.333
credit	-12.3332
under	-12.3337
▁Genoa	-12.3337
▁acquiring	-12.3337
▁reorganisation	-12.3337
▁residing	-12.3337
▁unscrupulous	-12.3337
▁acid	-12.3338
▁pattern	-12.3345
▁Drug	-12.3345
▁globalization	-12.3348
▁(1	-12.3349
▁constructing	-12.3356
▁interrupt	-12.3365
▁phases	-12.3373
terrorist	-12.3375
fraud	-12.3375
▁Catalan	-12.3379
▁Katiforis	-12.3379
▁Strategic	-12.3379
▁hurt	-12.3379
▁liberation	-12.3379
▁portray	-12.3379
▁stereotypes	-12.3379
▁surge	-12.3379
▁Negotiations	-12.3379
▁Visa	-12.338
▁nominated	-12.3381
▁Pope	-12.3389
▁jeopardised	-12.3393
2004	-12.3397
tz	-12.3398
▁71	-12.3401
▁reacting	-12.3407
▁Peru	-12.3408
▁lasted	-12.3408
▁suspending	-12.341
▁pictures	-12.341
▁emotion	-12.3412
▁embarrassing	-12.3421
aladministration	-12.3421
▁ceremony	-12.3421
▁horrendous	-12.3421
▁inalienable	-12.3421
▁umbrella	-12.3421
▁unwanted	-12.3421
▁81	-12.3421
(1999)	-12.3421
▁spur	-12.3426
rez	-12.3426
▁invention	-12.3429
▁governmental	-12.3429
▁eggs	-12.3429
▁rendered	-12.3438
▁freed	-12.3441
▁Had	-12.3441
PR	-12.3443
▁differential	-12.3444
▁ample	-12.3446
spot	-12.3452
▁assumes	-12.3454
▁Weber	-12.3457
polluter	-12.3458
▁superior	-12.3462
▁Congratulations	-12.3462
▁Edinburgh	-12.3462
▁Increasing	-12.3462
▁Nicholson	-12.3462
▁concise	-12.3462
▁intermediaries	-12.3462
▁vertical	-12.3463
▁Tibetans	-12.3463
cla	-12.3465
▁bow	-12.3465
▁formalities	-12.3466
▁ERDF	-12.3474
▁directorate	-12.3476
▁portion	-12.3483
▁slaughtered	-12.349
▁FTA	-12.3493
▁instruct	-12.3494
▁actor	-12.3498
kov	-12.3499
▁unify	-12.35
limit	-12.3502
▁1985	-12.3505
▁Diamantopoulou	-12.3505
▁abduction	-12.3505
▁laboratories	-12.3505
▁presumably	-12.3505
▁index	-12.3505
▁handing	-12.3506
▁transplantation	-12.3506
▁ears	-12.3508
▁cows	-12.3508
▁rightful	-12.3509
▁Add	-12.3511
sea	-12.3519
ura	-12.3526
▁specifying	-12.3529
▁earthquakes	-12.3531
▁Heading	-12.3543
▁campaigning	-12.3543
▁bread	-12.3546
▁Journal	-12.3546
idi	-12.3547
▁Turks	-12.3547
▁avian	-12.3547
evi	-12.3549
▁Independence	-12.355
▁deteriorated	-12.355
▁provoked	-12.3552
▁counted	-12.3556
▁infringed	-12.3558
▁EEAS	-12.356
▁posted	-12.3561
2003)	-12.3563
▁69	-12.3571
▁illusions	-12.3572
0(	-12.3576
▁physically	-12.3579
bor	-12.358
▁Tel	-12.358
mile	-12.358
▁rival	-12.3589
▁Platform	-12.3589
▁appraisal	-12.3589
▁disparity	-12.3589
▁reassuring	-12.3589
▁invalid	-12.3589
▁evolving	-12.3589
▁Perry	-12.359
▁Making	-12.359
▁excesses	-12.3594
▁77	-12.3594
▁ran	-12.3598
▁converted	-12.3601
▁utilised	-12.3602
IP	-12.3604
▁realm	-12.3611
▁opting	-12.3613
▁oceans	-12.3613
ax	-12.3617
▁Guidelines	-12.3632
▁Habsburg	-12.3632
▁Space	-12.3632
▁flesh	-12.3632
▁lobbies	-12.3632
Burton	-12.3632
Fraud	-12.3632
▁employability	-12.3632
▁transmit	-12.3632
▁Anna	-12.3634
▁hardship	-12.3634
▁fruits	-12.3636
▁surrounded	-12.3636
▁interrupted	-12.364
(2000)	-12.3646
euro	-12.3649
awaited	-12.3654
▁waited	-12.3664
▁Wurtz	-12.3674
▁nominal	-12.3675
▁permitting	-12.3677
▁polluted	-12.3678
▁Brazilian	-12.3678
▁invoked	-12.3679
▁formerly	-12.3681
▁widen	-12.3681
▁Bra	-12.3682
▁tip	-12.3685
▁photograph	-12.3689
▁clarifications	-12.369
91	-12.3698
gri	-12.3699
▁geo	-12.37
trans	-12.3701
range	-12.3709
employment	-12.3713
▁Stalin	-12.3714
▁Holland	-12.3717
▁leisure	-12.3717
▁verified	-12.3717
▁yardstick	-12.3717
▁cornerstones	-12.3717
▁forbidden	-12.3717
▁Point	-12.3718
▁underground	-12.3722
2000)	-12.3725
ima	-12.3725
saving	-12.3726
▁Interior	-12.373
▁exchanged	-12.3732
▁closures	-12.3737
▁presupposes	-12.3737
▁variations	-12.3747
▁Vall	-12.3747
▁prohibits	-12.3754
▁Guantanamo	-12.376
▁McCarthy	-12.376
▁Solbes	-12.376
▁plastic	-12.376
▁random	-12.376
▁teeth	-12.376
▁undue	-12.376
▁childhood	-12.3762
▁refund	-12.377
▁reassured	-12.3775
▁auto	-12.3778
grad	-12.3797
▁Gy	-12.3797
Rapporteur	-12.3801
flow	-12.3802
▁constituted	-12.3803
▁Gaddafi	-12.3804
▁Munich	-12.3804
▁Rasmussen	-12.3804
▁legitimise	-12.3804
▁sterling	-12.3804
▁endorsing	-12.3804
▁95%	-12.3805
▁alignment	-12.3805
▁35%	-12.3806
▁Rapporteur	-12.3806
▁chains	-12.3811
▁enacted	-12.3815
▁broadest	-12.3817
treatment	-12.3819
▁metals	-12.3828
▁rumours	-12.3833
▁fun	-12.3834
▁disagreements	-12.3835
▁conveyed	-12.3836
▁entrust	-12.3839
▁attribute	-12.3842
Atlantic	-12.3845
bound	-12.3846
▁Kauppi	-12.3847
▁Sacconi	-12.3847
▁harness	-12.3847
▁inconceivable	-12.3847
▁infectious	-12.3847
▁unsuccessful	-12.3847
▁interdependence	-12.3847
▁franc	-12.3847
▁joke	-12.3847
▁overturn	-12.3848
▁unbalanced	-12.3849
ean	-12.3858
▁intervened	-12.3883
▁subsidise	-12.3886
▁potato	-12.3889
ordinate	-12.3889
▁writer	-12.3891
▁1986	-12.3891
▁announcing	-12.3891
▁restaurant	-12.3891
▁salute	-12.3891
▁amazed	-12.3891
▁litre	-12.3891
▁distrust	-12.3891
▁clever	-12.3891
5-06	-12.3893
▁oppressed	-12.3897
▁bind	-12.3898
▁12%	-12.39
LV	-12.39
▁homosexual	-12.3902
▁lapse	-12.3904
▁cry	-12.3909
▁outbreaks	-12.3909
itude	-12.391
start	-12.3914
▁progressed	-12.3927
▁documented	-12.3929
production	-12.3932
▁hurdle	-12.3935
▁Immigration	-12.3935
▁fortune	-12.3935
▁raft	-12.3935
▁underpinning	-12.3937
▁wholesale	-12.3937
▁expired	-12.3938
▁Whereas	-12.394
hearted	-12.3941
longside	-12.3944
▁Gill	-12.3947
▁Maes	-12.3947
▁appropriation	-12.3947
▁argues	-12.3948
▁finalise	-12.3948
keeper	-12.3957
gan	-12.3961
ngel	-12.3968
▁geographically	-12.3975
▁Maria	-12.3979
▁Giscard	-12.3979
▁Madagascar	-12.3979
▁Varela	-12.3979
▁Veterinar	-12.3979
▁accuracy	-12.3979
▁clarifies	-12.3979
▁doubling	-12.3979
▁falsified	-12.3979
▁nurses	-12.3979
▁vigour	-12.3979
▁0.7%	-12.3979
▁Undertaking	-12.3979
▁Han	-12.3983
▁bond	-12.3992
gas	-12.3999
▁delegates	-12.4001
Co	-12.4001
▁Iron	-12.4001
▁clock	-12.4004
nterim	-12.4006
▁87	-12.4012
▁diplomas	-12.4017
▁rock	-12.4022
-2006	-12.4022
▁Administrative	-12.4023
▁Fraga	-12.4023
▁Manuel	-12.4023
▁astonished	-12.4023
▁stagnation	-12.4023
▁devising	-12.4023
▁Maij	-12.4023
▁Disease	-12.4023
▁credentials	-12.4023
▁enrichment	-12.4024
▁comfortable	-12.4024
▁Schmidt	-12.4025
▁dust	-12.4027
▁commonly	-12.4033
CR	-12.4042
elect	-12.4054
▁ecologically	-12.4055
▁excludes	-12.4057
▁98	-12.4059
▁advisers	-12.4061
region	-12.4061
▁Observatory	-12.4067
▁Respect	-12.4067
▁asymmetric	-12.4067
▁speculators	-12.4067
▁thirteen	-12.4067
Weggen	-12.4067
▁stoning	-12.4067
▁truck	-12.4068
tax	-12.409
sufficient	-12.4097
▁endeavoured	-12.4106
2000	-12.4108
continuation	-12.4111
binding	-12.4111
▁Especially	-12.4112
▁Kroes	-12.4112
▁dirty	-12.4112
▁sympathise	-12.4112
▁boom	-12.4113
▁nationalities	-12.4115
▁annexes	-12.4117
▁dire	-12.4122
▁mindful	-12.4123
▁lifetime	-12.4126
▁predecessors	-12.4127
ama	-12.413
eck	-12.4139
▁caring	-12.414
▁complaining	-12.414
▁prisoner	-12.4143
▁strengths	-12.4143
treated	-12.4146
▁Look	-12.4146
▁founder	-12.4151
legislator	-12.4155
Israel	-12.4156
▁Election	-12.4157
▁Istanbul	-12.4157
▁embassies	-12.4157
▁rejoice	-12.4157
▁verbal	-12.4157
▁pound	-12.4157
▁gay	-12.4158
ching	-12.4159
▁cage	-12.4162
▁99	-12.4164
▁enhancement	-12.4166
▁dozen	-12.4172
▁headlines	-12.4174
▁bath	-12.4175
▁notify	-12.4184
▁matched	-12.4186
▁accounted	-12.4188
stop	-12.4189
▁filling	-12.4192
▁Mag	-12.4196
seekers	-12.4201
▁boast	-12.4202
▁henceforth	-12.4202
▁inconsistencies	-12.4202
▁justifiably	-12.4202
▁misguided	-12.4202
▁perverse	-12.4202
▁spokesman	-12.4202
▁kidnapping	-12.4202
▁MPs	-12.4202
▁pit	-12.4204
▁pipelines	-12.4205
▁lodged	-12.4205
▁biased	-12.4207
▁Kr	-12.4213
▁comprise	-12.4217
▁oldest	-12.422
spir	-12.422
▁wh	-12.4222
ava	-12.4224
▁FP	-12.4225
▁depriv	-12.4229
▁Vote	-12.4237
▁delight	-12.4242
live	-12.4242
▁enshrine	-12.4243
▁differentiate	-12.4243
miss	-12.4244
ntegrated	-12.4247
▁Chichester	-12.4247
▁Lagendijk	-12.4247
▁apparatus	-12.4247
▁bottle	-12.4247
▁conceivable	-12.4247
▁custody	-12.4247
▁holistic	-12.4247
▁reassurance	-12.4247
▁squander	-12.4247
▁upheaval	-12.4247
▁Ramos	-12.4247
▁Rhine	-12.4247
Robles	-12.4247
▁blacklist	-12.4248
▁correspondence	-12.4248
▁dictatorial	-12.4248
▁properties	-12.425
▁retailers	-12.425
▁devot	-12.4251
▁sweeping	-12.4255
change	-12.4257
▁deriv	-12.4258
▁cooperated	-12.4259
▁hanging	-12.4261
▁Iraqis	-12.4266
▁900	-12.4266
▁attained	-12.4268
taining	-12.4273
pit	-12.4276
▁logically	-12.4277
▁shipments	-12.4288
position	-12.429
cultural	-12.4291
Article	-12.4292
9/2001	-12.4292
▁jungle	-12.4293
Claude	-12.4293
▁Abbas	-12.4293
▁episode	-12.4293
▁guarantor	-12.4293
▁inflexible	-12.4293
▁mirror	-12.4293
▁opportune	-12.4293
▁rectified	-12.4293
▁sensibly	-12.4293
▁indulge	-12.4293
▁Opel	-12.4293
▁quoting	-12.4293
▁tyres	-12.4296
▁printed	-12.4299
▁su	-12.4301
▁politic	-12.4306
pez	-12.4317
▁disputed	-12.4332
weight	-12.4333
75	-12.4337
commercial	-12.4338
ealand	-12.4338
▁ACTA	-12.4338
▁Tajikistan	-12.4338
▁Voluntary	-12.4338
▁bizarre	-12.4338
▁nightmare	-12.4338
▁unpunished	-12.4338
▁unquestionably	-12.4338
Estaing	-12.4338
▁Congolese	-12.4338
▁revert	-12.4342
▁catering	-12.4346
▁nationally	-12.435
▁hormone	-12.4355
eva	-12.4358
▁Islamist	-12.4358
▁revealing	-12.4362
road	-12.4363
▁streamline	-12.438
card	-12.4382
▁Flanders	-12.4384
▁Flynn	-12.4384
▁Monterrey	-12.4384
▁dishonest	-12.4384
▁dismay	-12.4384
▁ICC	-12.4384
▁intact	-12.4384
▁Rossa	-12.4384
▁brink	-12.4384
▁morally	-12.4385
▁wearing	-12.4386
▁optimis	-12.4387
▁mail	-12.4387
▁Camp	-12.4388
▁distributors	-12.4395
▁quant	-12.4417
ony	-12.4422
▁utilise	-12.4426
▁experimental	-12.4427
tel	-12.4429
▁blank	-12.4429
▁Regulator	-12.443
▁Ribeiro	-12.443
▁UNESCO	-12.443
▁carpet	-12.443
▁disclose	-12.443
▁peak	-12.443
▁cutbacks	-12.443
▁Schuman	-12.443
▁versa	-12.443
▁Coordination	-12.4431
▁Roure	-12.4431
▁Fair	-12.4433
ultiannual	-12.4434
ira	-12.4438
▁Borders	-12.4446
▁mount	-12.4466
rich	-12.4467
▁Colom	-12.4477
▁Reference	-12.4477
▁adequacy	-12.4477
▁commensurate	-12.4477
▁degrading	-12.4477
▁dementia	-12.4477
▁enlarging	-12.4477
▁revitalise	-12.4477
▁unforeseen	-12.4477
▁greed	-12.4477
▁aegis	-12.4477
▁superstate	-12.4477
SMEs	-12.4477
▁Eight	-12.4478
▁broadcasters	-12.4479
▁Reduc	-12.4481
▁marketplace	-12.4484
▁clearance	-12.4487
▁rewarded	-12.4494
▁Governor	-12.4495
▁handful	-12.4497
33	-12.4498
▁applauded	-12.4505
▁educate	-12.4518
▁Alavanos	-12.4523
▁Budapest	-12.4523
▁Busquin	-12.4523
▁Galeote	-12.4523
▁Naples	-12.4523
▁diamond	-12.4523
▁communicating	-12.4523
▁distract	-12.4523
▁advent	-12.4524
▁marginalisation	-12.4525
var	-12.4538
▁125	-12.454
▁Eco	-12.4542
▁scrutinise	-12.4565
▁residues	-12.4567
▁husband	-12.4569
▁Channel	-12.457
▁Facility	-12.457
▁combustion	-12.457
▁consular	-12.457
▁default	-12.457
▁efficacy	-12.457
▁squeez	-12.457
▁ICAO	-12.457
▁spark	-12.457
▁persistence	-12.457
▁Louis	-12.4571
▁accumulated	-12.4572
▁WEU	-12.4573
djournment	-12.4576
▁sentiment	-12.4588
place	-12.4593
ease	-12.4595
▁170	-12.4597
▁73	-12.4601
-2010	-12.4604
▁compel	-12.4616
▁contravention	-12.4617
▁veritable	-12.4617
▁optimal	-12.4617
▁Morgan	-12.4617
▁vein	-12.4617
▁Pensioners	-12.4617
▁Dayton	-12.4618
4-05	-12.4618
ime	-12.4619
▁compiled	-12.462
ranking	-12.4633
▁warrants	-12.4638
opt	-12.4639
▁7%	-12.464
▁Bor	-12.4641
31	-12.4645
lock	-12.465
▁lapses	-12.465
▁pack	-12.4652
▁presidents	-12.4652
▁shaped	-12.4652
unit	-12.4652
▁Romano	-12.4655
▁marriages	-12.4662
government	-12.4663
Bissau	-12.4664
administrat	-12.4664
▁convenient	-12.4664
▁homophobia	-12.4664
▁laboratory	-12.4664
▁levies	-12.4664
▁requisite	-12.4664
▁reversal	-12.4664
▁stubborn	-12.4664
▁courtesy	-12.4664
▁Bavaria	-12.4664
ena	-12.4667
▁homeless	-12.4668
▁Land	-12.4671
▁91	-12.4671
▁Christianity	-12.4672
dding	-12.4675
uality	-12.4675
▁expires	-12.4678
▁Schmid	-12.4678
rag	-12.4689
▁Kok	-12.4694
▁fourthly	-12.4694
▁adjusting	-12.4696
▁consign	-12.4703
▁Estonian	-12.4706
▁disappearing	-12.4706
▁calculate	-12.4707
▁breached	-12.4711
▁commemorate	-12.4711
▁opium	-12.4711
▁streamlining	-12.4711
▁Equator	-12.4711
▁lump	-12.4711
▁Verification	-12.4712
▁Orden	-12.4712
▁widest	-12.4722
▁deduct	-12.4728
▁reconciled	-12.4728
▁hectare	-12.4731
▁mineral	-12.4732
▁majorities	-12.4733
▁Macedonian	-12.4734
▁Sc	-12.4734
▁stall	-12.4735
▁Wi	-12.474
▁respectful	-12.4742
▁protesting	-12.4744
uous	-12.4751
▁prosecute	-12.4754
Proliferation	-12.4759
▁Deprez	-12.4759
▁Paasilinna	-12.4759
▁Renault	-12.4759
▁TRIPS	-12.4759
▁pivotal	-12.4759
▁practicable	-12.4759
▁stolen	-12.4759
▁outlining	-12.4759
▁uneven	-12.4759
▁admissible	-12.4759
▁Railway	-12.4759
▁cabinet	-12.476
▁ECJ	-12.476
▁Scandinavian	-12.4761
▁alliances	-12.477
▁129	-12.4772
▁bottlenecks	-12.4775
▁drag	-12.4776
▁armaments	-12.4776
▁lur	-12.4777
▁ceased	-12.4782
▁burn	-12.4785
▁blamed	-12.4791
egislative	-12.4797
▁attracting	-12.4797
▁Compar	-12.4803
▁wholehearted	-12.4806
▁Precisely	-12.4807
▁hesitant	-12.4807
▁questionnaire	-12.4807
▁severity	-12.4807
▁MAI	-12.4807
▁guise	-12.4807
▁crux	-12.4807
▁underpinned	-12.4807
▁apt	-12.4808
graphic	-12.4808
culture	-12.4809
fighting	-12.4817
▁EIT	-12.4819
▁hell	-12.4821
▁praised	-12.4829
pass	-12.4833
▁prejudices	-12.4834
02)	-12.4839
▁waive	-12.4841
pped	-12.4844
▁simultaneous	-12.485
▁kindly	-12.4852
valuation	-12.4852
▁sink	-12.4855
▁shrink	-12.4855
▁Already	-12.4855
▁Gargani	-12.4855
▁arrogant	-12.4855
▁elephant	-12.4855
▁enquiry	-12.4855
▁LEADER	-12.4855
▁Provid	-12.4855
▁ITER	-12.4855
▁boil	-12.4855
▁Maaten	-12.4855
▁Grand	-12.4857
tariff	-12.4857
driven	-12.4857
▁invade	-12.4863
▁Togo	-12.4867
genic	-12.4869
▁endure	-12.4873
▁ocean	-12.4876
▁Was	-12.4881
▁76	-12.4882
bon	-12.4893
▁victor	-12.4901
esumption	-12.4903
▁strip	-12.4903
▁greet	-12.4903
▁Blue	-12.4903
▁Linkohr	-12.4903
▁Mundus	-12.4903
▁Papayannakis	-12.4903
▁Peijs	-12.4903
▁accumulation	-12.4903
▁babies	-12.4903
▁irrational	-12.4903
▁pedestrian	-12.4903
▁recreational	-12.4903
▁renovation	-12.4903
▁varieties	-12.4903
▁ferry	-12.4903
▁Weiler	-12.4903
▁biogas	-12.4903
▁beaten	-12.4903
union	-12.4906
bri	-12.4907
▁liberalism	-12.4909
▁Often	-12.491
▁healthier	-12.4918
94/	-12.4918
enthusiastically	-12.4928
▁maps	-12.4942
▁distorting	-12.4946
ordination	-12.4951
▁tolls	-12.4952
▁Diamandouros	-12.4952
▁Effective	-12.4952
▁Turmes	-12.4952
▁authoritative	-12.4952
▁provocative	-12.4952
▁ruthless	-12.4952
▁wheat	-12.4952
▁Promot	-12.4952
▁deserved	-12.4952
▁MEDIA	-12.4952
▁unpaid	-12.4953
sky	-12.4954
▁selfish	-12.4958
▁79	-12.4962
▁Less	-12.4969
▁ambassador	-12.4974
third	-12.4978
43	-12.4982
▁additionality	-12.4982
▁confronting	-12.4986
▁tenders	-12.4991
well	-12.4991
▁Explanation	-12.4991
▁weighting	-12.4992
▁Campania	-12.5001
▁Lynne	-12.5001
▁Spencer	-12.5001
▁Tomlinson	-12.5001
▁deputy	-12.5001
▁juvenile	-12.5001
▁observatory	-12.5001
▁perpetuate	-12.5001
▁redouble	-12.5001
▁simplistic	-12.5001
▁Fiji	-12.5001
▁dissent	-12.5001
▁Unemployment	-12.5001
▁Auto	-12.5001
▁proposition	-12.5001
ampton	-12.5001
▁UKIP	-12.5001
▁cruelty	-12.5001
▁tide	-12.5002
–	-12.5002
▁parity	-12.5003
distance	-12.5003
handling	-12.5005
CAP	-12.5005
▁enforceable	-12.5005
▁eel	-12.5008
▁metal	-12.5008
▁unambiguously	-12.5012
▁prolonged	-12.5013
▁rent	-12.5016
▁translations	-12.5018
▁hampered	-12.5018
▁defeated	-12.502
▁pressed	-12.5021
28	-12.5022
▁designations	-12.5032
▁Particular	-12.5045
rel	-12.5045
▁reinstate	-12.5045
▁shoes	-12.5048
▁Brenner	-12.505
▁Davies	-12.505
▁eighteen	-12.505
▁persuasion	-12.505
▁untenable	-12.505
▁Warsaw	-12.505
▁amazing	-12.505
▁haulage	-12.505
▁boys	-12.5052
▁Mov	-12.5053
▁1987	-12.5057
▁Cha	-12.506
▁Dan	-12.5062
▁conversations	-12.5065
▁brutally	-12.5069
▁costing	-12.5071
▁recruit	-12.5079
ello	-12.5084
▁Ku	-12.5093
▁Bru	-12.5095
▁dragg	-12.5096
▁satisfying	-12.5097
ught	-12.5099
▁Gollnisch	-12.5099
▁audience	-12.5099
▁cyanide	-12.5099
▁geography	-12.5099
▁primacy	-12.5099
▁pirate	-12.5099
▁frustrated	-12.5101
profit	-12.5103
▁aeroplanes	-12.5105
▁speeded	-12.5111
▁sufferers	-12.5112
▁custom	-12.5118
▁rotat	-12.514
▁interlocutor	-12.5148
▁EFD	-12.5148
▁Echelon	-12.5148
▁Fukushima	-12.5148
▁Kabul	-12.5148
▁Nowadays	-12.5148
▁cadmium	-12.5148
▁constituencies	-12.5148
▁savage	-12.5148
▁sweet	-12.5148
▁drown	-12.5148
▁Project	-12.5148
▁Army	-12.5149
ken	-12.5149
▁Thors	-12.5149
▁residential	-12.5149
▁Long	-12.515
▁unitary	-12.515
▁interception	-12.515
ole	-12.515
▁impartiality	-12.515
▁retraining	-12.5152
▁realistically	-12.5152
institutional	-12.5154
▁disorders	-12.5155
▁115	-12.5157
▁pioneering	-12.516
▁recalling	-12.516
▁remainder	-12.5162
ori	-12.5173
▁Shi	-12.5173
▁externally	-12.5178
▁weekly	-12.518
▁persists	-12.5181
▁Open	-12.5188
ception	-12.5189
▁compliments	-12.5195
ermanent	-12.5198
▁peculiar	-12.5198
▁Gallagher	-12.5198
▁Thomas	-12.5198
▁appliances	-12.5198
▁vicinity	-12.5198
▁relentless	-12.5198
▁tolerant	-12.5198
▁casualties	-12.5198
▁Markov	-12.5198
▁exhibition	-12.52
▁cord	-12.5201
▁dismantled	-12.5205
▁unfairly	-12.5206
▁rotation	-12.5206
▁1.1	-12.521
▁entitlements	-12.522
▁rank	-12.5227
▁relocate	-12.5243
▁flaws	-12.5245
examine	-12.5248
stone	-12.5248
Semitism	-12.5248
▁Hitler	-12.5248
▁Ottawa	-12.5248
▁URBAN	-12.5248
▁VOTE	-12.5248
▁accelerating	-12.5248
▁inherited	-12.5248
▁insecure	-12.5248
▁monument	-12.5248
▁plague	-12.5248
▁undeniably	-12.5248
6/2001	-12.5248
▁Meeting	-12.5248
▁trample	-12.5248
▁Casaca	-12.5248
8/2001	-12.525
▁federalism	-12.5252
rooted	-12.5252
▁halfway	-12.5254
▁professionalism	-12.526
▁tree	-12.5274
▁republic	-12.5275
▁symptoms	-12.5276
lly	-12.5278
▁ride	-12.5282
▁Moldovan	-12.5286
▁multicultural	-12.5286
▁pioneer	-12.5287
▁empower	-12.529
▁imagined	-12.5291
▁organize	-12.5294
▁guilt	-12.5296
▁skilful	-12.5298
▁Bologna	-12.5298
▁conclusive	-12.5298
▁gauge	-12.5298
▁scratch	-12.5298
▁suffrage	-12.5298
▁triangle	-12.5298
▁Bonde	-12.5298
▁fourteen	-12.5298
MDG	-12.5298
▁tractors	-12.5298
▁Moura	-12.5299
▁deferred	-12.5299
▁counterpart	-12.5299
▁slowdown	-12.5299
▁encompasses	-12.5301
chair	-12.5305
▁Ob	-12.5311
▁Membership	-12.5317
▁delegate	-12.532
▁Eurobonds	-12.5349
▁Jensen	-12.5349
▁Macao	-12.5349
▁Montreal	-12.5349
▁legislating	-12.5349
▁paternity	-12.5349
▁prudence	-12.5349
▁reiterating	-12.5349
▁terminology	-12.5349
▁unbundling	-12.5349
▁stifle	-12.5349
5/2001	-12.5349
▁objectivity	-12.5349
▁sister	-12.5349
▁1967	-12.5349
▁complicity	-12.535
▁1960	-12.535
▁dividend	-12.535
▁1950	-12.5351
▁alcoholic	-12.5354
▁discovery	-12.5356
▁supermarkets	-12.5361
▁compounds	-12.5362
▁160	-12.5362
▁twofold	-12.5364
face	-12.5364
▁calmly	-12.5365
RI	-12.5374
tier	-12.5375
door	-12.5379
▁centred	-12.5382
▁Current	-12.5395
▁counsel	-12.54
▁emigration	-12.54
▁fertiliser	-12.54
▁intensification	-12.54
▁measurable	-12.54
▁precision	-12.54
▁starvation	-12.54
▁pause	-12.54
▁bureaucrats	-12.54
▁erect	-12.54
▁restart	-12.5404
▁fastest	-12.5405
prepared	-12.5405
▁dating	-12.5405
▁merge	-12.5413
▁storms	-12.5413
(2002)	-12.5413
legislative	-12.5415
▁purchased	-12.5419
▁broadening	-12.5422
▁pesticide	-12.5426
▁ambassadors	-12.5427
▁tendering	-12.5428
▁assign	-12.5439
▁Hall	-12.5441
▁militari	-12.5446
▁149(8))	-12.5451
▁Borrell	-12.5451
▁Frankly	-12.5451
▁NUTS	-12.5451
▁Purvis	-12.5451
▁Tindemans	-12.5451
▁attributable	-12.5451
▁vodka	-12.5451
▁stark	-12.5451
▁Kohl	-12.5451
▁poet	-12.5451
▁doomed	-12.5451
▁earnings	-12.5451
▁incitement	-12.5452
▁feedback	-12.5452
▁punishable	-12.5453
source	-12.5455
▁boxes	-12.5455
▁inserted	-12.546
▁provinces	-12.5462
▁atomic	-12.5464
▁upgrade	-12.5465
▁restate	-12.5477
▁Ros	-12.5479
mplementing	-12.5483
▁carers	-12.5484
▁succession	-12.5487
6/97	-12.5488
▁contributor	-12.5492
▁Ste	-12.5492
▁emotions	-12.5492
▁complicate	-12.5497
▁motivate	-12.5497
▁testify	-12.55
▁proceeded	-12.5501
▁Caudron	-12.5502
▁INTERREG	-12.5502
▁Tamil	-12.5502
▁admirable	-12.5502
▁apportion	-12.5502
▁circus	-12.5502
▁glaring	-12.5502
▁hauliers	-12.5502
▁meagre	-12.5502
▁vitamin	-12.5502
▁Still	-12.5503
▁importation	-12.5509
▁spared	-12.5516
▁resigned	-12.5516
migr	-12.5517
▁Patr	-12.5519
59	-12.5521
8/97	-12.5524
▁portal	-12.5525
▁declined	-12.553
▁phones	-12.5531
▁Pol	-12.5534
▁redefine	-12.5541
▁slots	-12.5543
RT	-12.555
▁shifted	-12.555
▁scenes	-12.5551
▁97	-12.5552
▁1979	-12.5553
▁Ahern	-12.5553
▁Keyser	-12.5553
▁compromising	-12.5553
▁equation	-12.5553
▁inconvenience	-12.5553
▁influencing	-12.5553
▁shark	-12.5553
▁underlining	-12.5553
▁foolish	-12.5554
▁cement	-12.5554
▁resorting	-12.5554
▁resounding	-12.5554
▁denies	-12.5555
▁cheat	-12.5557
Palestinian	-12.5559
▁mono	-12.5561
▁Kof	-12.5564
▁exporter	-12.5571
▁troubled	-12.5576
▁genes	-12.5577
▁prerogative	-12.5582
you	-12.5582
▁punishing	-12.5584
constitution	-12.5585
▁planting	-12.5591
eh	-12.5592
▁trail	-12.5604
▁lunch	-12.5605
▁Schmitt	-12.5605
▁elapsed	-12.5605
▁guerrilla	-12.5605
▁outweigh	-12.5605
▁phthalates	-12.5605
▁preceding	-12.5605
▁reprehensible	-12.5605
▁unhealthy	-12.5605
▁Ceders	-12.5605
▁Migu	-12.5605
▁Euromed	-12.5607
▁Waste	-12.5609
▁COP	-12.561
▁uniformity	-12.5615
▁89	-12.5618
dia	-12.5621
void	-12.5624
▁watched	-12.5634
▁bird	-12.5634
▁Terr	-12.5635
▁employs	-12.5636
reading	-12.5643
▁enlighten	-12.5649
▁accustomed	-12.5657
▁Instance	-12.5657
▁bury	-12.5657
2/2001	-12.5659
▁cultivated	-12.566
▁telecoms	-12.5663
disciplinary	-12.5664
health	-12.5664
usz	-12.5664
SC	-12.5674
adi	-12.5677
▁Fran	-12.5679
▁regulator	-12.5684
▁holder	-12.569
▁Languages	-12.5691
▁fortress	-12.5691
▁Christ	-12.5692
berg	-12.5697
▁recovering	-12.5698
▁abstentions	-12.5701
▁Mark	-12.5708
▁Kov	-12.5709
biotechnological	-12.571
▁Simpson	-12.571
▁depressing	-12.571
▁inconsistency	-12.571
▁lucrative	-12.571
▁nitrogen	-12.571
▁Norwegian	-12.571
▁magazine	-12.571
▁Bertens	-12.571
▁obsession	-12.571
▁repayment	-12.5714
▁Duma	-12.5715
▁trademark	-12.5716
▁175	-12.5716
fits	-12.5717
▁avoidance	-12.5722
avi	-12.5737
▁motive	-12.574
▁technique	-12.574
▁entitlement	-12.574
▁descend	-12.5741
nsch	-12.5743
▁74	-12.5753
2003	-12.5757
▁Enterprise	-12.5762
▁Liechtenstein	-12.5762
▁Sarajevo	-12.5762
▁Uruguay	-12.5762
▁bovine	-12.5762
▁compatriot	-12.5762
▁destabilising	-12.5762
▁devastation	-12.5762
▁illiteracy	-12.5762
▁spatial	-12.5762
▁terribly	-12.5762
▁unbridled	-12.5762
▁Large	-12.5762
▁veal	-12.5762
Scott	-12.5763
▁invented	-12.5763
7/2001	-12.5764
rom	-12.5765
▁dismissal	-12.5766
▁frightening	-12.5766
▁92/	-12.5766
origin	-12.577
vit	-12.5779
▁complained	-12.5784
▁defender	-12.5788
imbabwean	-12.5798
▁divert	-12.5808
▁Account	-12.5815
▁Andalusia	-12.5815
▁Catania	-12.5815
▁Eurlings	-12.5815
▁analytical	-12.5815
▁sanitation	-12.5815
▁scanners	-12.5815
▁separatist	-12.5815
▁atypical	-12.5815
▁Though	-12.5815
▁omitted	-12.5815
▁Confederation	-12.5816
▁loyalty	-12.5816
3/2001	-12.5816
▁Seven	-12.5816
▁recycled	-12.5818
▁Developing	-12.5818
▁Parish	-12.5818
sensitive	-12.5822
energy	-12.5822
▁137	-12.5829
rant	-12.5829
▁hazards	-12.5833
page	-12.5833
eye	-12.5835
▁Mari	-12.5837
▁hindered	-12.584
▁suits	-12.584
▁tense	-12.5843
▁hat	-12.5844
▁deadly	-12.5846
▁embryo	-12.5846
0,000	-12.5848
▁complainant	-12.585
▁planes	-12.5857
▁culturally	-12.5858
▁retreat	-12.5861
▁disseminate	-12.5864
▁1.3	-12.5864
aligned	-12.5865
▁withstand	-12.5866
▁architect	-12.5868
▁Ferreira	-12.5868
▁Muscardini	-12.5868
▁Passenger	-12.5868
▁footwear	-12.5868
▁humiliation	-12.5868
▁ministries	-12.5868
▁polite	-12.5868
▁populism	-12.5868
▁scapegoat	-12.5868
▁behaving	-12.5868
▁Subcommittee	-12.5868
▁immoral	-12.5868
▁herald	-12.5868
▁bright	-12.587
▁bogg	-12.587
4-06	-12.5871
4/2001	-12.5872
▁theatre	-12.5873
▁volunteering	-12.5875
▁diminishing	-12.5886
▁Pat	-12.5887
ground	-12.5895
▁Statements	-12.5897
▁motorway	-12.5902
▁ideally	-12.5904
▁feat	-12.5922
-97/0	-12.5922
Television	-12.5922
▁Beyond	-12.5922
▁Migration	-12.5922
▁tachograph	-12.5922
▁knee	-12.5922
▁axis	-12.5922
0/2001	-12.5923
▁Andean	-12.5924
▁interconnected	-12.5925
▁handicaps	-12.5925
▁streamlined	-12.5927
eastern	-12.593
SEC	-12.5934
▁underdeveloped	-12.5937
▁sine	-12.5938
▁loved	-12.594
47	-12.5944
▁inject	-12.5948
▁embarking	-12.595
▁tunnels	-12.5952
▁preparedness	-12.5955
▁intensifying	-12.5955
▁hindering	-12.5958
▁convene	-12.5971
▁conscientious	-12.5976
▁Discussion	-12.5976
▁GNI	-12.5976
▁Morgantini	-12.5976
▁Pronk	-12.5976
▁literature	-12.5976
▁prevalent	-12.5976
▁stigma	-12.5976
▁dilute	-12.5976
▁exponential	-12.5976
▁scant	-12.5976
▁gentleman	-12.5976
▁pump	-12.5977
ois	-12.5977
▁print	-12.5979
▁convened	-12.598
▁regretted	-12.5982
▁diminished	-12.5988
14/	-12.5988
strict	-12.5992
▁tar	-12.5994
ox	-12.6002
▁steering	-12.6003
▁networking	-12.6005
▁Mc	-12.6005
▁Panel	-12.6007
▁tanker	-12.6008
band	-12.601
terior	-12.6013
3/97	-12.6016
▁distinguishing	-12.6019
▁anchor	-12.6022
▁Pursu	-12.603
▁Important	-12.603
lvarez	-12.603
▁arbitrarily	-12.603
▁oxide	-12.603
▁pragmatism	-12.603
▁relinquish	-12.603
▁segregation	-12.603
▁Fabre	-12.603
▁Steel	-12.603
▁reimbursed	-12.6034
existence	-12.6037
citizens	-12.6038
▁Andr	-12.6047
legal	-12.6048
▁152	-12.6051
▁modernised	-12.6052
▁minerals	-12.6061
De	-12.6065
▁insufficiently	-12.607
It	-12.6071
▁colours	-12.6073
▁amounted	-12.6081
▁commended	-12.6082
▁pluralist	-12.6084
▁Curtain	-12.6084
▁Stevenson	-12.6084
▁Tehran	-12.6084
▁cynicism	-12.6084
▁misunderstood	-12.6084
Aubrespy	-12.6084
▁Brown	-12.6084
▁partisan	-12.6084
▁83	-12.6085
▁distinctive	-12.6086
▁repress	-12.6087
▁discusses	-12.6093
nuclear	-12.6093
▁Cambodian	-12.6103
▁loading	-12.6103
7/97	-12.6113
▁Refugee	-12.6118
▁headline	-12.612
▁Mayor	-12.6123
▁appealed	-12.6123
▁factions	-12.6125
escu	-12.6132
▁3.5	-12.6135
▁indebted	-12.6138
▁180	-12.6138
▁multiply	-12.6139
▁Cresson	-12.6139
▁Troika	-12.6139
▁hindrance	-12.6139
▁hostilities	-12.6139
▁inferior	-12.6139
▁jeopardy	-12.6139
▁sensitivities	-12.6139
▁swept	-12.6139
▁unanswered	-12.6139
▁uncover	-12.6139
▁Emissions	-12.6139
▁rationalise	-12.6139
▁penalising	-12.6139
▁fence	-12.614
▁unwillingness	-12.614
▁creditors	-12.6145
German	-12.6148
attached	-12.6148
▁Galician	-12.6156
▁reuse	-12.6159
▁picked	-12.6174
▁accus	-12.6175
▁periodic	-12.6178
▁deteriorate	-12.6189
aid	-12.6189
▁prosper	-12.6192
▁misinterpret	-12.6194
▁Major	-12.6194
▁anticipating	-12.6194
▁despicable	-12.6194
▁helicopter	-12.6194
▁practitioners	-12.6194
▁probability	-12.6194
▁subsidising	-12.6194
▁inventory	-12.6194
▁roof	-12.6194
versus	-12.6194
▁quorum	-12.6194
▁plug	-12.6194
▁Export	-12.6194
▁Coast	-12.6194
▁mountainous	-12.6195
▁potatoes	-12.6196
▁theft	-12.6198
▁infections	-12.6202
functioning	-12.6203
eviating	-12.6207
▁advancement	-12.6209
▁mainland	-12.6211
▁fascist	-12.6212
▁correctness	-12.6213
that	-12.6218
▁fundamentalists	-12.6221
▁shipyard	-12.6229
▁oppress	-12.624
FP	-12.6242
1/97	-12.6248
▁Thousands	-12.6249
▁Vojvodina	-12.6249
▁complications	-12.6249
▁fodder	-12.6249
▁memories	-12.6249
▁protagonist	-12.6249
▁starving	-12.6249
▁suspicious	-12.6249
▁crossroads	-12.6249
▁proverb	-12.6249
▁sample	-12.6249
▁density	-12.6249
▁shout	-12.6249
▁Chief	-12.6249
▁Local	-12.6249
▁prudential	-12.625
▁monk	-12.625
▁fever	-12.625
▁patentability	-12.6251
crib	-12.6251
burg	-12.6255
Lisbon	-12.6258
▁blatantly	-12.6258
5/97	-12.6259
▁explored	-12.6261
mmed	-12.6262
duct	-12.6268
▁centralisation	-12.6268
▁escaped	-12.6269
▁Learning	-12.6269
ific	-12.6276
uble	-12.6284
▁portfolios	-12.6288
igh	-12.6297
▁void	-12.6298
▁chairing	-12.6303
ncreased	-12.6304
ccupied	-12.6304
▁Eurovignette	-12.6304
▁Frankfurt	-12.6304
▁Honduras	-12.6304
▁Pinochet	-12.6304
▁Schwaiger	-12.6304
▁Spaniard	-12.6304
▁arsenal	-12.6304
▁colonies	-12.6304
▁conserve	-12.6304
▁imperfect	-12.6304
▁inadequacy	-12.6304
▁spoil	-12.6304
▁1976	-12.6304
▁Crime	-12.6304
▁Horn	-12.6304
▁extinction	-12.6305
▁spotlight	-12.6305
▁Campos	-12.6305
▁sadness	-12.631
▁terminate	-12.631
information	-12.6314
▁Somali	-12.6316
(98)0	-12.6317
67	-12.6319
codified	-12.6319
▁reopening	-12.6322
▁resisted	-12.6328
▁posting	-12.6328
▁republics	-12.6332
ologists	-12.6338
OC	-12.6345
▁bombings	-12.6347
meat	-12.6358
5/98	-12.6358
▁Companies	-12.636
▁Establish	-12.636
▁Garriga	-12.636
▁Hezbollah	-12.636
▁PKK	-12.636
▁circulating	-12.636
▁flexibly	-12.636
▁hungry	-12.636
▁mitigation	-12.636
▁parcel	-12.636
▁remedied	-12.636
▁scarcity	-12.636
▁Liberia	-12.636
▁heaven	-12.636
▁thwart	-12.636
▁verge	-12.636
▁Considering	-12.636
▁Blak	-12.636
▁Miert	-12.6361
▁hint	-12.6361
▁interregional	-12.6361
▁madness	-12.6362
▁Broad	-12.6362
▁chip	-12.6363
▁Polo	-12.6363
▁Rack	-12.6364
management	-12.637
system	-12.637
BC	-12.6374
▁lightly	-12.6379
▁materialise	-12.6379
7/98	-12.638
▁selecting	-12.6382
▁supervisors	-12.6391
ont	-12.6392
▁lessen	-12.6393
▁Border	-12.6398
▁crossed	-12.6402
design	-12.6409
▁shake	-12.6414
▁accompli	-12.6416
▁Building	-12.6416
▁Science	-12.6416
▁Securities	-12.6416
▁atmospheric	-12.6416
▁buried	-12.6416
▁crazy	-12.6416
▁insolvency	-12.6416
▁judging	-12.6416
▁paralysis	-12.6416
▁particulate	-12.6416
▁tandem	-12.6416
▁volatile	-12.6416
▁pseudo	-12.6416
▁Think	-12.6417
▁midnight	-12.6417
▁Vietnamese	-12.6417
▁summon	-12.6418
teering	-12.6424
▁elementary	-12.6425
rated	-12.6426
owners	-12.6427
Explanation	-12.6427
lter	-12.6427
▁obstruction	-12.6432
oil	-12.6432
▁optimise	-12.6467
industrial	-12.6472
▁arbitration	-12.6473
▁preclude	-12.6473
▁sacred	-12.6473
▁satisfies	-12.6473
▁testimony	-12.6473
▁Scheme	-12.6473
▁accru	-12.6473
▁Illegal	-12.6473
▁Militar	-12.6473
▁paramilitary	-12.6473
aeda	-12.6473
▁1975	-12.6474
1/98	-12.6477
▁Press	-12.6479
0/98	-12.648
▁cooling	-12.6483
State	-12.6484
colonial	-12.6484
32	-12.6487
▁Coal	-12.6491
▁reconstruct	-12.6501
▁hazard	-12.6511
▁92	-12.6514
ette	-12.6516
▁nitrates	-12.6516
▁tailor	-12.6523
▁succeeding	-12.6524
▁Specific	-12.6529
▁Improving	-12.653
▁Papua	-12.653
▁anonymous	-12.653
▁cessation	-12.653
▁hostility	-12.653
▁humiliating	-12.653
▁liberate	-12.653
▁Plus	-12.653
▁refute	-12.653
NTE	-12.6531
▁necessitate	-12.6532
▁justifying	-12.6536
▁bag	-12.6538
▁eighth	-12.6545
IN	-12.6551
▁defenceless	-12.6552
▁distressing	-12.6552
jer	-12.6563
born	-12.6568
▁conversation	-12.6569
▁loophole	-12.6569
mine	-12.6571
3/98	-12.6578
▁EPLP	-12.6587
▁Sturdy	-12.6587
▁erroneous	-12.6587
▁fauna	-12.6587
▁IRA	-12.6587
▁dogmatic	-12.6587
▁unqualified	-12.6588
▁debtor	-12.6588
▁rationalisation	-12.6591
▁banner	-12.6594
▁dictates	-12.6595
enterprises	-12.6598
▁enriched	-12.6602
▁respectable	-12.6613
represented	-12.6627
▁Orb	-12.6627
Toward	-12.6633
ended	-12.664
rio	-12.664
embracing	-12.6644
▁Buttiglione	-12.6644
▁EBRD	-12.6644
▁comparability	-12.6644
▁encroach	-12.6644
▁intermediary	-12.6644
▁spontaneous	-12.6644
▁unjustifiable	-12.6644
▁Veld	-12.6644
▁exacerbating	-12.6644
▁reinvigorat	-12.6644
▁guess	-12.6644
▁Tobin	-12.6644
▁psycho	-12.6644
▁Never	-12.6646
▁fitted	-12.6646
▁possesses	-12.665
▁install	-12.6651
path	-12.6651
▁attentively	-12.6651
▁evolved	-12.6652
▁interruption	-12.6653
anu	-12.6653
▁borrowing	-12.6661
9/97	-12.6667
▁overwhelmingly	-12.6668
));	-12.6668
▁endangering	-12.6673
▁concealed	-12.6674
▁pollute	-12.6679
▁foc	-12.6682
▁Serb	-12.6684
▁usage	-12.6689
▁112	-12.6689
▁casual	-12.6702
▁Figueiredo	-12.6702
▁engender	-12.6702
▁inaccurate	-12.6702
▁swallow	-12.6702
▁CMO	-12.6702
▁Cameroon	-12.6702
▁Earlier	-12.6702
▁Holocaust	-12.6702
▁Michael	-12.6702
▁comparing	-12.6702
▁compassion	-12.6702
▁immune	-12.6702
▁supervising	-12.6702
▁turmoil	-12.6702
▁tyranny	-12.6702
▁purse	-12.6702
▁DNA	-12.6703
▁Fern	-12.6703
▁predictability	-12.6703
▁2002/0	-12.6704
▁cogeneration	-12.6704
▁plate	-12.6706
▁locked	-12.6709
▁eagerly	-12.6709
▁17%	-12.6712
▁businessmen	-12.6712
group	-12.6713
▁sinking	-12.6716
African	-12.6719
▁fighters	-12.6726
sexual	-12.6726
▁renewing	-12.6729
talling	-12.6732
▁expire	-12.6738
▁classify	-12.6743
vig	-12.6748
play	-12.6748
▁Accord	-12.6749
▁omissions	-12.6756
▁uniformly	-12.6759
egardless	-12.676
▁Grosch	-12.676
▁Improvement	-12.676
▁Taoiseach	-12.676
▁ambiguities	-12.676
▁cloned	-12.676
▁depopulation	-12.676
▁leeway	-12.676
▁punitive	-12.676
▁beauty	-12.676
GI	-12.6768
▁Mass	-12.6769
▁affirmation	-12.6771
president	-12.6773
version	-12.6773
▁116	-12.6775
▁containers	-12.6776
▁paved	-12.6782
▁EPA	-12.6794
▁girl	-12.6802
▁biofuel	-12.6802
▁designate	-12.6804
▁complemented	-12.6807
▁Additional	-12.6814
structuring	-12.6817
organised	-12.6819
▁EMAS	-12.6819
▁Modern	-12.6819
▁Richard	-12.6819
▁culminate	-12.6819
▁infinite	-12.6819
▁philosophical	-12.6819
▁prioritising	-12.6819
▁receptive	-12.6819
▁skies	-12.6819
▁advertisements	-12.6819
▁expel	-12.6819
▁relegat	-12.6819
▁converge	-12.6819
neath	-12.682
▁pessimistic	-12.6823
financed	-12.6828
42	-12.6849
▁engineers	-12.6876
▁Guard	-12.6877
▁1984	-12.6878
▁Bahrain	-12.6878
▁Catalonia	-12.6878
▁EAGGF	-12.6878
▁Immunities	-12.6878
[...]
